/**
  ******************************************************************************
  * @file    network_data_params.c
  * @author  AST Embedded Analytics Research Platform
  * @date    Tue Mar 19 11:03:35 2024
  * @brief   AI Tool Automatic Code Generator for Embedded NN computing
  ******************************************************************************
  * Copyright (c) 2024 STMicroelectronics.
  * All rights reserved.
  *
  * This software is licensed under terms that can be found in the LICENSE file
  * in the root directory of this software component.
  * If no LICENSE file comes with this software, it is provided AS-IS.
  ******************************************************************************
  */

#include "network_data_params.h"


/**  Activations Section  ****************************************************/
ai_handle g_network_activations_table[1 + 2] = {
  AI_HANDLE_PTR(AI_MAGIC_MARKER),
  AI_HANDLE_PTR(NULL),
  AI_HANDLE_PTR(AI_MAGIC_MARKER),
};




/**  Weights Section  ********************************************************/
AI_ALIGNED(32)
const ai_u64 s_network_weights_array_u64[26881] = {
  0x3c9ee162bda27804U, 0x3d118a4d3e3fe6b2U, 0xbc0d34cf3d94da93U, 0xbcbf36bcbdfe7989U,
  0x3d1ef0ac3d6dc2d6U, 0x3d1d78b93d52279eU, 0xbb212ba1bd41a08cU, 0x3b5f400b3c1c4410U,
  0x3d2a5dcb3d713ee2U, 0xbda9139e3ca67955U, 0x3d8edd943d8fd087U, 0xbb80521abd5bc7d1U,
  0x3d61ad22bdb37d0aU, 0xbcea2e22bcd0cddfU, 0xbd6d4b283d9e9418U, 0x3da2df99bd059f13U,
  0xb98b55e8bd884a4cU, 0xbd20550b3b96b1c9U, 0x3d96bf69bd6f35deU, 0x3c35cb7a3c622b65U,
  0x3d8e74bb3cd43503U, 0x3dda3149bd9e3516U, 0x3caa23e03d960a6cU, 0xbd15f3ca3d144c0aU,
  0x3c91ecb73db766e3U, 0x3d17b6a23dc9fc96U, 0x3d8ab3e53b3e56e0U, 0xbd7a27ae3d913221U,
  0x3c87d7c8bd849a31U, 0x3cb5bf303ceb71a0U, 0xbb1acfc03db72fc6U, 0x3d7191d6bd472fa2U,
  0xbd4e5808bd5574b9U, 0xbdaca3b13d86bb56U, 0x3db600adbdf0af94U, 0xbcdaf72c3d796c41U,
  0x3d2a01dcbceed7d9U, 0xbdaafc97bda97693U, 0x3db7f019bcdcea8aU, 0x3c2922bdbd76521dU,
  0xbdc30305bc7c6f66U, 0x3dd209693c1fde97U, 0x3d931e173c77a2aaU, 0x3dc3cbd33d82cfacU,
  0x3e1682a13d777614U, 0xbd7ce8e83b1393e5U, 0x3da55c203cb6f90eU, 0xbbaa7d1dbd1a998eU,
  0x3d697299bd1e1826U, 0xbc94150ebd524864U, 0x3de1fd633bb12440U, 0xbd9a672abbfaabb9U,
  0x3cfd4fa93dad9735U, 0x3d140d32bd512d71U, 0x3d095f34bd9c611eU, 0xbcb1c6e4bd8d59f2U,
  0x3d9eba6cbb8789c0U, 0xbd2c3a443d30d9a0U, 0x3d08d15cbd8dde64U, 0xbdcd8ebc3d937ed2U,
  0xbd854f973d4bd5fdU, 0x3cbf9c343d9bc4c9U, 0xbdd92e443d405653U, 0x3b5ff698bd0fbe1dU,
  0xbb94f8493c0729fdU, 0xbdc32874be8308bbU, 0x3da0f91bbdc89dcbU, 0xbea4c43bbd35f1eaU,
  0xbd1d12e53d00c786U, 0x3d250da43cf86cf0U, 0x3d36b6153ddb060bU, 0x3ca7368e3cb049faU,
  0xbd2124e33d242e22U, 0xbddd7c46bc08cb78U, 0xbc663e6dbb27a3d3U, 0xbd1ea3c4bd24d70eU,
  0x3dabf76b3da437a0U, 0xbd0d2ac03e2a1524U, 0x3b415a023d8ce345U, 0xbcbe2fccbd10dd2aU,
  0xbd4eb82b3d8f9629U, 0x3da11070bd869683U, 0xbd8f00a93cde2b7cU, 0xbdb2d8cf3d25e021U,
  0x3c85e416bd810c26U, 0xbd3d3994bcd6ce30U, 0xbd824e1e3d50b495U, 0xbd9d1b55bc7b8732U,
  0x3d0958ee3d5ee4b6U, 0xbcdc67973d594a19U, 0xbdae004c3c0074f0U, 0xbcc0bbac3d6448d9U,
  0x3d1da3913d46843bU, 0x3d824f3bbc5c7200U, 0x3c8baa6bbd5b15e3U, 0x3cbc31c23d2809f1U,
  0x3d8cf428bca86b4aU, 0x3bdf4d50bd539ec1U, 0xbc9746463dde0e98U, 0x3da86bfdbdf28e53U,
  0x3da3847bbcc585c5U, 0x3d6ff267bbf1150aU, 0xbda4832ebd690197U, 0xbd04c47d3d7317caU,
  0x3c1a5f90bd2329e1U, 0xbdb43b6e3c42ab0dU, 0xbce8d1f0bb5f2b50U, 0xbd943bccbe165f61U,
  0xbb51f230bd0a5534U, 0xbdadfff0bd01ce34U, 0xbaf9680fbc9220d0U, 0x3b366be53d97efc9U,
  0xbdb9b661bd8102dfU, 0xbd417b44bcb30a0cU, 0x3cd828173d79478aU, 0x3d1fa4c83cf98ad0U,
  0x3ae4f9d33d30a6c9U, 0x3d85edfd3d628656U, 0xbd03aec0bcb1dfacU, 0x3d8897693cf2bfccU,
  0x3d5ea3d4389a8800U, 0xbccf36ddbb4bd00fU, 0x3d085db9bc9ea125U, 0x3d43d4f93c2180ecU,
  0xbd8c4b763d9633acU, 0x3c0f11083cd5ec0dU, 0x3c37db89bd3f9e7dU, 0x3ca81998bc99a7e1U,
  0xbc6adaf1bce5fb26U, 0xbd2a1e663de80669U, 0xbd7760553df43195U, 0x3df15822bb65aefaU,
  0x3cb837143d9614c1U, 0xbc9c4d6bbd0c09f3U, 0xbd89dfb6bdc82611U, 0x3cd009d7bc6876d7U,
  0xbd06f47abd80df2dU, 0xbe31af653d818a8dU, 0xbdb3919fbd87951fU, 0xbd63737239c1179dU,
  0xbd2e40423d321bdeU, 0x3d8be47abd9805cbU, 0x3d5764883c7652c7U, 0xbc619f7039f42900U,
  0x3dbef52ebe2fedd8U, 0x3d00225d3dde45c9U, 0x3da275a7bdacd8a0U, 0x3d2480de3dc167fbU,
  0x3d365f0dbd5bdf4dU, 0x3dbadee5bce90052U, 0x3c244190bd23c690U, 0xbbe70be03d2f3825U,
  0xbe0393993d97b489U, 0xbcc8d06bbcc87819U, 0x3cf1154c3bb2e650U, 0x3b475980bdc1794fU,
  0x3d49f8fcbcd99040U, 0x3d63da26bda6ad46U, 0xbd5c4d573af2fef2U, 0x3d8ef4ad3d9fd393U,
  0xbd95a5f23bd60184U, 0x3d9df9e13cf8c01bU, 0x3d2e954bbd7ef9c0U, 0xbd1c914c3d77cfe0U,
  0x3dd3b7083d11fb2dU, 0xbb9db7073d043917U, 0xbcf954bf3d6d00f7U, 0x3d0cd9f2bd573a69U,
  0xbdde1c3ebd952c75U, 0xbc8cb38dbd3e1deeU, 0x3d8a1ac5bd005e66U, 0x3c6877563dbb5d35U,
  0xbd23d1143dca2bdbU, 0x3dc06bfabcf0cc80U, 0xbcc02de53dd4720fU, 0x3d5129a93db89036U,
  0xbc4c65e83dadbe71U, 0xbd08a0d8bd072ea8U, 0x3d4e99fd3d760bc6U, 0x3d4afcfe3db20c49U,
  0xbd0eebb9bd5fca5dU, 0xbd6a6df4bd84ddffU, 0x3d672b2d3d043389U, 0xbcb9b9b4bcb045c4U,
  0xbcd7a1f63c3d5270U, 0x3dc669c93d1b1f07U, 0x3ca9ca6bbc74b6bbU, 0xbdfe043f3d083767U,
  0x3d4f07653cf40ac7U, 0xbc9150003d84fc04U, 0x3cf644d93cc43ad3U, 0x3c2d451c3d7cbdbeU,
  0x3daca2bfbcd217a4U, 0xbd48494fbc486571U, 0xbd9cbdcdbe148c68U, 0xbe3c9945bdbbbd00U,
  0x3dbb9fee3d5b134aU, 0x3d8b0a563cabcb54U, 0x3d7a734a3df1b036U, 0x3c9562343c83d408U,
  0xbd97e1213c510024U, 0x3dc52c96bb8f5a01U, 0x3d5d2fc83db831e8U, 0xbd56aababaac66ceU,
  0xbd80421f3d33e064U, 0x3c99ca21bd86dbf9U, 0xbd3f47d43d936897U, 0xbdaaa057bcf87704U,
  0xbd60bc87bc04367dU, 0x3d0753ac3d85eb47U, 0xbdb73c183c155158U, 0xbc33b9aebd1769f2U,
  0x3c581000bd6a6091U, 0xbda49bc2bd501fffU, 0xbd02bd3bbd84b2d1U, 0xbd3c5651bd5a0e12U,
  0x3cf216a83d4f15ebU, 0x3cfd37423d7deb6aU, 0xbae724003d62fc8aU, 0xbdb3ad663d879785U,
  0xbdcbf82a3d4c4da4U, 0xbd80c9c6bd88e98cU, 0xbdb5628f3bd6bfecU, 0xbd39214abc8c4cc0U,
  0xbd8f93edbd151d0aU, 0x3d9eb6893d85d342U, 0x3d43267b3d2eb10bU, 0x3db37616bdfdd61aU,
  0xbe04b161bcee0242U, 0x3dc556ee3d8f9bd7U, 0x3c9d3c883d2efea3U, 0x3d8694c73b85d7f0U,
  0xbe119cba3d66ee36U, 0xbccefb893dc92377U, 0xbd65bdc2bd963756U, 0xbcf3928ebd820afbU,
  0xbd2a5b14bd9dcd8cU, 0x3d69f17dbd0a0177U, 0x3d03da6c3c8fe875U, 0x3d3efed4bd2163d6U,
  0x3d53373f3d279a54U, 0x3bca0e0a3da8cc5fU, 0x3cb6cfbbbb3659c0U, 0x3cffd6cebd04a736U,
  0xbd8d26ec3b1a76deU, 0xbdda43adbd10a25bU, 0xba1ca1223d86c6efU, 0xbd8e9d84bcf36eaaU,
  0xbd86c978bcd79346U, 0x3cd4e3dbbd96dbb3U, 0xbb843c82bb8f9d79U, 0xbd334f403d4e31a6U,
  0xbcf8deb53db93566U, 0xbc5acbc83d84a855U, 0x39eecbe13d7e24eeU, 0x3db122c23d90ea34U,
  0xbbc0d5053d615976U, 0x3d6ae212bd21b067U, 0xbdb7a786be150c54U, 0xbdd435903ddad454U,
  0x3d5dcb47bca8ef50U, 0x3ce49ed13d0692ccU, 0x3d00139cbcd6dcf6U, 0x3b97fe7abd11b9c3U,
  0xbd459c1c3da8e140U, 0x3e12db743d13161dU, 0xbc05e6823d1bc991U, 0x3ccca314bbba601bU,
  0xbcf3ecd13cee21c2U, 0x3d5241eb3d8bb2c1U, 0xbb8f005b3dbac7fbU, 0xbc8bc5ecbcd10b04U,
  0x3d6378e13dad9728U, 0x3d96c04bbdc723bdU, 0xbd6c53ba3bad7ff0U, 0xbcd13fa9bd05ab74U,
  0x3c465147bd403be8U, 0x3c951f70bcad9cd1U, 0xbb054b80bdb1c8bfU, 0xbd45760cbd6f3320U,
  0xbc279c8bbda37270U, 0xbd60ba7a3d9ac2feU, 0x3da66153bd0fabb7U, 0x3d2356b2bd7ff978U,
  0xbda167fc3ca65f21U, 0x3c0112c0bcd25974U, 0xbd880040bc6fedbdU, 0xbd9771433c4259efU,
  0x3bc86b0a3dfc8967U, 0xbc4b48883d97550aU, 0xbc8a1d4dbcdb4921U, 0x3d1109babd91f5f8U,
  0x3ca3b8a33be1b8feU, 0xbbe04943bd2957b9U, 0x3d7bb75d3ba14279U, 0x3d9c77c6bcfc4564U,
  0x3da6fa1a3da15a72U, 0xbcbf3537bd482dd0U, 0x3dbc76303d886b42U, 0xbda7a005bd14c7bfU,
  0xbd6d65aa3c65e9c7U, 0xbcd36a303d713a0aU, 0x3d2a37c43c891eb7U, 0x3c6f1cd03d83d7ffU,
  0x3c32540d3dcc3eb0U, 0xbda1bc93bd8e1a96U, 0xbc85d58d3da30111U, 0xbd0065143d3a5478U,
  0xbcdd86f53d37daa6U, 0xbb9d8a1f3c25a6f2U, 0x3cb990113da189bdU, 0x3d956773bd3d1fd5U,
  0xbbf6296dbb287400U, 0xbc2a17043bf37994U, 0x3cd4dccfbc08b28aU, 0x3d5a1366bd8c33b3U,
  0x3c930aa4bc907ce2U, 0xbd9ece4ebc8cb585U, 0xbd77856e3d1784cfU, 0xbd0313fcbd862d7eU,
  0x3cc331f3b95816afU, 0x3d105996bcf3688aU, 0x3d8146193cd3d7b7U, 0xbdb11ae83d275387U,
  0x3da4b84d3da5ac89U, 0xbad89bbe3d5bbe02U, 0xbdb3e2b9bda33708U, 0x3b36a20a3da31a74U,
  0x3dae74243d3d3f07U, 0x3d944f0f3d78f862U, 0xbd6e1554bb2aa8edU, 0xbd47d98f3bf8a765U,
  0x3d34807cbbd759cfU, 0xbd8030643d5b1ddaU, 0xbc3b1b02bd91f1f8U, 0xbd69c4cfbd63bc61U,
  0xbd8a005a3d504f1fU, 0x3cf2b1163d777770U, 0x3ba07178bcc15124U, 0x3ab420bcbdb14a53U,
  0xbc48b6c3bc98ad39U, 0xbca9e4fbbd99c1edU, 0xbb8254803c848689U, 0xbbbb9aa0bda187fcU,
  0x3caecb80bd829d75U, 0x3d9ee2e73d93e899U, 0x3db4fbc13cca594cU, 0x3cebec8cbd1e90c6U,
  0x3d7464acbd456725U, 0x3d832c9dbc62eed8U, 0xbcaa7500bbafd08aU, 0xbdb6bac8bc8b10e2U,
  0x3be60d62bc352bcdU, 0xbda8f69c3d8220b6U, 0x3d4dc7fbbd974df8U, 0x3d271fc43d668318U,
  0x3caec219bcce03ecU, 0xbc882d3c3c8ef882U, 0x3b49e24f3d536de0U, 0x3cb7f050bcea9ef4U,
  0xbcd7e37fbcbe2401U, 0xbd7a098e3c69a028U, 0x3d7e820bbca5bf68U, 0x3da6ee6ebce39185U,
  0x3d821a313d551014U, 0xbd8a8fc13c5e30dbU, 0xbd4b37cf3da1ba8eU, 0x3cdb5e3ebbeaf193U,
  0xbc7c8a333dae99e4U, 0xbd2e2fe03d13d29eU, 0xbd291a5ebd503355U, 0xbd26c84e3daa933cU,
  0x3da5ee06bce29fdcU, 0xbd4d1e813d58900cU, 0xbdae4df73c2eca66U, 0x3da4670f3d91f00dU,
  0xbd8f1a8dbaf909c0U, 0x3a473c8b3b80884dU, 0xbd5ffe04bd91aaf6U, 0xbd0eb67d3b87c281U,
  0xbd12437fbd9846eaU, 0x3c255f00bd979f5eU, 0x3ac778b1bb49e740U, 0xbca75fc33d8467abU,
  0xbc83213e3c8d881fU, 0xbc652d6bbe652402U, 0xbd88cd69bd8425e0U, 0x3adc930d3c17298dU,
  0x3c1187793cc83a8cU, 0x3d48f6513d799c02U, 0x3d6133d23dd45724U, 0xbd027eb7bc21109fU,
  0xbd8a687e38bf5eddU, 0x3d07a9643d4b2e53U, 0x3d238de8bbafaab3U, 0xbd2f67e1bd5ef0c9U,
  0x3dd46ae93c4b609eU, 0x3db3caeb3c502ff0U, 0xbd1beb233cf12cb7U, 0x3d9a423bbd1f8e30U,
  0xbbec5d8b3d12b5d2U, 0x3db9e92fbd882914U, 0xbd56760bbdad0795U, 0x3d699c3f3c3f9dbbU,
  0x3c8285a33dc89cc0U, 0x3d11c72e3d9faa55U, 0x3daa6e39bd809837U, 0xbd3a3dd6bd838763U,
  0x3c37fd0e3dd6def3U, 0x3daa23d33da21159U, 0xbdad659abd1c4d3aU, 0xbd54b90e3d83ed94U,
  0xbdbadf9a3db7d98dU, 0xbd89b88ebdab4e52U, 0x3c36eb71bd9f586eU, 0x3d9acda03d5c6479U,
  0x3baee24bbc6318e9U, 0x3db133373d96e63fU, 0x3d20cb0f3d279628U, 0xbccbe6b7bd975c8eU,
  0x3b56ed3f3c1c1bb7U, 0x3c8a5cf63d713c58U, 0xbd0f4d323da3c06aU, 0xbd914eff3d93ec11U,
  0xbb83baf43d309135U, 0x3cfba4313ddabf5bU, 0xbc614a793ddafc3cU, 0x3d94a22cbd11bde6U,
  0x3d09db81bcea352cU, 0x3dbfde383d55b4dcU, 0xbd30ad89bd9c1393U, 0xba5c4a393d31d3a2U,
  0x3c654eeebd1f09cdU, 0xbdaefadf3ca91a1cU, 0x3d7530293d501ea2U, 0xbd7d96f63c57690eU,
  0xbd788f96bd328106U, 0x3a1a71d5bcaba9ddU, 0xbd013a10bd5768caU, 0x3d8c98733db0186fU,
  0x3d1ce0cbbd6e4872U, 0xbcad7d56ba4c5485U, 0xbd0eb16f3db8a806U, 0x3e104868bd8c8b2cU,
  0x3d9603813cef73eeU, 0xbd2b27cebd19197cU, 0x3df67cbfbd9962baU, 0x3d372dce3d3f92deU,
  0x3b42e7e03da00aa0U, 0x3ae57badbcd66153U, 0xbd367e7d3c85f118U, 0xbc90e0d9bd86b713U,
  0x3cd6de6bbd7fabb4U, 0x3c8f60c43d589b1aU, 0xbdae6ca2bda2fde8U, 0x3d8ccb6d3d2fbd1eU,
  0x3cf4fb3abd5665f9U, 0x3d66bbaa3d74eb2eU, 0x3cfd3ab03d072690U, 0xbda6bddabca40efdU,
  0x3a2f6f593ce45be9U, 0xbc693b9b3da652a6U, 0x3c1190503d4b3fe6U, 0x3d0b8a9ebd80e42eU,
  0xbd25ebe03d65a357U, 0xbd746669bdb6db01U, 0xbd743cd03d52d16eU, 0xbd917b4dbcb346fdU,
  0xbda2ef543c6c3619U, 0x3b5652d1bd78c2fcU, 0x3c112fa8bcbd7b9aU, 0xbcf2262c3d8c0e0fU,
  0xbc35abe8bd53c88dU, 0x3d84c05b3da3dac7U, 0x3bf90970bd11e126U, 0xbcf66c5a3cbdf4e7U,
  0x3d70b0b63be2704aU, 0x3d330e4abd29405bU, 0xbd9b06cb3d92ddc4U, 0xbdaa6eef3da8b115U,
  0xbd7f58f23d72781bU, 0x3d2ff246bcb28a00U, 0x3d62ab213d8b66e0U, 0xbd83fb84bcbbc766U,
  0x3d9901e8bd914039U, 0x3dac2abd3da13b40U, 0xbd2303943d2d1b6aU, 0x3c57378cbd4a135bU,
  0x3c3e55c4bd023036U, 0x3d95f4553d819c73U, 0xbd7fd200bc6d6a36U, 0xbd258b5fbd5bfb05U,
  0x3c5977c53d05d1ecU, 0x3cffbb34bd8c9274U, 0xbd8f06e33c9bfc7bU, 0x3da97ceabd4e5ff2U,
  0xbc23ce3cbd605435U, 0xbd8e0a873d86d159U, 0x3d5a45c63daca12dU, 0x3d5971ce3c9ecaa9U,
  0x3c820d58bd509e5dU, 0x3d21cae8bd56ae01U, 0x3d9151203d5db2ddU, 0x3d66202a3dad9f59U,
  0xbce7efaf3d80f7d3U, 0x3b713147bdb8ffbbU, 0xbd76965abc272bd3U, 0x3c8c1b173d1d6e26U,
  0x3d06558bbcfbc1e8U, 0x3c287bc8bd83b7d9U, 0x3d57e4babca10df3U, 0xbdb22129bdb91132U,
  0xbd23be9bbd837465U, 0x3d220f20be8929c1U, 0x3d376703bdee6184U, 0xbc05606d3ba092e6U,
  0x3d4fb9193d0e6cc8U, 0xbc9fdfc4bd56c752U, 0xbd8b8e753d2c00fdU, 0x3d7b62aabd0c7c23U,
  0xbc8f23853aee3090U, 0x3e399e9d3d43d054U, 0xbcee97acbc7ca64fU, 0xbc90b18fbb8487a9U,
  0xbd8680173cbed908U, 0xba44d67dba9dbe80U, 0x3d4c90293d371d0aU, 0x3d545ac6bda4d91fU,
  0xbd3288c53e1d5b8eU, 0x3d55e06f3c3a853aU, 0x3d71eadf3ceed814U, 0xbdacc98abccdabc8U,
  0xbd85388cbc6e3f51U, 0xbd58e5943c487124U, 0xba1c35803d752f8fU, 0x3c30b810bc3cc9b0U,
  0x3d892afebb0ee963U, 0xbd684e7b3da70c14U, 0x3d9e1e9bbdab0f4aU, 0x3d92c7e5bd4a0473U,
  0x3d8afc953d890db5U, 0x3a083080bbcba970U, 0x3d507f38bcfc4a5cU, 0xbbb3e49c3db5d813U,
  0x3b9f211ebdf2c027U, 0x3d2ba536bd3b7b14U, 0xbd71fa44bcdf3724U, 0x3daccc813b9c17e0U,
  0xbc1466cdbd210e86U, 0xbd32ffe33bf789b5U, 0x3d9321d03d7d0f06U, 0x3daaf08abda43a4fU,
  0x3d15be7f3e07a991U, 0xbc0e3ec13da2bdb9U, 0xbdc965acbd4d2a1aU, 0xbc3a4d09bd998059U,
  0x3dc36f33bda3818eU, 0x3d9a4e1bbdbffb8cU, 0xbd0bbddb3d262af6U, 0x3d67855abd7012ceU,
  0x3d7630debd51e61aU, 0xbd654774bc03be60U, 0xbb93d98ebda44097U, 0x3da179dc3d733fd2U,
  0x3cafa5fa3e357079U, 0x3d98e53a3d8d87f3U, 0xbd09eac93ca5dad9U, 0xbd4611d83cdafe3cU,
  0xbd7012293cab91b0U, 0xbc698e6c3c2b43acU, 0x3d83475d3d2b3b81U, 0x3d9e3e373d81bbeeU,
  0x3b126590bb6513d9U, 0xbd984dae3ce2beccU, 0xbc334878bda5a721U, 0x3d0bb75c3d8afd20U,
  0xbcbef7853c5f3e8aU, 0xbd7941cc3dd89cbcU, 0x3da6df023d7b1e51U, 0x3da00024bca189fcU,
  0x3d8cd8933d8b5079U, 0x3d2bdfb2bd126f09U, 0x3d0dca7ebd8a5026U, 0xbd0f975f3d7052ffU,
  0xbd5527adbdc46e31U, 0xbd8a0ae63dbb7781U, 0xbd98b9d63d4868c2U, 0x3ccbb9e5bd798e14U,
  0x3c3803e3bdcf0f10U, 0x3d324f013dafcaf3U, 0xbdb39a74bd91774cU, 0x3c8f38983d39489eU,
  0xbd3b84c3bd8ddcc9U, 0xbd8e312f3c51d530U, 0x3ddb348dbcca578cU, 0x3cc058d03d89ded5U,
  0xbd01048b3cc2d3ddU, 0x3da46bd83d0626f7U, 0xbd94e50fbd11ab67U, 0xbdace85cbce1284cU,
  0xbdbd2ed0bd68ac44U, 0x3cd64e00bcc8137dU, 0x3cbf9a443ce86770U, 0x39764200bd1a150dU,
  0x3dc896a1bd1fb15aU, 0xbda079a63db05115U, 0x3d246f183cf0ace0U, 0x3c6bc06d3d8e9220U,
  0x3c297a3dbdeebad0U, 0x3da9c73d3da9772dU, 0x3d87ebe9bc047593U, 0xbd677829bd28a12bU,
  0x3d87863a3db701aaU, 0x3d4fe103bd14d52aU, 0x3c721cabbcf03f5eU, 0xbcc9db33bdb3b3adU,
  0xbdace116bdc18a28U, 0x3d5349ebbd96129eU, 0x3d505576bca560cdU, 0xbd8ca5e03de90db8U,
  0x3c85df50bc904173U, 0x3d320a643b7ad43eU, 0xbd8592f13d12e30fU, 0xbd00e27bbda78ee5U,
  0xbd9d32d43d943149U, 0xbd1290ac3c5836b0U, 0x3d089b13bd888a2aU, 0xbc56c93b3db6e941U,
  0x3a9a42e1bc87a57aU, 0x3e051e943d123077U, 0xbc01c75c3d609c02U, 0xbbffcf403da15fffU,
  0xbad3fa38bbd54060U, 0xbce333c2bd14df0aU, 0xbdb6e92e3cf62610U, 0xbd8b50e73d070f65U,
  0x3d2dff33bd2f8ff7U, 0xbd9ecec83dc8bd2cU, 0xbd3c49f53dad3e63U, 0x3da027883d90e2cbU,
  0xbd8c60703d7b1782U, 0xbc899b69be3ffadaU, 0xbccbd6203c80d42cU, 0x3dcf6859bbcdffddU,
  0xbd302b513d1b206eU, 0x3bcc4f0c3d7db19eU, 0x3d1a98d4bd6d799fU, 0x3d65128b3c65d09eU,
  0x3d160b563d6b4be0U, 0xbd935b4bbdb7b3c9U, 0x3c159eb33a8fb794U, 0x3d2ce2803d0ac11eU,
  0x3d288e123d3441dbU, 0x3dfd55113db3e4fdU, 0xbbe8a5893d27e7b5U, 0xbceb02e0bda757e4U,
  0xbd2209d63df08bd8U, 0x3cc42694bc4c936bU, 0x3c1457463d91aef7U, 0x3c867b01bd942206U,
  0x3d13e6dd3dcaa8eeU, 0xbc8f001cbc8c0286U, 0xbd5c9428bd9df826U, 0x3d9567b1bd175a01U,
  0x3d336c393d903834U, 0xbcd75efd3c901454U, 0x3d9966f5bd9fc494U, 0x3d071b0c3d117862U,
  0x3db05a86bd7b7d48U, 0x3a9e0cc03d9dc579U, 0x3ccce134bd9fc1e7U, 0xbdbc61b33cde9703U,
  0x3d344f133c18d743U, 0x3ce00df4bd84557bU, 0xbcca58f13c368832U, 0x3d4ea2f93daf464eU,
  0x3ca141c93d88abdcU, 0x3dac59b6bcb93153U, 0x3d77b13cbcc3daa1U, 0xbd42a887bc4950b8U,
  0x3d42c5a33e4bca0dU, 0x3d8e79f43cdfa3a2U, 0x3cfc23d93d83790eU, 0x3ccf7c0bbca317aeU,
  0x3dae452d3bc6f8dfU, 0xbd6387fa3c119d94U, 0x3ddf94fd3d8dc8f9U, 0x3d4eb17fbc054cbcU,
  0x3e6bc84a3d3589e3U, 0x3d8b00f93add5dc0U, 0x3d16c3c83d0eb5f4U, 0xbdc0f7dd3da29b02U,
  0x3d8505df3e4abb67U, 0x3d522b5b3cd473ebU, 0x3dfbbff2bda08d11U, 0x3cf6df443d911553U,
  0xbd228fff3d90175fU, 0xbc4314183dfc219cU, 0x39a51f59bcaa2233U, 0x3c13bc753d07e7caU,
  0x3b851471bd96210cU, 0xbd9e09103c5028e3U, 0xbd04e8173cce1d70U, 0x3c449f913d3118ceU,
  0x3d87ef353cdc04c8U, 0x3ceabbd7bc9983ccU, 0xbd370cc6bc57b66eU, 0xbd606d1b3c813adcU,
  0xbda42454bd723e53U, 0xb94d2fba3c8636e4U, 0xbd83b6ba3db43809U, 0xbc1723bbbdb6d73dU,
  0xbda31c543da87488U, 0x3d8a924dbd085ff0U, 0x3da1d898bd7e1a51U, 0x3d9a2b37bd9c118fU,
  0xbda184c4bda71f5eU, 0xbcdd917d3d4b2988U, 0xba9b3004bb26b344U, 0x3d636c263d24e93aU,
  0xbdba87fdbd52c07bU, 0x3d3fe8dd3a221f40U, 0xbdb3b1a9bdab7624U, 0x3d805056bdbae764U,
  0xbda0b76abc45a058U, 0x3cd569f13c57da54U, 0x3bd6f9003c5acd01U, 0xbd1808f83d8322b2U,
  0x3da6ee6d3c977126U, 0x3cc13a69bd5fbe55U, 0xbcd568a8bda112caU, 0xbd14db8dbc5e0800U,
  0xbd6021bcbd8217a7U, 0xbc4819a8bd833aa0U, 0x3d934008bd9bb7c8U, 0x3ca3f6093c067c20U,
  0x3cb5baa33da30f4cU, 0x3d80a1313d78e25cU, 0xb9da4d99bda2139bU, 0x3d8ff4f03d26f0eaU,
  0x3c1631263d542cbaU, 0xbda3692e3d728b16U, 0xbdb7030a3ccf3a64U, 0xbda16937bd0333b1U,
  0x3c63f0e5bc4580fdU, 0xbd21d9353d4ebb82U, 0x3dac89593b050c15U, 0x3d85353bbc8b87b5U,
  0xbc57f316bd9e2b73U, 0xbd6c1d5d3d5497dfU, 0xbd5640b73d84dd1cU, 0x3d8413adbda1b0e4U,
  0xbd729f69bd87dc3dU, 0xbc7630f83d7b7896U, 0x3da01bc5bc49c300U, 0xbce5463a3d67e299U,
  0x3d8079403cd7dec9U, 0x3d97ac3dbd49daaaU, 0xbd1921ecbd48c2adU, 0x3d2565b23ce36f74U,
  0x3c7bc0c2bd1ac30fU, 0xbcb7be87bd6c8eb3U, 0x3ce8064a3d8faaf5U, 0xbbd6be14bd808fdfU,
  0xbd9e51863cbe8749U, 0xb9a8ce003d36a805U, 0xbd1295963d403daeU, 0xbc688698bd6d7123U,
  0xbeab397f3d0dc80bU, 0x3dde4ff93e3f14ceU, 0xbdeb2c5f3d305e06U, 0x3d97798fbdffd836U,
  0xbd60c35bbd029887U, 0xbcc3b77abd35967eU, 0x3d81d069bd0ea23eU, 0xbcdc830fbd5880e3U,
  0xbd832278bdcad608U, 0x3d364248bde5f5edU, 0xbd9e82a23d7534acU, 0x3dbfb90e3d459161U,
  0x3d61f4f3bd0e29e1U, 0x3d0185fabb79582dU, 0xbd494167bce288c6U, 0xbd437ee53c5b1298U,
  0x3d7024c9bd38413aU, 0xbdc5d553bcca05acU, 0xbd021686bcdcf8e0U, 0x3dac5d48bcdced61U,
  0x3d93ff4b3defa78dU, 0x3dc0df4fbd1347e7U, 0x3c62acb0bdb2e1baU, 0xbc30aa08bd8d5113U,
  0x3db0814ebdfda04aU, 0x3cf25c8ebc1e759aU, 0x3d860a633d91ee1bU, 0xbcfcf19cbd9a01edU,
  0x3e146caabdb9248eU, 0xbd620015bd8b0271U, 0xbd0deb163cc2de85U, 0xbd1d0c5ebd51bd30U,
  0x3c67b0163ce11dceU, 0x3b3864a03cb8a5e1U, 0x3db3ed57bda2b00bU, 0xbdfcb86b3baa7fe2U,
  0x3db56a583d5e5882U, 0x3c83d5d4be0242f2U, 0x3cf25718bde130d2U, 0x3d29498cbda414fbU,
  0xbd97fef53c4437ecU, 0xbd0b3bfb3dbc8054U, 0x3d44c88ebdf17d22U, 0x3c5127d43dd52042U,
  0xbc5b8481bb079d5aU, 0xbd8692643dc7fd60U, 0x3d9a979a3d4e857aU, 0x3bf6d94ebd96e529U,
  0x3c2d6e213d85d6efU, 0xbd01019abd93d91fU, 0x3dc409413db283cfU, 0xbd8e78783d9da5baU,
  0x3b288186bd10e084U, 0x3ce15179bda9ad9dU, 0xbcb85460bd7ae875U, 0x3d13cb3a3d18845aU,
  0x3dd250f8bd23a0c0U, 0x3dce3507bd2fd57cU, 0x3d9bd51abdc8354bU, 0xbd4319aabd6e2501U,
  0xbdc66c8b3dcdae38U, 0x3cce4240bdc484f4U, 0xbd2170243c94a6cdU, 0xbcedfa0dbda00f91U,
  0x3d912829bd5b12f5U, 0xbd2e0b56be2dff7bU, 0x3c956029bd9cfd0dU, 0xbca09b243dd2aa1dU,
  0x3d94d6223da63cefU, 0x3dbcdf97bd5ec2f8U, 0x3dd0e354baa44348U, 0x3dbc4d563d359ca1U,
  0x3da9eca8bd37bd05U, 0x3db7d2eb3dd53f2fU, 0x3de61f063d4742e8U, 0x3b4eecfebc999717U,
  0x3dabc034bd3385cfU, 0xbd855ea6baf2bb63U, 0x3bca0a163d16b6d6U, 0x3d17480abd61859cU,
  0xbd5f6923bcde4a4bU, 0x3d0aef37bda035aeU, 0xbd954fd4baf98d40U, 0xbd8abfd63d781db1U,
  0x3c2aa6423cf07fe2U, 0x3d1a38b93dd81133U, 0xbda1063b3d60dfb9U, 0xbdb300083d02a3e6U,
  0x3d7d90623d2fe396U, 0x3c84c838bd9dedefU, 0xbd649a143cfadcfcU, 0x3d796ada3d1ab08fU,
  0xbdc2d7173c944994U, 0x3d15f9febd896deeU, 0xbd2f72e1bca09302U, 0x3d8ebe0c3dabfbc7U,
  0x3cf9cdf33d9020e8U, 0xbda156bb3d12b610U, 0x3cae526e3d815b01U, 0x3c53ec863d5a7b9fU,
  0x3d98e5b6bd900c84U, 0xbcb298833d38f5bcU, 0x3b215d4bbd563413U, 0x3daeeaec3d893675U,
  0x3ddb3a693d78d65cU, 0x3d0a4a553ce04a04U, 0xbd645e633d6c1c1aU, 0xbd6206a0bde18a26U,
  0xbc1dd76d3d84ac06U, 0xbd3311f03cc28816U, 0xbca88c683d5ef09eU, 0x3db46b9ebc31e7ecU,
  0xbd3df2af3d9e521bU, 0xbcdd6224bd3a6a43U, 0xbcfdb5ee3cf791e8U, 0xbd43f69839bf427eU,
  0xba914184bc8cbdecU, 0xbb7be0353dbcb2b5U, 0xbd3267fbbc88fc92U, 0xbd5a592a3d2bfd12U,
  0xbc8eb268bd2fa40cU, 0x3d6eecd9bd3be15eU, 0x3de3d2cc3d72a5ccU, 0x3d1ac6d73bdc6eecU,
  0x3cecb98b3dbb74f7U, 0xbccac9703d67a0cfU, 0x3cc661e9bd93e9c4U, 0xbd35da523d218c5aU,
  0x3d912cab3d495d42U, 0x3d675d2e3c5fe938U, 0x3c13e3103da28fcbU, 0xbd56d688bd825a12U,
  0x3ca4b9b03cd1f3ecU, 0xbb3e6680bd82697dU, 0xbc8e4628bd65f9fcU, 0xbc41f730bd445729U,
  0x3d4f47fe3d0aa43aU, 0xba858fc0bd7ffad8U, 0xbd14743d3d9f8d1dU, 0x3d4e5e16bd1d4032U,
  0x3c8b025cbd763ebfU, 0x3c8faa64bccbd178U, 0x3da2c891bd679490U, 0xbcf5f8203d78c4daU,
  0x3d4946fabc980b98U, 0x3d9b8c713ca9a900U, 0xbdaa9953bb819440U, 0x3bcb71f03d78d4faU,
  0xbcd5bb20bd9a0331U, 0x3cff1fa0bc9548d8U, 0xbcd602a2bc3f99a0U, 0x3d74298ebd96233eU,
  0xbdaafc2fbdac5804U, 0xbc55c718bdafbe86U, 0xbcc2c8803cddd6b0U, 0xbd7d08d63d6d815eU,
  0x3c1d8300bd1817dfU, 0x3b1c232039c64d00U, 0xbd253548bc29d900U, 0x3d9e2d8b3d5e2092U,
  0x3d7e15b6bce7530aU, 0x3d6849bebd61d112U, 0xbd17246ebc4ceb88U, 0xbc654ea03c93ef0cU,
  0x3c914eac3da62e87U, 0xbdb344363c8d2034U, 0x3d9634e73d9eb07fU, 0xbd9351383c13cfa8U,
  0xbd37d9d53d67075eU, 0xbd462cd3bcd6dbe4U, 0x3d9ffb3fbc08cdb0U, 0xbd96c8cebcb2c104U,
  0x3c924044bcfe3fb8U, 0xbd932b81bd17b128U, 0xbdacce6e3cdf3890U, 0xbd9af6bf3d259152U,
  0x3d73fe26bd74bca2U, 0x3d3bed2a3d67fd62U, 0xbd26b743bd25489eU, 0x3d1e3b32bd1a080aU,
  0x3d86d5a7bd9f9a66U, 0x3d8a4e1b3c9041a4U, 0x3da9871f3d0fd3ccU, 0x3d8cfa65bd0bd134U,
  0xbd2b22043db001d9U, 0x3d1e00da3c5b1880U, 0x3d9102973d54205eU, 0xbd257f76bd35957cU,
  0xbda105753cbc2274U, 0x3c7c3ae8bd1726dfU, 0xbd834d4f3d21889eU, 0xbce48d2cbda14610U,
  0xbd29e8303c4c3923U, 0xbd27ccee3e9844b0U, 0x3d2712dd3d4ee95bU, 0x3dbc30a03d69a046U,
  0xbc6fd97f3d2fbf2eU, 0xbd8ee427bcf1694aU, 0x3d69a900bda6ede3U, 0x3d733c1abb93de16U,
  0xbd8dee973b76c5f5U, 0xbe3c32ea3d3ab5ebU, 0xbdbccdcf3daae1d6U, 0xbca6ae713d65a510U,
  0x3d214f28bda359d1U, 0xbd0ff64abd355112U, 0x3cb1df6d3d858025U, 0xbba54fc03d1c7af2U,
  0xbd2fc126be287a54U, 0x3d3b853b3da5e5d7U, 0xbce683403d8efc87U, 0x3d90f34e3d8fa33eU,
  0xbc5a34423d94a8e2U, 0x3c56e4bcbd85cfb5U, 0xbce67f38bd460a2aU, 0x3d3c3c0a3c65e249U,
  0xbdb698793beba54aU, 0x3d28e04fbd9ae406U, 0xbbc399c03d65ec26U, 0x3d8f79adbd2295b4U,
  0x3d941396bc438e90U, 0x3d89442f3cc8a7c0U, 0x3dc310173d64c309U, 0xbc80fb48bd161b90U,
  0xbd867561bc0a8bdcU, 0x3d9b8c8d3d8f4dc4U, 0x3d96201c3d56842dU, 0xbccbe65e3c907f1fU,
  0x3da79dd83c517496U, 0x3c83a2973d980452U, 0xbd6a51f13d64875aU, 0xbda2e0713d30453aU,
  0x3d3df19cbc8a0b16U, 0xbd928457be0a7cb9U, 0xbd12dfcd3ce01b02U, 0xbd0aa22d3cf76d2dU,
  0x3a66b5893cc7b48bU, 0x3d0ec0163db01509U, 0x3d4f5d0c3c8c81b3U, 0x3d16bfa13d7621efU,
  0xbdbf9302bd8107e6U, 0x3c74c18ebd3e6dbbU, 0x3c9cd0d33bcdc110U, 0x3c8a88ea3c9a6e8cU,
  0x3d76d787bd7f6305U, 0x3d3a59e9bd92eb7dU, 0xbccaa377bd1943ecU, 0x3cbd35fcbd819f46U,
  0x3ab82255bdb0df84U, 0x3c861425bdd3d590U, 0x3dc52b203d911a1cU, 0x3c37404d3d3672f7U,
  0x3d7dd9563c58c78aU, 0x3dabee353db64677U, 0xbcd350153d6ab4e3U, 0xbd912af33d83bc37U,
  0xbd54ac2c3daa2f28U, 0xbda506f5bd12fee7U, 0x3db6b3e5bd13629bU, 0xbe2ae6adbd38d7eeU,
  0x3c8c0b2e3d3c2c0aU, 0xbdba77c23d25367eU, 0x3d190a743d307a86U, 0xbd5ab09b3bcf054bU,
  0xbceec1c8bd71c1e3U, 0x3de513f03c2b2f7eU, 0xbd8113873c1506a2U, 0x3d2ffb613cba3ed0U,
  0xbd170ea13d9f6b0cU, 0x3c4501943c8569dfU, 0x3d95370abcfdaf8cU, 0x3da72c31bc557950U,
  0xbd9d018bbcc8af13U, 0xbd0701233d833181U, 0xbba054f5bdb50189U, 0xbc84f80e3d8a489bU,
  0x3da53bcebbffb619U, 0x3d8691b03ce46474U, 0xbd3c29c23d933e39U, 0xbca5ef783d3f4864U,
  0xbc636618bc41c463U, 0xbb899169bd74eb94U, 0x3d806a253dac16d7U, 0x3d04db623da86fedU,
  0xbe0df732bcc3530fU, 0xbd9675fa3afac8c0U, 0x3d27aed83db20794U, 0x3c49fd3b3d6ded47U,
  0xbd79516bbd5dd455U, 0x3d622f3e3d934982U, 0xbdc74c423c62df65U, 0x3d24bc41be377b0dU,
  0xbe1bf31a3d298e5eU, 0xbdbf462e3a81d2cfU, 0xbddfca9ebd456b79U, 0x3d9ffa9ebdafa1f1U,
  0xbdadc3633d7b93d2U, 0x3a95b31d3d814405U, 0xbd83a7033d989e4aU, 0x3da0cbdebe3024d1U,
  0xbd6f8a1f3c605c26U, 0xbd41ce82bd1b21a1U, 0xbd19ec33bdede917U, 0x3d7f944fbd729bdbU,
  0xbd98f33ebd1d6efbU, 0xbd218845bd78f832U, 0xbbd02b813c258c08U, 0x3dbe5d34bd16de47U,
  0xbcd447533c735a9fU, 0xbd6c50fbbcf5e0c7U, 0xbc1e4567bdabeeb2U, 0x3d38f436bb02a160U,
  0x3d2bdebcbdaf261bU, 0xbd47cd003d51a1a1U, 0xbcaf054fbd8c8a77U, 0xbe6112993b73a938U,
  0xbc914f3ebaba17cdU, 0x3bbe1ef03d470977U, 0xbda92989bdcea4eeU, 0x3cf8773f3b9534a3U,
  0xbc3fd0c2bd7b707bU, 0x3cf600aa3dc31ed2U, 0xbc8490f03dac0ec1U, 0x3e0aba883b9df71cU,
  0x3d985d033d349a76U, 0x3db3de6c39c62c00U, 0xba5415fd3d5eb0a7U, 0xbd82b677bcf95711U,
  0xbd8c1001bdb2e461U, 0xbd0631153b546899U, 0xbb5edfc23d2f89d4U, 0x3db40763bd904e58U,
  0x3cab599c3ca3f3e8U, 0xbcfa94613d960331U, 0xbdaede2b3d8790e8U, 0x3da86ab7bd09517bU,
  0x3d9cee84be724ad3U, 0x3d1f55a93dd719e3U, 0xbd7c3b1bbdb0af20U, 0x3c48b70f3d4d85a6U,
  0x3da39380bb34e18fU, 0x3d81fe203d96a557U, 0x3cd336dc3d11e1c7U, 0x3cc185603db42e1dU,
  0xbc9b6e2e3daafcd0U, 0x3cc946683d6621a3U, 0x3dac10efbceb4bc6U, 0xbd4ead443d988c3fU,
  0x3d420cae3d4d7dcdU, 0xbc74bf30bd870bdcU, 0xbcaeb62a3da3bf70U, 0x3d12ad523d3bdcf4U,
  0x3d80732c3bd0c762U, 0xbd07d0273c1aeb2aU, 0x3d5e1afcbddccecfU, 0x3c5c07c7bccbb6a5U,
  0x3da8a09b3ba5383aU, 0xbdb0371d3d99ec8aU, 0x3d75ed73bdb79a4dU, 0x3db2d9e1bccd2d58U,
  0xbd0e6e34bcd694e2U, 0xbced0d0bbcea0dcfU, 0x3c70d32f3d91283cU, 0x3d3c17e43da30a23U,
  0x3d0da5c53cf76c32U, 0x3dbec22e3c858a61U, 0x3daef52ebc59702cU, 0x3da18caf3dc614dbU,
  0xbdcf1992bd0b91b3U, 0x3d82b5bc3d8743fdU, 0x3db927ebbd1a4485U, 0x3daddf193d71b431U,
  0xbccaccaabe4926dcU, 0xba9bd5423d95cb97U, 0x3dae08e7bb4b38a9U, 0x3d2351b2bd82bb8cU,
  0xbba56a66bd8d58a6U, 0x3d88a10fbdea43f9U, 0xbca94cd3bde8925dU, 0xbde2b491bd6bf8fdU,
  0xbd7c8bf13d050502U, 0xbd354a393d80b1faU, 0xbd3464c23d68a95bU, 0xbba4c8493cf0991eU,
  0xbbbeb42a3cec85afU, 0x3de9317abdeb596aU, 0xbc504391bdca6f5cU, 0x3d282d343d9193b7U,
  0x3c760f4e3ba1a070U, 0xbd10618e3cc72f64U, 0xbd3101ad3cce4f4cU, 0x3bbcf08abd22153aU,
  0x3d8c9e4bbc92ac98U, 0xbc334b3ebcaf4f8aU, 0x3c096527bbf30aeaU, 0x3d8cd8c5bd859eeeU,
  0x3c980ea83c13bcdeU, 0x3d9812d53c9e7f36U, 0x3d8e689dbd950123U, 0xbda7f881bda3affbU,
  0x3ccdafbb3e2388ceU, 0x3d81b19d3d9b0e5dU, 0xbc160ba73c0355b0U, 0xbd9798fdbd7c195aU,
  0xbd48c8b13d981c2bU, 0xbd74726abcbd33a8U, 0x3d7b54eabd6c2817U, 0xbc3bb728bc9fee2fU,
  0xbdb12b79bd80008bU, 0x3bcaab7d3d594a9dU, 0x3d9761813db33be3U, 0xbdafe6043c24706bU,
  0x3d8c3c443c81f8deU, 0xbd4167ed3da754cdU, 0x3d2617e63d3b89dcU, 0x3a919fc9bd4489a6U,
  0x3d35b6053d842cadU, 0xbd18c3c13d81cee7U, 0xbd9861a3bb1482dcU, 0xbd6ae7ef3df9cdbcU,
  0x3c0179703d3011a7U, 0x3c0eae3dbd6f1804U, 0x3c85c25abc438d31U, 0xbcc24681bd6d25a0U,
  0x3db2acde3d2511e6U, 0x3cc0ccb83c2d0e33U, 0xbbf632013d47f89dU, 0xbdbd90ec3db16cadU,
  0x3da386c93cb28ad1U, 0xbd2432223d8fb068U, 0xbbcd568d3abc78bbU, 0x3d695e18bb78673dU,
  0xbc0b099fba9743cfU, 0xbc5121f73d9d7825U, 0x3d61e893bda6fb85U, 0xbd9361853dd74471U,
  0xbcfe9e4f3d4c6d0eU, 0x3d0abcd13d8bbd41U, 0x3dc47e283cbf0dd3U, 0x3d82fd7fbdae1781U,
  0x3bc9ed203c7b31b8U, 0x3d1503eabd873fc6U, 0x3b79ecea3c854fb4U, 0x3dda4d46bcf7a020U,
  0x3d0fcf2ebd53edcaU, 0x3d30f0e63d8dc07dU, 0x3da7e2173d749c35U, 0xbc6816523d4dc390U,
  0x3d8db9a43c045ab1U, 0x3df025de3e327ea3U, 0xbac716993df01274U, 0x3d02afe9bd30566aU,
  0x3d766c873d5cfcdaU, 0x3dabdb1abb1af7e0U, 0xbc026e08be0df29fU, 0x3d90070b3cf73a7dU,
  0xbd39b9a3bd9e5b7dU, 0xbe12933bbe1f6952U, 0xbcf50b6abc4d4d19U, 0xbac3db3f3ca343a3U,
  0xbd9a71bf3c27f09aU, 0xbd78e51e3da561fdU, 0x3c9b01663ddb6e42U, 0xbd26ec4cbd892bccU,
  0x3d87f9babd8c9ca1U, 0xbda2a42ebca2be09U, 0xbd0a6dfdbcca750cU, 0x3d8797183d3716a7U,
  0x3dd2832ebd661fe0U, 0x3db113e9bdac0377U, 0xbd32a1503da20388U, 0x3d2b552e3d3b4382U,
  0xbd91e52c3c1eb3f7U, 0xbcaa46623cfd3551U, 0xbda7c2693da16a5bU, 0xbd88ff84bdfadb81U,
  0xbc3b0fea3ccd8566U, 0xbcb9cd3cbd2113e2U, 0x3cb4d4e63d8a43eaU, 0xbd1ff64abdd1591eU,
  0xbdbef3f43ce804ecU, 0x3cd901c83d4f87ddU, 0x3df1a176bd953209U, 0xbdb76e243cc86247U,
  0xbd424c093e008e4bU, 0xbd134b1ebcada1feU, 0x3dcce9df3d0efcfeU, 0x3dcd76c93d385e52U,
  0xbdace148be2726aaU, 0x394aee8c3bd47ffaU, 0x3b1a26acbda0fdcaU, 0x3cbe5c043bf204c6U,
  0xbb0c3f52bdd9bd63U, 0x3bd0754f3d49a19cU, 0x3d226a933e01d6ffU, 0x3b5e74fd3d8d1679U,
  0xbdb017ecbd0fd111U, 0x3de4fdec3b34e460U, 0x3c4a24c93c38dde8U, 0xbd500547bce10fdbU,
  0x3db3f69e3d0312feU, 0x3d6fe6e3bda6b00dU, 0x3bf4c4cbbd7dc8b0U, 0x3d4498063c835004U,
  0x3d9daf66bd8e197eU, 0x3d84bf4c3cc33bf7U, 0x3d6e12b8bda3a484U, 0xbdfb0b10bd9e89a7U,
  0xbdd726e73d87fb9eU, 0xbc8d8384bc6d95aeU, 0xbdf498ba3d99b50bU, 0x3da34b083c91890dU,
  0xbdb0e2a9bbeef7f0U, 0xbd18a184bd32ee71U, 0xbc3fb758bb90ead0U, 0x3db1c6433d01cacaU,
  0xbd971e7c3d4cfbc6U, 0xbd20e525bd86acbfU, 0xbca41da03cfb5970U, 0x3da730b53c8f9a98U,
  0xbd35d4fb3c890a10U, 0x3b823f703d830eedU, 0xbd248b85bd29dd9eU, 0xbd16f40c3d9bd059U,
  0xbc0c2cc0bda6e085U, 0x3d18fb0ebbdb45e0U, 0xbc10b7703d9b04c9U, 0x3b05de20bdb342e3U,
  0xbda3fc47bdaa463aU, 0xbd0cca533daa8cb7U, 0x3c8dc85cbd8c89fbU, 0xbc1b0a18bda40edeU,
  0xbc3b0888bd4bbe92U, 0xbd344e763d8b047bU, 0x3d1727fe3d6df77aU, 0xbb9bcc40bd98e9e1U,
  0xbcff8b70bd9c48e4U, 0x3b7d5040bd609863U, 0x3d1bf5c63d934dadU, 0xbc53b4b0bd4ec239U,
  0x3ca954d03c694840U, 0x3db1fbbbbd5052d8U, 0xbd5da86f3db3f867U, 0x3c7545e03caa5964U,
  0xbd6315a2bd87c659U, 0x3d8e0d59bd9b7a66U, 0xbd2509743d45732eU, 0x3d7774a63ce09b4cU,
  0xbd77fe443d8a69b9U, 0xbd29f1f8bccc9f34U, 0xbd9418c3bd33e85aU, 0x3da07e71bd8a07b9U,
  0x3bfd74a03d21db8eU, 0x3cfdb86c3cde3c88U, 0xbd66d1ffbd8a62abU, 0x3daaa6a93d8f8db3U,
  0x3cd82698bd566059U, 0xbd3bd6f1bcacadbcU, 0x3c4c1ae8bd61a43fU, 0xbd41d9383d6ac3f2U,
  0x3d92d01dbd9525eeU, 0xbc2570f8bcd21b60U, 0x3d9575c5bda7689fU, 0xbd970aeebd901b14U,
  0x3daa71a3bd43c6b3U, 0x3db0c649bd638ae7U, 0xbd926cdebd6a1cb0U, 0xbd6500cc3dab5a87U,
  0xbd0da642bc90936cU, 0x3d978489bd831a97U, 0x3d8af2d1bd306626U, 0x3c949b143ca0b3c4U,
  0xbd90c9e8bca35280U, 0xbd120c533d969d15U, 0xbd9324183da1b93bU, 0xbb059840bd16d56cU,
  0x3dc076543da959f2U, 0x3d0046cb3d2c37c6U, 0xbd6b3f94bd4a822aU, 0xbe220cdcbd86d08aU,
  0x3d8c42c93cd94c2cU, 0x3d5a9c3f3cac2448U, 0xbd7bcaef3dc07450U, 0x3d54d3e3bcb17049U,
  0xbc655439bcdefe95U, 0x3e3d59263d008043U, 0x3bdb6b693dc25cd6U, 0x3d81864c3db05366U,
  0x3d84cc3ebd92a33aU, 0x3d8db38f3d8ada70U, 0x3da9a6a13d195f7cU, 0xbd8c48ea3cb1f088U,
  0xbd247de6bce420e0U, 0x3d44541e3d914726U, 0xbd0136a037c94000U, 0xbbf3c50abc015952U,
  0xbce8da18bd47d39bU, 0x3cbfab06bd96df13U, 0xbd2ac9d93d47abf1U, 0x3c9630e83d30b723U,
  0x3de812c73d3593faU, 0xbd5817d1bd6af985U, 0xba1e61803d26c43eU, 0x3ce2fffc3c0c146bU,
  0xbdc7a2303c48c6e9U, 0x3da62b29bd833a24U, 0xbcc2b2673cfb478aU, 0x3d88705d3c06b49aU,
  0xbcef4e1fbd76281bU, 0x3c800bccbd90477bU, 0x3d75b07abdcf8759U, 0x3d49bc75bd6bf18aU,
  0xbd5e81acbc6c837aU, 0x3b3423bc3d9869baU, 0xbdd2d4d33dc63c7eU, 0xbd871daf3d58a01aU,
  0xbd3a4004bb78d2edU, 0x3db7a4e03cec5508U, 0xbd11b3193c2ee970U, 0xbc0287f1bddfff0fU,
  0xbd98fac4bc40bb4cU, 0xbb5dbabdbce3fc35U, 0xbc9700dbbd924bb8U, 0x3c84c6603daf68faU,
  0xbd8d9fd2bd30aef7U, 0x3d666173bd9578a7U, 0x3be0f166bb77f8a0U, 0x3d98d2c63d6cc09fU,
  0xbdaf61793d8d8997U, 0xbdc762323dbb3d31U, 0xbcd6a9323cc8006bU, 0x3d0f1c4c3bfea060U,
  0xbcd485dbbd4fb3f7U, 0x3d9d9892bd342b6fU, 0x3c932aba3d8ccfd3U, 0xbe24af423da7e0c4U,
  0x3c6afde03dbb1b04U, 0xbdaaaf263da1af5aU, 0xbd4cc757bd89bfcbU, 0xbd19d1e4bd4a3917U,
  0x3d4ee35ebbd2b393U, 0x3dc7f7983e76d737U, 0xbd8b2daa3e0dc285U, 0x3be5fc05bcf7c018U,
  0x3ca7e54f3d02caaaU, 0x3d4d013d3c813a80U, 0xbc606540bdde375eU, 0x3dd1b01c3d032756U,
  0x3d858ae43c328461U, 0xbe298cb3bdb6f9d5U, 0x3d00da0abc25b143U, 0xbd105aa53d5091a9U,
  0x3cf5d499bb8a48faU, 0xbc44a2d63d24e9b0U, 0xbd1f2100bc4a45f3U, 0x3ce9e404bbd6c920U,
  0x3dd1568dbdb8882aU, 0xbd9332993ddec4e7U, 0x3bc71c10bd5b0556U, 0x39f829813de4c259U,
  0x3cf1ee1b3dedf030U, 0xbc8c61af3d4b1b92U, 0x3d33ef323d8732c0U, 0xbcf14e92bc2b29d1U,
  0xbdf4bb5bbdc0abeeU, 0xbd1609553da06f1fU, 0x3b3e9ee0bd7ecaf1U, 0xbd5e8ac9bc2e4800U,
  0x3df805ebbd6f5d13U, 0xbc0d4158bdad8004U, 0x3da30290bd0a5372U, 0xbcd1c3d63d461ff9U,
  0x3d074b45bd98770cU, 0x3cbbe9f03cd576c9U, 0x3b38868f39d2f5fcU, 0x3d4c296ebba8d403U,
  0x3d9a2012bd39ca8bU, 0xbd5156fa3d04569aU, 0x3b61127c3ca99461U, 0x3d0634b8bd79063aU,
  0x3d603d6e3c7cb731U, 0xbd6b8044bdcb9ce2U, 0xbad13fa8bcc29e2aU, 0x3d84fbc93db892caU,
  0x3ded3a303bd686d4U, 0xbcb85061bd0ea6c7U, 0x3d399e333dd8c919U, 0x3d6242e43d80229bU,
  0x3cf4cc2e3dcb3351U, 0xbda5974ebc65da28U, 0xbc2c036c3d4561e2U, 0xbd74a79d3dc8993eU,
  0x3db77a6abcfbcfccU, 0xbce114233dbe4cceU, 0xbc51ba74bcf84a16U, 0xbc2dd3583d7fd35eU,
  0x3de0a9cf3d1114f0U, 0xbc1dc62dbcabdc51U, 0xbcfa3480bd47a022U, 0xbde13833bd050d45U,
  0xbcfebd81bd8f462dU, 0x3d972cbf3bfef57fU, 0xbc7b50cabb167fd9U, 0x3d128dc8bd2eae2fU,
  0xbd541da0bcd6c9b3U, 0x3da4c7aebd13dc03U, 0xba83c81f3d96287fU, 0xbd02022abbef8486U,
  0xbdb1ca963c14dc60U, 0xbd22768f3d369642U, 0xbc17aa593c599963U, 0xbc871fb3bb426f80U,
  0xbca5ef6d3c072680U, 0x3cab40d03dad1b71U, 0xbd76ca013d4d10d1U, 0xbcb350d1bd014624U,
  0xbd61686fbd2c29a2U, 0x3da7a5efbc80b8fdU, 0xbca4d63b3bd56b4aU, 0x3d0b866ebd8a4872U,
  0x3cc516e5bd74ee2cU, 0x3d8d49e63d456fa2U, 0xbd9f059b3cfb3d3cU, 0xbdac9144bd46f0adU,
  0xbd3e8c3ebc740c18U, 0x3d26eed33d650001U, 0x3d07735c3d81e663U, 0xbc0a3ec03c4ee411U,
  0x3cabbb183c38d497U, 0x3c85b7ddba87fdf2U, 0xbc8708b03d3504eaU, 0x3d0888babcc87345U,
  0x3d296d90bd9c9737U, 0xbd599d493d3c1e5aU, 0xbd45a7f2bcbb7469U, 0xbd8c7783bbf32500U,
  0x3da84893bc234660U, 0x3c623f60bd6c73b8U, 0x3d4676943d127158U, 0x3c8297fcbd983e15U,
  0x3c92be183dad85ccU, 0xbd52d48bbd71ef81U, 0x3ceb806abdaa2d9bU, 0x3db1cd6f3d6ce1caU,
  0xbd136351bd202d0cU, 0xbd01fae6bb961130U, 0x3d4e05e1bc5d25bcU, 0xb96a7c00bc8212a3U,
  0xbc091d29bd3056e1U, 0xbd775f8bbd494cd3U, 0xbc83a5ce3c6bb0baU, 0xbbc167ffbd804827U,
  0x3aeed8b43da02695U, 0xbd17512d3c706368U, 0x3d8ea6f33d56b80eU, 0x3c0c268b3cbfbef7U,
  0x3d5e98cc3daf005fU, 0x3c592b043d6c82e3U, 0xbd1960ce3d7673ccU, 0xba8072403db2b0c5U,
  0xbd9e79dabdaa5349U, 0x3d0c0b7c3d1c044dU, 0x3cd0e0a5bd2d39d4U, 0xbdafadd93c7aee20U,
  0xbd1fff703c6d32afU, 0xbd273639bc224866U, 0x3d345d30bb89d892U, 0xbb7ee7f0bd35c47cU,
  0xbce0491d3b92c660U, 0xbcd01e30be0e0994U, 0x3cf2af533bbea567U, 0xbd88cae43d7de48bU,
  0xbd9fd3ad3d132f22U, 0x3c73febb3daf3aedU, 0xbd3862303d8cd209U, 0x3c80165a3c8ef0f9U,
  0x3c4002bfbd95c35bU, 0x3e30695f3d40cc03U, 0x3a5ac2ffbdacd5bcU, 0xbda0bae23cba640cU,
  0x3c8e0aaa3dc93f99U, 0x3da019c53d8626d8U, 0xbd3d4ae43d0c0c15U, 0xbc0b06b03d635c52U,
  0x3c88743b3e2a2b1fU, 0x3c3dac73bdb8b725U, 0x3d98356e3d3f000aU, 0x3d4538d63dac5760U,
  0x3d8748b13df3e8ffU, 0xbd59fd24bb74545cU, 0xbd8998b6bd53ce6aU, 0xbd089f4a3ce065d8U,
  0xbc87c9f33b681df1U, 0x3db7242b3d759f63U, 0xbc5d48003cf26b40U, 0xbd90b5723d02044aU,
  0x3d502074bd3862bdU, 0x3d9b6165bd5e4a73U, 0x3da198fdbcdf3b08U, 0x3db06c223d0e242aU,
  0x3d819b113c0af1f0U, 0x3c9324883d52b018U, 0x3d1e152e3d0041feU, 0xbd3efc6b3d017505U,
  0x3de1dbe9bd29eb47U, 0xbd2cf3f23dd0a441U, 0xbaf43bb93d6a926cU, 0xbcb8cbbdbd1545adU,
  0x3db4719abc273676U, 0xbdb2464d3d0cc57bU, 0xbbf81822bcf8d282U, 0xbce78105bd58406aU,
  0xbdd67b8e3da9e101U, 0x3daeb63ebc8756dcU, 0x3da7480d3d23ddd3U, 0x3d86efc73d2f43c2U,
  0x3d87a51d3d571441U, 0xbd8bf21cbd856fedU, 0x3d0c3cbd3d47f06aU, 0xbc6352fd3ba0d2fbU,
  0xbbe9cbd23c32956fU, 0xbd60804d3cfdcd83U, 0xbd5ddc423dc0bce3U, 0x3d19c316bdb45247U,
  0xbd310585bd8df354U, 0xbd504981bd2e26a4U, 0x3d60037a3d0ba2c2U, 0x3df5967dbd597a82U,
  0xbda14fd7bc104adbU, 0x3cea59003d79be7eU, 0x3dd819903d31dbedU, 0xbd699fbdbd6298ddU,
  0x3d82cd15bd0442d2U, 0x3d85bcae3e2d2f78U, 0x3be58ff83d59af7bU, 0x3decdb283ce73360U,
  0xbcc934e3bda2a0aaU, 0x3da57d483d23b2d2U, 0xbd45d00cbdf5d50aU, 0xbd5444f03d90455eU,
  0x3d9e0cebbd7ad4c6U, 0xbd1dc77dbd8fe402U, 0x3d54507e3d862d5cU, 0xbd8bc840bd976391U,
  0x3da0bbf43d2942a8U, 0x3d3bc7d3bb9fa5b8U, 0xbb8909cebd4a0036U, 0x3d4e49eebc57eed0U,
  0x3ca7ba1abe6840f0U, 0x3d3986353ca4ee8fU, 0x3c45bac73d232b6eU, 0x3d1a0d14bbf80792U,
  0x3d99814f3d18dad8U, 0x3dd61ee03c3edbdbU, 0xbd7a98f03c19218cU, 0x3ce17da43dab8122U,
  0xbda567d0bd4fbc13U, 0xbdbf6160bd00066bU, 0xbd49ee4a3d369196U, 0x3a947b00bd80e079U,
  0x3d885109bb0374eeU, 0x3d0824823d406abaU, 0xbd458abf3d9d5c85U, 0x3d8826c4bc53ce30U,
  0x3d25100f3c575c57U, 0xbd904efb3cbc8299U, 0xbd0d631b3c86354bU, 0x3b06418ebd97bf3aU,
  0x3c8492ed3dd23bc8U, 0xbd74cbe9bd63d80bU, 0x3dbd5b463d9c5b05U, 0x3da2fca13cf845a0U,
  0xbdcb0a4fbe3efea8U, 0xbd472361bd29d5a0U, 0xbcc5dfa53bb2b6b3U, 0xbdba928c3c17ca66U,
  0x3c9c18af3babdac1U, 0x3d6987d7bd7b9508U, 0xbd8d63213d90728eU, 0xbda0ac56bd96ac61U,
  0xbdc570093d8a1ea6U, 0x3d26bcb43d2457eeU, 0x3d730d023d4617eeU, 0x3da98225bd8bee8bU,
  0xbd6b4a16bdd5b521U, 0x3d42c480bd8e960fU, 0x3d457b5f3da4a071U, 0xbcb5efdcbd9ce23fU,
  0x3d8747e63be97630U, 0x3d1b7b00be222468U, 0x3d54dd363c3dbf46U, 0xbde9a68a3c643384U,
  0xbd058a98bc495797U, 0xbc6c52903d28cbebU, 0xbd9d39b03cae793dU, 0x3d823fec3d3b022eU,
  0xbc24d51ebe52f2ddU, 0x3d63dcb13cc2d4a8U, 0xbe5107dabe7a7ee3U, 0xbe3a4c3c3df0b8adU,
  0xbdd3ad3cbd000dfaU, 0xbdb779fdbd7eaa51U, 0xbd3c1d59bd511881U, 0x3dc28e133cfc117fU,
  0xbd69b75f3ddcd2b7U, 0xbc8f6b60bd32ea46U, 0x3d103973bdfc7df8U, 0xbe6d812a3da68bf8U,
  0x3c46dbf53e04e591U, 0xbdc4bebd3d8883a8U, 0xbc962ded3dac35ffU, 0xbd5dd43bbda4f1acU,
  0xbdf7bd49be41e241U, 0xbd3dbbb6be8e433aU, 0x3b92ba9a3c933b60U, 0xbd56fa63be04f411U,
  0xbd818813bd74866aU, 0xbebc1fc03d39f319U, 0x3c3224f8be2e7de0U, 0xbca20788be1f0775U,
  0x3d4db16e3ca6b91dU, 0x3ded1ad3be20f35cU, 0x3d7a88d23c22be60U, 0x3c949d1c3e069b35U,
  0xbdf8807bbc225238U, 0x3d0dac14bac6a980U, 0xbcbcf75fbe0e0b11U, 0x3d84bc96bce88a09U,
  0x3ce508e13dfd29aeU, 0x3da037c3bd9da63aU, 0xbde8d7de3e1511a5U, 0xbcfedc9b3d41844eU,
  0xbb26f775be28a6acU, 0xbc2e51f9bb63f31fU, 0xbd28a4223d4ab1b8U, 0x3cfb6b5bbcc1dc18U,
  0x3dc9811a3e2c3913U, 0xbeab44e1bd37430bU, 0x3c6d06d83de8902aU, 0x3d55c8f7be812c1aU,
  0xbe8434113e170af6U, 0xbcbe2244bdcfc6b0U, 0x3cda1b5a3c749cc2U, 0xbcbae87c3d298d46U,
  0x3d5f9b893daa2552U, 0x3d5019ae3cc55cdcU, 0xbe1f23ba3c0f7870U, 0x3d948a4cbcb620faU,
  0x3ce0ce73bdea6e9fU, 0xbc2e8896bd271ad2U, 0xbc83090dbdd81a1fU, 0xbd4a2e323d901939U,
  0xbda8eec73d9a938fU, 0xbd62e8443e25f646U, 0x3ce028db3c462e76U, 0x3df9b2fa3df8cb58U,
  0xbcb3f175bc95b758U, 0xbd9ff539bd578113U, 0x3d1f1ca7bce22695U, 0xbd69fa52bd84aa7dU,
  0xbdb1b2763b993370U, 0xbd0407bfbdabb5aaU, 0xbd744b13bd90f0bbU, 0x3db15b9d3d928979U,
  0xbcf596cabc5b23c8U, 0xbd90cfbc3d9c72dfU, 0x3d8017ad3d9e59afU, 0xbd1b6b0ebdb3eff8U,
  0xbd817410bd455a6dU, 0x3c01b780bd2c5845U, 0x3cbb8a50bd7a17cdU, 0x3c667828bd91e57fU,
  0xbd12e78abd22526cU, 0xbda12f903af77240U, 0xbc1e1088bcb1a488U, 0xbdaae8b9bc7b2ad0U,
  0xbdb00b19bc07cb58U, 0x3d9735e33db3bdd3U, 0xbd916226bd02ac2fU, 0xbb801f703abbfe80U,
  0xbd2c3f17bdb4547dU, 0x3d9accd7bca351a0U, 0xbd2c382abc7777f0U, 0xbd3e9f293c9af8acU,
  0x3da228833da017cdU, 0x3d3129cabc297238U, 0xbd3dfed03d4f0ce6U, 0xbd4f6e4bbd8fc58fU,
  0x3c1fe2b03d541886U, 0xbdb07f55bd1ffcd1U, 0xbd639224bc82fd3cU, 0xbcfbd418bda862a0U,
  0xbcaad94cbd8df7c8U, 0x3d3af38a3d54942eU, 0xbdabbc743c61d4e8U, 0xbd5b3c1a3d136354U,
  0xbd54e4f6bd935042U, 0x3d2a01ea3c7f59a0U, 0xbd08e4e3bc351dc8U, 0xbd0f0f3abd8d6ef6U,
  0x3c82c10cbd3271b7U, 0xbd5ec7e23d9d161bU, 0xbc8703f03d927751U, 0x3d877177bb7c6e80U,
  0x3d840867bd8bf766U, 0x3c69ae703cf75120U, 0x3d8829b3bd2c77abU, 0xbda3ab72bd6506d7U,
  0x3d8be5cb3a2d7700U, 0xbd80ec8e3d2fe41aU, 0xbdb314c4bd80c2a8U, 0x3cffc4c4bd09f6d3U,
  0x3d775cc6bd59be03U, 0xbce495e23cf7bd08U, 0x3b2df020bac0be80U, 0xbd92c0dc3d4364f6U,
  0x3c979310bd9a6b83U, 0x3ca62b7c3d15f028U, 0xbdb0523abd9d9a02U, 0x3c53b0083daa64d3U,
  0xbd1f63feb9008c00U, 0xbc43d6a83dadb233U, 0x3c9c0fe4bda636cdU, 0xbd39fa68bcf84d4cU,
  0x3cbc9b98bcbb7426U, 0x3dfd23d4bc0b0c52U, 0xbcfbc7043a29d89cU, 0xbd300b54bcd291e8U,
  0xbd51a2febc3209e8U, 0xbd39270a3b228300U, 0x3d0fa015bbfa56e3U, 0x3d339b253dc1bb3dU,
  0x3c1ff0a1bbd4620aU, 0xbe156759bd6c1b53U, 0xbd7c337e3d8af5ffU, 0x3d7c79f83d8e1233U,
  0x3d05af143d62a947U, 0x3d7dce093d683894U, 0x3d16c5ff3d4a5f78U, 0x3d340feebca030a4U,
  0x3b8fea483db98620U, 0xbd8fc5803da1be60U, 0x3d95bd493cbcc198U, 0x3cb682903d06f354U,
  0x3cf7af523a968f65U, 0x3c5788e1bc2f0638U, 0xbd9396133d5f6f56U, 0xbd09d9ff3d91a726U,
  0xbcd37ba2bd89e87bU, 0xbd5b11ae3ce1bd66U, 0xbaa4ea803c697d40U, 0xbdaeea7c3d188547U,
  0x3c664feabc146180U, 0x3bd1a0c0bd8aab28U, 0x3dd0b894bd44c39aU, 0x3d85931e3c0d82bbU,
  0x3d0a1a373cb45692U, 0x3d41913e3c4c206cU, 0x3db81b5a3e0d2714U, 0x3d8e96eb3c9e1993U,
  0x3d9a5cbcbcbabf67U, 0x3dc5328abc8711f9U, 0x3e1713083cbd3b15U, 0x3c9e966abcdd2b80U,
  0x3cd21d3d3e265e86U, 0xbce875c4bdacaa5eU, 0x3db1394e3d2c08c2U, 0x3d53861f3ddb4d26U,
  0x3de62ea43d1f35efU, 0x3da5e8efbd9261f2U, 0x3c4a7f0bbc3e41ccU, 0x3d3f94acbd3910deU,
  0x3e047b013cdbb47dU, 0xbd84c176bcf2e22cU, 0xbd5277f1bd9b9d6bU, 0xbd9132543dad5becU,
  0x3d6355153e02e642U, 0x3d04d653bd524be8U, 0x3b5d38cdbc00ea89U, 0xbd3502553d54747eU,
  0x39b96e0b3a3bfb80U, 0xbd5062603e361536U, 0x3d8a12383d136aa1U, 0x3d6a1baa3d877cbdU,
  0xbd745cfdbd8b4294U, 0x3d83b3ef3d900fdbU, 0x3b4f06423db3137aU, 0xbcca3e7b3b4a4f32U,
  0x3be6f90ebb284e31U, 0xbd013485be488e75U, 0x3d03d035be039ef5U, 0xbdf754563dd0c6b4U,
  0xbd5b527b3c0b9bc8U, 0xbcfefe5dbc909f78U, 0x3c03dcabbcfbb8c8U, 0xbd671da23d635ad6U,
  0x3d6d6c14bb2a9e05U, 0xbb45a2b73be6ccbbU, 0x3d38ff1bbdd1c035U, 0x3d5c7adc3c4e2450U,
  0xbd03f18dba63ad3fU, 0xbcc73cf53dccc8d2U, 0x3df035143d463e6bU, 0x3d9f2a2bbd9694ecU,
  0x3d22fa0d3ddd1f6eU, 0x3d5578c1bbb4fcceU, 0x3dbb679f3d87462dU, 0x3cbdce8ebc2f54b1U,
  0xbd76a3f83c193133U, 0xbd20a5e73d65d1a6U, 0xbd5d252dbbaf7049U, 0x3bd566b0bccadd29U,
  0xbd7c31083dc01f70U, 0x3dc23e56bbab98b6U, 0x3d7aa90a3c699578U, 0x3c021e583b412f34U,
  0xbda8d4d23cf3c5afU, 0x3d833f1f3cf7a6e8U, 0x3db5f66cbc9c1e19U, 0x3dbfe7a83da6aa3aU,
  0x3d1d0afbbbb2781cU, 0x3d80f3dd3dbfe71cU, 0xbdc3701b3d1ac805U, 0x3d14d1fcbd82af3eU,
  0x3d973b70bda829e8U, 0x3c766a263df147b9U, 0x3d7277913d9ea95bU, 0x3db63422bc440690U,
  0x3d2508c4bd47bea6U, 0x3d43896c3db5bf23U, 0xbc8cdbcf3c437224U, 0x3d1d49b9bbaabd00U,
  0xbd229c083de66efbU, 0x3b9037b43db73f58U, 0xbd5ab53abd8ded7dU, 0xbd452155bd66b7f5U,
  0xbb7d4c8f3dda1f07U, 0x3d0fbbec3d76d68eU, 0xbd47bb30bd78ab36U, 0x3d7e01dcbd12c545U,
  0x3da0f3c8bd87436bU, 0xbd14d668bd3ce821U, 0xbd9f5d563c5711dfU, 0xbd3ac41b3da2afb1U,
  0xbd11743d3d83d045U, 0x3d01ee48bd28f499U, 0xbcb065ed3d5e57aeU, 0x3cf116cf3d3a4977U,
  0x3df64411bd77c140U, 0xbd9bc1503d99c86bU, 0x3c2ec03ebcb4c252U, 0xbc2d94743db3719cU,
  0x3dab4a88bd61a0e2U, 0xbd3f86713e63d3efU, 0x3bfe8660399d7cffU, 0x3d35bb63bde3c6ecU,
  0x3cce758abda302f9U, 0x3d9fbbecbcef400aU, 0xbab8abc03d78f3b8U, 0x3d5e342fbd6f2c75U,
  0x3d1ba4823db217ddU, 0xbdeb8bccbd0f1a03U, 0x3c4490e83d9e3d20U, 0x37a803e63c7375ffU,
  0xbd402affbd8b1c74U, 0xbcbbaa1cbca8c025U, 0xbd8bf6c8bd0a08acU, 0xbb1ac7a0bced7d98U,
  0x3db93a73bde48448U, 0xbd26c81e3dc5633cU, 0xbd494877bd5c1401U, 0x3dca01473b13990bU,
  0xbd838b9f3a0f6124U, 0x3d56d0453c7f4da8U, 0xbd828d123c770702U, 0x3d8afccd3da71c51U,
  0x3c9f617fbaa45178U, 0x3cb463753d1f9e9fU, 0x3d496c2abd0ac4b6U, 0x3dad18e53da3c311U,
  0x3db4504d3d5cbbfaU, 0xbd6964d5bd15d8d2U, 0x3da7ca303d53c925U, 0x3d4c32b9bcea0c43U,
  0xbb885d9dbd2421a1U, 0xbd956c293db2a3b4U, 0x3dd9ec2bbdb00a92U, 0x3c0bc3f23cedc1d3U,
  0x3bc4dc71bb945a92U, 0xbda80bbe3cbd3810U, 0x3d88bafd3cffa47eU, 0x3d6cb55cbd8b3d32U,
  0xbd3ee220bdac5d1fU, 0x3c95ab91bd7b6493U, 0xbd9b41de3dba6223U, 0xbbf9a635bcb206ffU,
  0xbce88f613cd2634dU, 0x3d4b99823db6ba91U, 0x3db929953d4f8243U, 0xbd83a4773c8259faU,
  0xbcd65955bd6f5e7aU, 0xbbfd2ad13d9a2de3U, 0x3964daed3c7f1268U, 0x3cbfb0b33d061f54U,
  0xbd31abb7bda88019U, 0x3d91156c3c4b1e4eU, 0x3db5c906bd042f38U, 0xbd81f84cbce42b98U,
  0x3c9f04ec3b47f020U, 0xbd2cdc2bbdac7bbeU, 0x3ceaf6fb3c64f19aU, 0xbd57b84fbd7863c8U,
  0x3cad16f6bc7fc13cU, 0x3dafe519bd23b8a7U, 0xbd2185723adcf761U, 0x3dae131e3c9fc96dU,
  0x3d8fee8dbd6982c7U, 0x3d92cd4f3d76bac5U, 0xbca18920bc83eb57U, 0x3df1b0a33dab71a2U,
  0xbbac2a24bd9d52fcU, 0x3cb53e473cd970d0U, 0xbc8c13ffbdb7ee8fU, 0x3a7cbd8c3d838601U,
  0xbd3320a5bcf94021U, 0xbd2e9b8c3d8c5767U, 0xbb8e7a823d3b0b2eU, 0xbd88e0db3d902ac8U,
  0x3d5b8b343cf86b26U, 0x3c7a7b59bca0a0d8U, 0xbbe0ac4bbca4cfa1U, 0xbdb41b21bd3ed5f1U,
  0xbd83b8823d4c10eeU, 0x3ce39cb4bd3f70f6U, 0x3bd7c0f1bd2f856cU, 0x3ca12fe8bc69f781U,
  0x3dd003723de10ceeU, 0x3d7d2f30bc984f12U, 0x3d88d63dbcdaba0eU, 0x3d9d8ec13d8bf4deU,
  0x3daa741cbd59999fU, 0x3d98a6b43d992199U, 0x3ca252203d91f891U, 0xbc7730d83d0a0e81U,
  0x3d81a9243d8b665fU, 0xbd03ec343b49b740U, 0xbd953ab83d393d1cU, 0x3d2f2655bd920c06U,
  0x3cb77c873cf33ff2U, 0xbd6bd9ce3d08bd0eU, 0xbc80fa1a3cf4f28bU, 0xbdb0f4393d8f013fU,
  0x3d7d5b7c3bd396b9U, 0x3d608b0fbd9e9239U, 0x3c817a1d3d663dbbU, 0xbd2ab0d53d2dc6deU,
  0x3dd48afb3db98973U, 0xbd1fd062bde2c5adU, 0x395aee483d2fcdf5U, 0x3d1ef998bc8c670fU,
  0x3dd0e1fbbd4a30faU, 0x3d6b05633d959ea5U, 0x3d87ff1e3df6205cU, 0xbd25cca9bd6c4f53U,
  0x3df9f7e23d959bfdU, 0x3db8aef83d98c08fU, 0x3d6ae7e03c372ea8U, 0xbc50b4663d079471U,
  0x3dc692793e42fd98U, 0xbc352fd0bd9d9d7cU, 0x3d4baa1e3d23ffabU, 0x3c9d84b03d7a6c52U,
  0x3d4ab6e43c836c90U, 0xbc8db98c3d8bc53dU, 0xbce782b53d764d5eU, 0xbb178b283da19bb0U,
  0x3d6dde083d11bdcfU, 0xbda589f23d8914dbU, 0xbddd06573dcf1afdU, 0xba4871a9bb873430U,
  0xbc536fb3bd849fb2U, 0x3d012730be812264U, 0x3db65484bdd90828U, 0xbd8348453c20690fU,
  0xbcd846ff3c7696c0U, 0x3c8e32883c37ec10U, 0x3becef903db22943U, 0x3d5e842b3d9aec3fU,
  0x3d6a7946bd64ea77U, 0x3cf820ecbd4f87fbU, 0x3d3688e23d7676c3U, 0x3c7a33f9bc3887f5U,
  0x3db2a32a3dfaeaa5U, 0x3be5cc84bd7f9cf5U, 0x3ad0f7ebbd11e66eU, 0x3d8e2d473d9ce751U,
  0xbd9abab73dd0c830U, 0x3d251657bd34a6fbU, 0x3d3f3e5c3b8c65a0U, 0x3c802055bd95c404U,
  0xbda716ef3dc420d1U, 0x3d54f20b3db5c5acU, 0x3ce865e4b9b8f643U, 0x3d3a56523d8735c5U,
  0x3d9bd7563da31737U, 0x3c5d6393bc6b213bU, 0xbdaf53f03dab8103U, 0xbce7b9f83d865e96U,
  0x3c93c9a9bd8fde3dU, 0xbd9d60ca3c0a36e8U, 0x3d31f9143c9745b6U, 0x3dab0a49bc0a31e4U,
  0x3d8f2a813d9b409cU, 0xbc1629b83dc30d6aU, 0xbd8cf7953dce3753U, 0x3dbef1dd3cfb5b7fU,
  0x3d2c47babb75efc5U, 0x3db9f8f8bcf9b5f1U, 0xbd3a1ab33d87d593U, 0xbbfecc4fbcf08a7cU,
  0x3dc633c2bba8e2aaU, 0xbcc3a0313da99accU, 0x3d54c1f43c617aa5U, 0xbda5f298bdf941d4U,
  0xbde1b277bafb6080U, 0x3bdecb9abd9e8c50U, 0x3db2264cbd1a7da8U, 0x3dbffc583b9d9edfU,
  0x3e05b8d7bd53ee3eU, 0x3cf93b5dbcdfe778U, 0xbbc048843db0c689U, 0x3c469951bd5c875aU,
  0xbd0d64213dcb211fU, 0xbd9762c8bc1b3e3eU, 0xbaf49ab03d9f9b52U, 0xbb18aaa0bbe6c080U,
  0xbd75a154bd39a18bU, 0x3d243fcc3d845512U, 0x3cb5be793cf38cebU, 0x3d10671a3d842783U,
  0x3ddb85d53c977601U, 0xbb9e00203d6fd7deU, 0x3b9aad10bd5baa9eU, 0xbd5357df3d56e00fU,
  0xb9ad49bf3bfb031cU, 0x3d3b02c73e45bb6fU, 0x3dc02c10bb81c646U, 0xbc3b5e883bec3febU,
  0x3d926a5fbd652bf1U, 0xbd8f5e403da6138fU, 0xbc6fc197bd7c2e5cU, 0xbadbc2c83bbaf815U,
  0xbc240478bd5c0822U, 0xbd0ffb443d886ec7U, 0xbd501f1dbd69f4c8U, 0x3cb7b5153d83e638U,
  0xbd5ce61b3d4b7fb0U, 0xbbf0ae593c4d973dU, 0x3d831f64391ee1dfU, 0x3dab1813bca3f608U,
  0x3dd926b8bda3b58dU, 0x3d294c373dc28c4eU, 0xbd82b13bbbedaf20U, 0x3d2c8704bd10ea9eU,
  0x3c863ce93de805f7U, 0x3d846630bc81cd95U, 0x3b8904a03dab62c4U, 0x3d72877ebd571722U,
  0xbcdcb16d3c68843cU, 0x3d7ea2563c757207U, 0x3c6b83b0bbfaf5c0U, 0x3d11c52a3d865477U,
  0xbdc9eb4dbd424641U, 0x3d3907eebd5416a7U, 0x3d79f6b3bd4aecc2U, 0x3d6095d63b9e4817U,
  0x3bfcc1ffbd6c72aeU, 0x3d97a4adbc164ef5U, 0x3d9f29dd3c8eae73U, 0xbc1833c4bd841fe8U,
  0xbd3ac4a33d924e44U, 0xbdcaeda13c6817deU, 0xbd072441bd129317U, 0x3da5a9c2bca73960U,
  0x3de3d823be3e23e1U, 0xbd4e4598bdf91366U, 0x3ce2dbdf3d504c99U, 0xbd10ab94bd806470U,
  0x3d82ee253dac3c9cU, 0x3d76cf743cf4e4f6U, 0x3dd8b2e13b96baeeU, 0x3d65267e3d1940ecU,
  0xbde5631c3d9a242eU, 0xbd5652b8bd3f9af0U, 0x3d251db33d372c1aU, 0xbd13b1b93d43185dU,
  0xbd6b3be0be1bb2b5U, 0xbd0731ad3b228352U, 0xbd8dec393cc50012U, 0x3d8124a33d9b8fdfU,
  0xbd4b52bc3d9c6c23U, 0xbc192199be41bf83U, 0x3d7111bbbd80ed75U, 0xbda5f6253d5c9149U,
  0x3c267332bd91a212U, 0xbd1520c33b652e9eU, 0x3d9a294f3d9c997aU, 0x3d85be593d559794U,
  0xbdf18e2ebd01dc24U, 0x3dcc29babd87634bU, 0xbe829969bd5eb3a2U, 0x3d8ed19cbd3445e7U,
  0xbe39e5983cf0c514U, 0xbd66a1e53c5e0b90U, 0xbe075b05bd4ec4d5U, 0xbe321468be32fd39U,
  0x3da77adf3d4f9e43U, 0xbd7d96a2bd3fde93U, 0xbddd67bebc253d47U, 0xbd0fc9e03d942b0dU,
  0xbc5d3cca3d4aea43U, 0x3d705d623dbc9cfaU, 0xbd2ea98c3bc3148cU, 0xbd6a738bbd7cfb96U,
  0xbe0dcb473e114f7dU, 0xbded54c6bd40ccd6U, 0x3db8ab413c773968U, 0xbdfa5973bd6b067fU,
  0x3d3b29303d6ab1afU, 0xbd7ec4cebd8dbf3aU, 0xbc916400bd71679eU, 0x3d96a6ffbddaae6eU,
  0x3d9b5df8be0e79e1U, 0xbdb45a7d3d1ea547U, 0x3d598772bd7790daU, 0xbd20bf46bde704aeU,
  0x3da1dac9be319d56U, 0xbd9cf3b53d8d68b9U, 0x3c685dbdbe0ecf9cU, 0xbe277f97bd254f67U,
  0xbdee87cd3de4e5bfU, 0xbdb27f0f3d181ed8U, 0xbd263f393dbc765cU, 0xbcb9dc1c3db06bc1U,
  0x3dd9d695bc095880U, 0x3e1a27b33ce642a8U, 0x3df3b28fbb0d0ccbU, 0xbde27fa5bd84142fU,
  0x3d38c6853e62c347U, 0xbce1d16cbc03b400U, 0x3bab55ecbde19848U, 0x3bc409f6bc69e177U,
  0xbdc11972bda13281U, 0xbe2bea4fbdb3a461U, 0x3c6dc5eebb40dd60U, 0x3c1a92b7be1504abU,
  0x3e8313923dacc2b8U, 0x3c3b265a3d8f6f4fU, 0xbdad84c8bbf5e4c0U, 0xbdd43ccc3dcc51c9U,
  0x3ce2502a3e1e8f02U, 0xbd4ca014be3e5d3eU, 0x3dc21b3bbde63dc9U, 0x3ca83fd0bbcac110U,
  0x3d39c110bcfb670cU, 0xbd8c986b3e361142U, 0x3dce37e33d898023U, 0x3c8f03203b19633dU,
  0xbd863729bc12bf36U, 0x3c8f1878be305dd2U, 0xbe0c6353bc5f27a9U, 0xbe33ca51bd1415d1U,
  0x3dab050bbd4459caU, 0xbda125debd0ff77dU, 0xbd816b9d3db0ac1dU, 0xbd86bc25bdb055c5U,
  0x3cfdc18c3d8f0827U, 0xbd30cab9bd58e471U, 0xbdae6efaba88db40U, 0xbd8c615f3d9cb1afU,
  0x3c288d48bbc3ace0U, 0x3cbe2980bd6bb977U, 0x3db26ba7bc940b00U, 0x3daa9bb9bb798fa0U,
  0x3d742fcebbcf3bc0U, 0x3d3cc626bb4c9360U, 0xbd68743abd89a253U, 0xbd7ea5be3c549a00U,
  0xbd16dbaa3d1ced16U, 0x3d3280dabd8eca41U, 0xbd25ad3f3d941f6dU, 0xbd2b64b1bd69a284U,
  0xbdaf72cf3dab4d41U, 0xbbf8d330bdb12504U, 0xbcea2bac3da13d85U, 0xbd2028153d5908c6U,
  0x3d7adcfebd210689U, 0x3d5af6fabda9987cU, 0x3d4aa2423b8d0b00U, 0x3d86f857bc3d6838U,
  0x3d96ee873ba84f90U, 0xbcaedd803cbcd528U, 0xbd8faae5bdac20f4U, 0xbcdac7083d2bfddeU,
  0xbd2a87ab3ca89c88U, 0x392b9000bda12604U, 0x3b99d0d03d1bf83aU, 0x3bf1ccc03d08ac5cU,
  0x3cc68fbc3db26b09U, 0xbc5a10383cce3420U, 0xbd89f3903b8fbe20U, 0xbd8ec04a3d8cbe15U,
  0x3d50c0d63cd252d4U, 0xbcab8e4cbd3b0b97U, 0xbc01b8983c923988U, 0x3d9bf9adbd18d6c2U,
  0xba8e3e80bdabdbb7U, 0x3d170962bd90831cU, 0xbcd8c5363cf6fe38U, 0xbd920fc63c8a44fcU,
  0x3d9066913d339f96U, 0xbd08374a3d845935U, 0x3d8b7467bd97382aU, 0x3d868f813d11300eU,
  0xbd805d57bd505eebU, 0x3d342b2e3d524e8eU, 0x3d533c6a3d65b796U, 0xbc88acb4bd05852aU,
  0xbad175003d45812eU, 0xbd1e11b0bd4f64abU, 0x3ca464703d811129U, 0xbd50898b3ccdc46cU,
  0x3da3bcfdbcad17e4U, 0xbd8dda32bd286729U, 0xbda509593d66a60aU, 0x3d8bb8f7bcf5a4a4U,
  0xbd1b3447bd5cbce1U, 0xbc9dd880be812a54U, 0xbd9e5585be0f5acdU, 0x3cb6cd9e3e041dbaU,
  0xbd256295bc624808U, 0xbc74b0b7bd987e69U, 0xbd92a5d5bc323dc0U, 0xbd2852ea3d718ce3U,
  0xbd2665113d177076U, 0xbd546a1d3dac25afU, 0xbd81d48cbdbb1264U, 0xbdd90f26bcb547a0U,
  0x3d0f8881bd3dc8a3U, 0x3d951772bcd4941aU, 0xbd08d5fb3d8bb87fU, 0x3d2ff6c6bd0aca01U,
  0x3d8d83d43e8c95ddU, 0xbda3704cbdc79c04U, 0xbd3c8c47bd5c2a85U, 0xbdc6a842bae14db9U,
  0x3d124c4d3d9a06f2U, 0xbe01cbf63dab3dadU, 0x3d0401cabdb92101U, 0xbce608fabcfea508U,
  0xbca0d1dd3c31c8fdU, 0x3d99ba35bc12f70bU, 0x3c036260bd1ef8e4U, 0x3d2e9606bccc525dU,
  0x3c4b75c2bbcfa219U, 0x3c340180bd61edb6U, 0x3d41a7873c4e3083U, 0x3c932fd5bc0bc075U,
  0x3b6074703c7524bfU, 0xbca6bed8bd68c542U, 0xbb750421bc03c53bU, 0x3d33955b3ce0d2e1U,
  0xbc41387fbd8067a2U, 0x3be368263d5e46beU, 0x3de46aeebd759e2cU, 0x3cb02b9c3d1651b2U,
  0x3db9e8343e12eaf2U, 0xbd9e8e5ebd92f569U, 0x3da361213da7e7a1U, 0xbd621632bd0d8359U,
  0xbd562c253d479369U, 0x3cfc914cbd1d77b4U, 0x3b2a83873dada95eU, 0x3db98721bcac283eU,
  0x3df3791cbc9444a9U, 0x3da3a434bda327a0U, 0xbdb3f706bcf6bd24U, 0xbd62cbe03dfd6b8aU,
  0x3d2f6b0f3d80609cU, 0x3db54cb03d9f27f9U, 0x3da5e8b0bd8ab714U, 0x3ccfcf0c3bbb3440U,
  0x3dc5c1373d9e08c5U, 0x3d8af0d83dfe4800U, 0x3ca7a48e3dd9a715U, 0x3dd988fcbd7da174U,
  0x3c9dfe59bdb924f0U, 0x3c8bf3783d3869d1U, 0xbba324cc3de6f8b7U, 0xbbbdaf9e3cb8898bU,
  0x3d7ab2b1bd1c819fU, 0x3caecb1fbe16367dU, 0xbc3d21cebdde860fU, 0xbd585cf73d34ee8dU,
  0x3d10ee8b3d9ef9e3U, 0xbd2ee74fbd7e9723U, 0x3c672f41bd2612f4U, 0x3d84df4dbc818581U,
  0x3d926faabca11c9cU, 0x3df224e33d74335fU, 0x3d4be6d0bddf71f6U, 0xbd8cf2c13dab3e06U,
  0x3db63ba73d1d49b9U, 0x3d6be29bbc05aeefU, 0x3dc925213d6c131fU, 0x3cc3aacc3cbf3414U,
  0x3d8e7ed43e0e3e3dU, 0xbd9e3f733cfd15d9U, 0xbd46867a3a8f37c0U, 0xbd4e7759bcc39cadU,
  0xbd83e2423d5af428U, 0xbd6c37c23dc932c1U, 0x3c134960bd0e28dbU, 0xbcd26ea43a44aac1U,
  0xbd0a5d833d8898aeU, 0x3db3e733bceeca19U, 0x3c52bdf03d89b837U, 0x3da52b67bd01546bU,
  0xbd2618c83d6a1911U, 0xbd8f9646ba063780U, 0xbcfac13dbc58c402U, 0xbd06c4da3d10f489U,
  0x3cd48b9d3da4f1dbU, 0xbc148df83d135e3eU, 0xbd595be43e00f348U, 0x3dac03f23d0fc0dfU,
  0xbcf813dcbd2892b5U, 0xbc878c05bd00f09eU, 0x3bf7c361bd1081bfU, 0x3d6969433cd77bc4U,
  0x3d7fddb53db29ebdU, 0xbd8fcfdf3d8fbfbbU, 0xbd3301663c54820cU, 0xbd13d1a9be069799U,
  0xbd3c3b4a3dd94553U, 0x3d95b8a93d4b7a4cU, 0xbd46da2d3cc3a902U, 0x3ca46f62bd119666U,
  0x3c6abe433b0c6709U, 0xbd34d551bd40c5cdU, 0xbda87774bc725c20U, 0xbd36db333ddaeaa8U,
  0x3d36b6bfbd5b2514U, 0xbd83d33a3db4e411U, 0x3d8d2ff13cdaddaaU, 0xbd8f4b46bd4f5e05U,
  0x3d3adf643d976907U, 0xbda792743c1de00dU, 0x3d83f635bcbec619U, 0x3db4587abc2a0c92U,
  0x3b4324f1bd8b46c0U, 0x3d8034e93d97103fU, 0xbb17d3e4bd44e605U, 0xbcbee2be3d5bc473U,
  0x3c9714bcbc119794U, 0x3dab198c3e08301dU, 0x3d414633bc522210U, 0xbd235ae63d7c9958U,
  0x3d9298ad3d3e463aU, 0x3d391feabd176a91U, 0x3d9bd934bd3efe5eU, 0x3d265319bd5407e6U,
  0x3d52136e3c5ff5e1U, 0x3ae93226bd83c6f8U, 0xbd3aebb83d27f45dU, 0x3b8ee3edbd7eee00U,
  0x3d54b0c93d88e17cU, 0x3d555c173d521c5cU, 0xbcd778e53dc0a2deU, 0x3d8d06873cba9d54U,
  0x3db82f423de76803U, 0xbd3c1130bd1d8580U, 0x3d5297243c32f098U, 0xbd61a0c73c3f71edU,
  0x3b8097bb3d5668edU, 0xbc179612bd4668d5U, 0xbd88d248bcdc75faU, 0xbccbec54bd29dbbcU,
  0xbdc7c321bdc451f9U, 0x3d0c21963c0496d9U, 0xbda28d823d995e0bU, 0x3d886755bcf681bcU,
  0x3c7728abbd334f8cU, 0x3d8c963dba135b80U, 0x3dba337fbd38aa6bU, 0xbd88878d3d2d8eb2U,
  0x3cac1cbb3ce0aa4eU, 0xbc5f0ca0bc2f7677U, 0xbca390583d59b68eU, 0x3cb12e183ca75464U,
  0x3d95d3fa3cb159afU, 0x3e1168b13db5f68eU, 0x3dcd2585bceb6677U, 0x3d6a7e7d3d605c1eU,
  0x3de7cf763d15d75aU, 0x3d2a51a03c800f5eU, 0x3c353ccebd67544bU, 0xbdc3ee413d84338cU,
  0xbcb5db54bd653bb2U, 0xbbd808e9bcea0536U, 0xbd625a203e049c89U, 0xbd9b272d3da602dbU,
  0x3de7775dbcd7a99aU, 0xbdc70e123d824c97U, 0xbda515e93bf49d70U, 0xbd280e5e3dd5bb1fU,
  0x3d1bb56f3ddf860cU, 0x3c439cc73da58cb4U, 0x3cdb03203d68cd7dU, 0xbce163f0bd617438U,
  0x3e038089bce21730U, 0x3c1ea06e3dbd479eU, 0xbc6c1efb3b0bb32aU, 0xbbd61af1bd919a54U,
  0xbd039f3f3d539e8dU, 0xbd3dc78f3daee5a3U, 0x3c9b53773d660902U, 0xbcae10503dc1544dU,
  0xbe5edf9c3d4ebd66U, 0x3df098e33e1b3e83U, 0xbc6d076a3deeb3aeU, 0x3d43e13bbbccb748U,
  0xbda446f63d326102U, 0x3991e7efbd909222U, 0xbc33d016bd0a591dU, 0x3dbae26cbdb07169U,
  0xbdb7b926bdc3fcd7U, 0xbdb78ec3bdf741f2U, 0xbdf421793da1ab77U, 0xbcddc0ccbda1ff0aU,
  0x3ca6b647bdf2109dU, 0x3d6108a0bc08c6dfU, 0x3d0439173d52c9d1U, 0xbdb12de6bd50e5efU,
  0xbcfc4b5dbdf104c4U, 0xbbc670bd3d8d04d0U, 0xbc61697d3c266980U, 0x3d25cb76bb05e62fU,
  0xbc693ef13d38635cU, 0x3e0f2ba6bd2f4870U, 0xbcbe5f8c3da2bdacU, 0x3d91d991ba391faeU,
  0xbd7d661cbd5c60deU, 0xbd2caa5a3d84560fU, 0x3c949eecbd922524U, 0xbd81bb04bc812be5U,
  0xbd063165bdabe2b5U, 0x37e830003c325170U, 0xbd4cb2c13dbe4979U, 0xbd8696a3bdb991f3U,
  0xbd95f0f1bd3cac46U, 0x3d2ea6e2bd542486U, 0x3dbd5b39bdc7d450U, 0xbc2fddb33cd6cd67U,
  0x3c3803473dae35acU, 0x3d840917bd7dd136U, 0x3de76064bd56d940U, 0x3cb26bfb3bf77fa0U,
  0xbd1f752cbe2d793cU, 0x3e02a5b73d8633e8U, 0xbd5cdf9dbd09b10cU, 0xbde45df03dc24380U,
  0x3dbb3b593cb09661U, 0xbd2e6067bd32ddd9U, 0x3d0884643d2b8299U, 0x3d5ae3efbcf84b46U,
  0xbdd033c83c73a827U, 0x3da3d818bdaa908bU, 0xbbf2c8c13a53f780U, 0xbd91775a3c938485U,
  0x3c1b28a8bdad9d94U, 0xbc3bdb983d028892U, 0x3d6e0b063d489ac7U, 0x398fa7003d55c872U,
  0x3d33d4c3bd2e6382U, 0x3de27849bda35172U, 0x3d45dcf8bddade1dU, 0xbcdc9060bdb62701U,
  0xbded23553d8100e6U, 0x3d2989be3d368bf1U, 0xbdf1909c3db084e5U, 0x3dd70e6f3cc2bd37U,
  0x3d3184bb3da38752U, 0x3dd7f7febe0cb756U, 0xbd58d50fbdcef287U, 0x3bd0b7c1bd2879eeU,
  0xbd87b01d3cabdfb4U, 0xbc5e8d77bcf8e432U, 0xbcf36450bd21fb4bU, 0x3d3165eabd241375U,
  0xbda060a3bd6ac46fU, 0x3d80a841bdbf75bbU, 0x3c1ad6cfbd6881e7U, 0x3ca3b4e4bcce761cU,
  0x3cb4c1323d63bda6U, 0xbcca41d4bdaba198U, 0x3d238a24bd4339fbU, 0xba049700bc6cbbc0U,
  0x3db64e0bbdfbfc5cU, 0x3d199f2dbb7f2975U, 0xbd4d1b77bd9f520aU, 0x3ceff775bd31004bU,
  0x3d981bac3c5e4209U, 0x3d168fec3c39ad31U, 0xbccc50b03d9f1153U, 0xbc8858b8bceeebc8U,
  0xbc408ffc3c6106afU, 0xbd5b3ae4bd8cdf1eU, 0xbd42d96f3d9ea399U, 0xbd93c1313d91d6a8U,
  0xbd06d138bcbd6044U, 0x3d30c05a3d006e2aU, 0xbccc4b993dc54264U, 0x3ccc50f03bceceafU,
  0x3d2802eebd28b916U, 0xbd3d47afbd667503U, 0x3dac0e323d868336U, 0x3ce401423d846fe5U,
  0x3ccad590bc28dc0fU, 0x3d598ee53b79b748U, 0x3da6d548bcfb4e82U, 0x3daf14e4bcf19ec2U,
  0x3d5858c6bd85985cU, 0xbd3f725f3d199bd0U, 0x3d59005dbceccc35U, 0xbd9098bbbdda1325U,
  0xbcf24ade3dc20333U, 0x3d8922d93c8b16c1U, 0xbd1bc9e3bdc90912U, 0xbb0142643d4c5858U,
  0xbe024fbfbcd6f894U, 0x3c15581f3cd71398U, 0xbd9ac3413d2589a2U, 0x3c637c1d3de1e3feU,
  0xbcbbc328bd916aa5U, 0xbd9f1ad1bd13367fU, 0x3daa1dd63d7fcdf2U, 0xbd4d23353dac7b43U,
  0x3ceed8c9bd965a87U, 0x3b9274dfbd708b08U, 0xbc2bc3ac3d0a8b54U, 0xbd8273983ce514c4U,
  0xbd2ab4b4bda30c68U, 0xbd9890f13d8b0c92U, 0xbcc77f81bca06dd8U, 0xbca7651d3d9485bdU,
  0x3d8af906bd904269U, 0x3da49e313d9a0ef9U, 0x3d0b4a9e3dc76740U, 0x3dfb2bd53d1dec65U,
  0x3c00fdc43d6c80aeU, 0x3c213cf3bd3161deU, 0x3d750b49bd3bb29bU, 0x3d9ec9703cfd1fd8U,
  0x3b4c35b3bdd3e0daU, 0xbcb58615be0cfae9U, 0x3cfe71d3bcf7f759U, 0x3da00bedbb14118bU,
  0xbc369e0ebd8fec35U, 0x3de9f1cf3c96ccf8U, 0xbd620b033d9925ffU, 0x3d8a28db3d1889feU,
  0x3b9a7ffb3d244a3bU, 0xbd900a083e09a85eU, 0x3d7e137a3c8209a4U, 0x3d970ca8bd245095U,
  0x3db064c03d7f6a8dU, 0x3d159d623cc178d4U, 0x3dac10c5bc9995dbU, 0x3d9fe7dfbcf8ce99U,
  0xbbaa2d4dbd688c32U, 0xbc8e581b3d9f25d5U, 0xbd8a5b223d26a0beU, 0x3a037e003c50361eU,
  0x3dd719c73d87d2ecU, 0xbd413a383d7b06f2U, 0x3dbd1bfd3dc82780U, 0xbdc69b18bdcfddf6U,
  0xbddfddabbc5f5f2dU, 0xbd89516ebb973a48U, 0x3dbd8f9dbd283f33U, 0xbdbaae193d186021U,
  0x3d8278c23c9fd6cbU, 0x3db824bdbd8b61fcU, 0x3dfbf36dbdf79b51U, 0xbd75111e3d83a6d5U,
  0x3d1b0b7d3d85b7abU, 0x3e00adff3bb4f2bcU, 0x3da40255bb952db8U, 0xbda7cd7d3e12b1deU,
  0x3dc9d92cbe07cb8cU, 0x3d33269abd5d38f6U, 0xbc54965f3d191d0dU, 0xbc6d0199bdbe1a74U,
  0x3cf25ea93db296efU, 0x3d15934abcef7a9eU, 0x3d2bd2f83d3ac2feU, 0xbd94e5373d82c469U,
  0x3d4c1d0c3e0d8c6fU, 0x3d75d9cfbbad8176U, 0x3b3d8252bd8d48b6U, 0x3bfded903da54d19U,
  0x3dcf649dbdb10d45U, 0x3c95910cbd0a9895U, 0xbd32bb4abd599ee7U, 0x3c90229ebd98d296U,
  0xbd4a0f98bcad6a9dU, 0x3daa54f7bcde38a6U, 0xbd9e42ee3cf17b5aU, 0x3d2d25823dab261fU,
  0xbd0b687a3d5210f3U, 0x3ce64daabe0c9265U, 0x3d8dbd1fbe1b58c7U, 0xbdae369ebc0dd718U,
  0x3d03f6f83d0c4b9aU, 0x3daf6d8a3d16126eU, 0x3dc428ff3d3ad3afU, 0xbd6ff7e73d08b0f9U,
  0x3d73858e3d1335adU, 0x3e407317bc707112U, 0x3c29d06fbd36cbadU, 0xbd6878273d8ce33aU,
  0xbd1d74a53d085418U, 0xbd78b19e3ce3a5e9U, 0x3dacc4aa3dbb10efU, 0x3cb76e0cbcde5c54U,
  0xbd6b5da23e146c2dU, 0x3db478fe3cda484eU, 0xbd8ee77abccaede0U, 0x3d0a0b7cbcf8b0caU,
  0xbd1217b03d97faf0U, 0x3d83be03bd2ca727U, 0xbd98266b3dbfd88dU, 0xbd0b451cbbf8d3b5U,
  0x3b2644893ca264b5U, 0x3d791814bc03c3f9U, 0x3babe610bdabbeb6U, 0x3d7bd7763d747d01U,
  0x3cf303e63c2c3086U, 0xbd872a943cf7b144U, 0xbc53d34a3d5ab32fU, 0xbd13ca593d83f8c0U,
  0x3d945e6d3d2fdca1U, 0x3dabce953d81d7a3U, 0x3d0a4e553d68a737U, 0x3b9d3192bd296394U,
  0xbd83912bbc8e2044U, 0xbb1930553dd30cffU, 0xbd0f37cdbca3f672U, 0xbc154fabbd30fc60U,
  0x3cfdb8ff3bb0f457U, 0xbd5237213dffe186U, 0xbd7076423d5558e3U, 0x3d97d1fbbccdaf0cU,
  0x3cec2be33d4e6dfaU, 0xbd88df183b69c0b6U, 0xbd98f5f3bdc4f899U, 0xbd746f653d4746cbU,
  0xbca8e631bcd94063U, 0x3ca052c23d42194eU, 0xbcb9cb633d9ae579U, 0x3c50cbf83db98e60U,
  0x3dab019a3dae2fd9U, 0xbc91078cbca07c57U, 0x3d08fbae3dce0ec8U, 0xba85eb40bcb0df14U,
  0x3d2b26613d617d02U, 0x3d9602aabc39eb39U, 0x3da1f9553cf47fbaU, 0x3de0c84c3d07ae0fU,
  0xbd32a00f3db2d1f8U, 0x3da8c95dbd5c06adU, 0x3d76a751bd304751U, 0x3d597ec9bd185e94U,
  0x3afaf2203d7ba000U, 0xbbbc3be9bbc0c0a2U, 0x3d510ee0bd09fdecU, 0x3dc9d36d3c27a97cU,
  0x3d37ad14bc34bc48U, 0xbc6c8a76bcf87244U, 0xbd5c51683c913b1bU, 0xbd3fd8013dca4054U,
  0xbdaf6eeb3c4930e7U, 0x3de047483d58f7ebU, 0x3db2809d3cc67da5U, 0x3c4c9efaba3bd61cU,
  0x3d7f7685bd21d32eU, 0xbd3aa9f9bdb990a0U, 0x3cb4d2ce3ce7405fU, 0x3d900b933cac02b8U,
  0x3dd9a9eabd6bd83eU, 0x3cb922913cef4244U, 0xbd8aaf353d1602f2U, 0xbd63f56b3d46076fU,
  0x3da266b23dbcbcccU, 0x3d8548393d9bb517U, 0x3c8564943d042457U, 0xbd378b003c0021a8U,
  0xbd01e77e3d0140d6U, 0x3b1fa5be3d632396U, 0x3d1c98eebcc31130U, 0xbd7f277c3d27cf69U,
  0xbd720b80bd0269feU, 0xbd8e913c3d785aceU, 0x3c4bb7863cbcf3c7U, 0x3d77f96dbd98edb6U,
  0xbb57b4a8bc1560bcU, 0x3cc8fc94bd29a546U, 0x3daa5665bdc01fd4U, 0x3daf6466bcc9d27cU,
  0xbd8266173dd85e2aU, 0xbd7e303f3d579737U, 0x3d2e4b6e3daf232cU, 0xbd8fcbc73d765496U,
  0x3dae56b9be20f61bU, 0x3d3972343ce75c5bU, 0xbd6126463d2612b3U, 0xbdb9af0f3bd4a749U,
  0x3b9528693d5287f9U, 0xbb4386863d284bc2U, 0xbcb87e23bd02564cU, 0x3da5573a3d943a69U,
  0xbd3b25173bbb86a3U, 0xbd5a9d113d884955U, 0xbd3b896abcb33840U, 0x3da7d50b3d9d6ffbU,
  0x3d25b958be248a6fU, 0xbcdbef6d3cf12c91U, 0xbda72855bca53745U, 0xbd7bb82d3d54424aU,
  0xbbb206ab3d2677e2U, 0xbd4193cebdad3396U, 0xbd56fa58bd116c5dU, 0xbddc4ff43c9a84cbU,
  0xbbceb149bb462aa6U, 0x3d235a823c44f9e2U, 0xbd7994b63c401af4U, 0x3d1b21633d8753e4U,
  0xbdc89721bc945c37U, 0x3c9060133e9120cbU, 0xbda399cdbdc02647U, 0x3d8d42af3c044737U,
  0x3d2a71c13d016b94U, 0xbc36fae13d83b1a9U, 0x3d6ae119bd02c9ceU, 0x3cfe8dac3da5b472U,
  0x3c1625843d0b8badU, 0xbddfed503ab2b0baU, 0xbd818cb3bd984286U, 0x3d526ade3d9ee9abU,
  0x3cc008263da85c5bU, 0x3b789f833d692fbfU, 0xbd80cf753d899695U, 0x3dab90bbbc8e9678U,
  0x3d995abbbe2019bfU, 0xbcf8efb5bd62358dU, 0x3ca9ae073c13cec8U, 0x3cb604d93dbc419fU,
  0xbb926ec73d4cfc55U, 0x3d6fb7573db5eb37U, 0xbd19cd903d4ed18dU, 0xbccb49243d142ce8U,
  0xbda140ea3bfe115cU, 0xbd4fef733c23d1edU, 0x3da1b03d3d493a02U, 0xbd9b1d583b2cba5fU,
  0xbcf8a4543d19dd36U, 0xbd85f40e3a75f300U, 0xbccb04273c7c181fU, 0x3d97a6d13ce42d23U,
  0xbd636af43d95b64bU, 0xbdae194abdaab84fU, 0xbc727abbbda47c83U, 0xbcf347423d945c9aU,
  0xbd882a9d3c147c08U, 0x3d3b1524bce621aeU, 0xbb09003fbd271373U, 0x3db26b933da10413U,
  0xbc92796abe3d9bf1U, 0x3cb7d890ba0c9bfeU, 0x3d8c19f4bd02095aU, 0xbd7b5470bd8717aeU,
  0x3c17bc063db566e5U, 0x3db43a00bcc92687U, 0x3d297aa03d803c82U, 0x3d98596abd34f29fU,
  0xbe0cf9ff3c06067eU, 0xbd936c51bc503928U, 0xbd224ecb3d97f1a3U, 0xbd587e0c3d02e144U,
  0x3d97de29be26a8f3U, 0xbdea53083d98e06eU, 0x3c7145f33d96ac8eU, 0x3d5a70faba638f80U,
  0xbd9ebd32bd8a7906U, 0xbbcd473abdc87134U, 0xbcaa9e7c3d07fac4U, 0x3d0c58cc3d2d0270U,
  0x3c99b61fbda6d2acU, 0x3caa090c3db3ad7bU, 0x3c9a8621bd64407eU, 0xbd898c4a3d32beaeU,
  0x3d436544bbaca6edU, 0x3d2280313992775eU, 0x3d8c5bf43d01bd89U, 0x3da2a59bbdc69941U,
  0x3da39aecbc1a2d40U, 0x3dd07b03bc87c1b4U, 0x3dadd189bc4a7043U, 0x3d8fa6f83d30f08dU,
  0x3c3b43893bfcdc60U, 0xbdab52e9bcd3142fU, 0xbd1c1f5c3db497aeU, 0x3d9bf75ebd3d196fU,
  0xba329c423d94617bU, 0x3d9ada243d3b4924U, 0xbda70c823d7d8380U, 0x3d8b6887bd6bfa52U,
  0x3bab6f663c529769U, 0xbda7a3053cc3e042U, 0x3d76fb89bd3c516aU, 0x3da2fa33bd17a48eU,
  0x3dd743b73d8d6109U, 0x3d192e46bd45e0a0U, 0xbd5ecddfbc04a8a9U, 0xbdaaf031bd05999aU,
  0x3d89a240bd486af8U, 0xbc716c013da5a4e5U, 0xbcce3a94bd117eceU, 0xbcec4f5e3d49648bU,
  0x3e05ac72bb9e30abU, 0xbd5dd33dbda690d8U, 0x3d1bbfa43db86131U, 0x3cd73b7bbc9bd6a4U,
  0x3d1de47cbc53c220U, 0xbd31e993bc73b5d5U, 0x3d890e9c3d8f0a96U, 0xbd41e5413d9b30f8U,
  0x3dea83633da306b1U, 0x3dab54063c93760fU, 0x3c00dda1bb8d40d9U, 0x3c2a5936bd36b802U,
  0x3a4c0505bd3be5e8U, 0xbd904271be02cbdbU, 0xbd6c1df5bda62378U, 0xbc5ac49d3c8de18fU,
  0x3d2f53fabcb199bbU, 0x3c95b8bbbaa9d5c6U, 0x3d79cf0fbce06dcfU, 0xbd9805253d92a658U,
  0x3dd9d5513d51491aU, 0xbcc56b88bc886dd0U, 0x3d3083cbbd168ff0U, 0x3d944f9a3d735431U,
  0x3dbe5f743cdb1639U, 0x3d2e7d52bd7a71d7U, 0xbc837aceba3992b3U, 0xbabc09403d99006bU,
  0x3d30c7b23bda8030U, 0x3d36a426bcd8aa58U, 0xbd4d4f45bba9bec0U, 0x3ca01e09bdb19a13U,
  0x3d2da0673d5709fbU, 0x3d1b97d63d2206f7U, 0xbda2385ebd75ce17U, 0x3c36c8d63d242e92U,
  0xbd29c9bb3c52c2bbU, 0x3da1f6cd3e69f3e2U, 0x3d364ef73db9961dU, 0xbd28a9a43d08c2baU,
  0x3db4b7ba3ce84fc4U, 0x3b3867893d72d02eU, 0x3da01742bc53eebdU, 0x3c86ac91bd1dfc5dU,
  0x3cb84cd6bd2dc2eeU, 0xbdfb9d35bd7bcd41U, 0xbcf237d43d90e082U, 0x3dcedfb53d875f69U,
  0x3c4f0bb1bca1055eU, 0x3db76a57bd30addbU, 0x3c504ac6bd70279bU, 0x3d515836bce9302aU,
  0x3d87f476be4236efU, 0xbdaa27db3d2c7854U, 0xbd45818f3d3d7536U, 0x3c0c8e763d9b205cU,
  0x3cf46e313dc18656U, 0x3d895cdcbd5464f2U, 0x3d8deb5b3d19debaU, 0xbbdf4b60bc915441U,
  0x3bd78fe3bcf91359U, 0xbd518c63bd78d7c1U, 0xbd65cf243d9cb405U, 0xbd83115b3d2db64fU,
  0x3c2321233d17be2eU, 0x3c57d5d0bc269150U, 0x3d347505bd1d6787U, 0xbc81b8ce3d73faa8U,
  0xbd1c0543bd9d3cb6U, 0xbdb41efebd2418f1U, 0x3de9b77ebdc36764U, 0xbd83ef33bc2378a3U,
  0x3d93e569bd184409U, 0xbdf04d6ebd92bfe4U, 0x3d2faeb6bccb3901U, 0x3d673e5e3ba75510U,
  0xbd8ddd0dbe0de2efU, 0x3db4a50cbe09933cU, 0xbd1a17d13db26d1cU, 0x3cf3639e3d9c17b1U,
  0x3cfff9813d97d838U, 0xbc9bf9723c507786U, 0x3d6511683dd30fd3U, 0x3d9d76833bbc7a66U,
  0xbc1c91ae3a24076eU, 0x3c475e70bd9be20eU, 0x3db82a73bd96892eU, 0x3c5cbf4ebda192eaU,
  0xbd29995bbded7ae7U, 0xbac6715e3dc338bbU, 0xbd82a7d23dc1362dU, 0xbd3424f93d847469U,
  0x3d0c61563c0a8b80U, 0x3c0fa242bdf744d4U, 0x3d49f532bd850af9U, 0x3be39058bd976232U,
  0xbd5b82aabd032908U, 0x3cfc60203daf4462U, 0x3be92db5bd8b0db1U, 0x3da9ae443d213a01U,
  0xbdc91f08bd8cae7eU, 0xbd86dba9be2a3ce1U, 0xbc318182bd208503U, 0xbd021aba3deac54eU,
  0x3cfe794fbd9f30b8U, 0x3d0cb6883cfe5efcU, 0x3d26097ebd20fe22U, 0x3d4ce701bd1f238cU,
  0xbd4143d7bd9dfda6U, 0x3db4164bbd9fc7d0U, 0x3d5a28833d70fb5dU, 0x3d911804bc07a3d3U,
  0xbda611343d038584U, 0x3d54863a3d6f408aU, 0xbd8a6a5b3d980099U, 0xbd81b31f3d3dede2U,
  0x3c8649e4bc40af46U, 0xb83d39073d1408daU, 0xbd0246c5bd877309U, 0x3db04ef93c9f124dU,
  0xbd5d97e03d613708U, 0x3d2975a53da5f848U, 0xbd0d7460bce7e0afU, 0x3da539473d817b6bU,
  0x3ddb11a23c6c1754U, 0xbda65dbc3d9db7ddU, 0xbd79c7583cb17ab4U, 0xbd37a1df3d8c3e0aU,
  0xbda14c8f3c04abb7U, 0x3d14e9dabbbe8670U, 0xbd55a2b83da230f1U, 0x3cfe26c63d4a0d2bU,
  0xbd6a50123d8249b6U, 0x3d2f4a7ebd5508c0U, 0xbd0e9ac7bc422e67U, 0x3d8b3791bd730639U,
  0xbdc2d67bbcb4a51dU, 0xbc7bb8473adda39fU, 0x3de18261bd37bd75U, 0xbc3bd68fbd10b4eaU,
  0x3cca5f45bdc6b55cU, 0x3d7cf01f3d5ee33dU, 0x3d172f283cb65713U, 0xbd00b388bd823311U,
  0xbcd2fbea3db06c55U, 0x3b8827d9bd21f20aU, 0x3daf83bcbcb74728U, 0x3c27b0493d66ec6cU,
  0x3d823860bd762916U, 0xbd55c0d93b86a530U, 0x3c612f7abd3fef20U, 0xbc977b053ddffc6cU,
  0xbc25f0ce3d0704b5U, 0xbd47425b3d16d6f0U, 0xbd1b8c4d3dcbd78eU, 0x3d1521263d67197aU,
  0x3d2e0209bc2e4288U, 0x3cfb6e8d3d0fa2b5U, 0x3b1c5e9b3daa9774U, 0x3d114c02bdbc2b8fU,
  0x3cf6f7183cc13454U, 0x3da49e093d894f78U, 0x3c7e195abd791841U, 0xba44ce0cbd7d138bU,
  0x3d128b2ebd31a0a4U, 0x3cc7e4b9bdffc097U, 0xbdf17836bdbe434aU, 0x3d2b3eb63cda5153U,
  0xbd96d3a039a26100U, 0x3da36aa7bd9491caU, 0xbdac5a9b3d9f4f14U, 0xbdad8484bdb35d35U,
  0xbbd544413d455956U, 0x3d803cb1bb693779U, 0x3d09ee2e3afdda9cU, 0xbd9e2ead3ce3b0c0U,
  0x3cc645af3be4f416U, 0x3d06a7673dba8659U, 0x3e09120bbd4f0825U, 0xbd0738c1bd5356c8U,
  0xbda245293e4eb02eU, 0x3d1241e6bd2f7ff2U, 0xbc66af7dbd7b55f7U, 0xbc4914333c772907U,
  0x3cd7d6503e004785U, 0xbd8afd3ebd668624U, 0x3c27f9f0bc42ac98U, 0xbd7cac32bbaf992cU,
  0x3d7a1792bd5d5debU, 0x3de278c33d058e62U, 0x3d1ca3263d83fbfdU, 0x3d263c1a3d8a2923U,
  0xbd368730bd895bd2U, 0xbdb2516a3d93a271U, 0x3d2a23053ba89be1U, 0xbc6adf3a3d4c685cU,
  0x3d192bdb3e172e8cU, 0xbd39d25bbcaae0e8U, 0x3d2ae30f3dd27e08U, 0xbccf4f203dfc1b31U,
  0x3d75ecb83db98980U, 0x3d057dc53d329520U, 0xbd0552dfbd27121cU, 0xbd386c84bd97e07eU,
  0x3dc416193e124803U, 0xbd8f06633d94808dU, 0x3ca8a482bcc7f8a2U, 0x3d8ba037bd3d1400U,
  0xbcd7715b3d92956fU, 0x3d90ebc83c160493U, 0x3db7016a3dee79b1U, 0xbcf8a88dbc6785d8U,
  0x3d5bfbeb3c743e4bU, 0x3d6e4a8b3d9c7f09U, 0xbc88ef14bdb3f61aU, 0x3ceeb0c53d7313b8U,
  0xbce5c80f3e1b2bd8U, 0x3e06a629bd297525U, 0xbcf32a833d4c8217U, 0xbdabf324bda10c0eU,
  0x3d3f86843da25025U, 0x3d512532bcbf1625U, 0x3e06f2a43df2662cU, 0x3d76e47ebd292908U,
  0x3d124a79bdb23d4fU, 0x3da3bfabbda74ce6U, 0x3db12b763d093289U, 0x3d201fc73dea17a8U,
  0x3cae06b43d301241U, 0xbc61f0acbe98b07aU, 0xbd334ee8bd0ac717U, 0x3b2761a63dee36c4U,
  0xbd19af4f3d8d5761U, 0xbcf6a8db3bad5270U, 0xbd85e5523d8d3845U, 0x3d214b73bd72e377U,
  0x3d1888d83cd0645bU, 0x3ddbcbf4bcfb8e9bU, 0x3dd40253bbc1af23U, 0x3d530ac83d9deb69U,
  0x3da49773bd2ca153U, 0xbc8003843cef2315U, 0x3daeb4073d8e4e9eU, 0x3cf56c9cbd36ba65U,
  0x3d94d7943d5a8e79U, 0xbbf5196abd874553U, 0x3d63a8e6bd24c918U, 0xbabd38d43c3b60e1U,
  0xbd05d25dbbc89176U, 0xbdc015803d4d1367U, 0x3ac25dc0bc3b83b6U, 0x3d8f971dbb9370f7U,
  0x3d7a342c3c029339U, 0xbd70c0ecbc2ddcfdU, 0xbac747003c1ccf28U, 0xbd963f463da7106eU,
  0xbdd704f23d55112aU, 0xbd87a0b7bd9f934eU, 0xbd365ac3bd177297U, 0x3d0172423d8e50a7U,
  0xbce909793d89b5b8U, 0x3d33825e3d8e91dbU, 0x3cc8f77fbbcb6adeU, 0x3d451e8abc9cd896U,
  0x3da4a5d13d81bfbeU, 0xbd218c663dda8a71U, 0x3cd0a506bb8212f3U, 0x3d3789b6bcc33570U,
  0x3c79ad0abd0b499eU, 0xbcccb4db3cf7bbf5U, 0xbd84ae613dcc1fe8U, 0xbd2ac4b9bd981e4fU,
  0x3d13fe343d1752b6U, 0xbd6c34243d8a111bU, 0x3d950c9cbcb5d1a0U, 0x3dbdfdfa3bb7ece7U,
  0xbd9e11583cf04847U, 0xbd4fbbcabccecb00U, 0x3da4a9773c8f9facU, 0x3d8449d03d66b32dU,
  0xbd2258c1bc994727U, 0x3d878d4e3d860adeU, 0x3d604f7d3c031257U, 0x3aeec5403b9139e0U,
  0xbd66b4b4bcfb65d0U, 0xbd9649efbdad9559U, 0x3daa70e13dbed253U, 0xbcea51f73db52330U,
  0x3cc424ef3d004ca6U, 0xbc9f32183c64b428U, 0x3d3206ab3c67c845U, 0xbcbd51d63ad0bafdU,
  0xbd5b88903db9bc08U, 0x3db76170be6a0249U, 0x3cbb24e7be27e381U, 0x3c2904d4bce797d2U,
  0x3da641aa3d3cb196U, 0x3db7ef3ebd33c5b9U, 0x3d22f5183d2532f6U, 0xbd2308013d3da397U,
  0x3c967c30bd28b29aU, 0x3e2eeea63da46aecU, 0xbc13285f3d18d004U, 0x3d73c5dabc63613eU,
  0xbd15750fbbe0e783U, 0x3c476fd5bcea86b8U, 0x3c8165edbd2f33f4U, 0xbd63e50fbbef7e80U,
  0xbc495975bcd03074U, 0x3d1ee97ebca5dc13U, 0xbcec463c3cba4dacU, 0xbd0f7552bd2f3663U,
  0xbc2ff35b3bf82853U, 0xbd8e8f0f3dca8a66U, 0xbd8905eebd125983U, 0xbd25dcdb3d8f7367U,
  0x3cec22ea3dc889f6U, 0xbd54e07cbd51ff2aU, 0xbd3681923c618ec8U, 0x3c9da0bc3d82c8e2U,
  0xbcc1fcfe3ce2de6fU, 0xbca6b9b03c4058b8U, 0xbd812d033d699064U, 0xbd232487bd126441U,
  0x3d9957f93ca5dc4cU, 0x3da56c3dbd5db3f8U, 0xbb336625bc8adca9U, 0x3cf00726bd0b5679U,
  0xbc31f176bd34b7daU, 0xbc2264ff3dd8fd47U, 0xbd8ddf883d81bec5U, 0x3d6901893b286e20U,
  0x3d1642dabce1c6edU, 0x3cac3cdb3d035e91U, 0xbd7ecbb43dcecafbU, 0xbd9b053dbd5e5831U,
  0xbd7c69c23d82b633U, 0xbcb3b7763dddd99cU, 0xbd863452bcb23049U, 0x3d05571b3d9fc932U,
  0xbd478d2f3d3545a2U, 0xbd8b9a18bd888854U, 0xbd2eb18e3da5e851U, 0x3db60813bd30532fU,
  0x3dcba464bc8f3b23U, 0xbcb86797bd20523cU, 0x3cd3b336bcfa1105U, 0xbc5ef9c83cbe75e4U,
  0xbc993b933d7793aaU, 0xbdad3ea4bd930d39U, 0x3df339253d219b5fU, 0x3d5984023dd65627U,
  0x3dbf30723d6073dfU, 0x3d857a97bcf81922U, 0x3d94b5173cbb6e98U, 0x3d9656b13c60bb96U,
  0x3cedf5fbbcda90dfU, 0x3cb7fa5d3b224d8aU, 0x3d122f7c3e0a2e64U, 0x3e15cbbe3c9dd079U,
  0xbcae8ba2bd9f96ebU, 0x3ddb03cbbdaaf94fU, 0xbd8c37d6bdaa234eU, 0x3dbe3f693c7eee46U,
  0xbd43328bbd9b49b9U, 0xbdfee46bbd57e34bU, 0xbc9cf812bc39eb32U, 0x3d6d3ebb3d216813U,
  0x3db38466bdaa33e5U, 0x3d567e163d789014U, 0xbd091820bd4ed143U, 0xbd775982bc9938f0U,
  0x3c099bb2be23e643U, 0xbd8f43ee3e25d032U, 0x3dd21e85bd993bc0U, 0x3e02fa7e3d79e879U,
  0x3db603583e0c94e8U, 0xbcedc0e33bf8423aU, 0xbd72d0a43d45314aU, 0x3d8414ffbd228fa7U,
  0xbdaeeb603d94c2d6U, 0xbcb472dd3d952302U, 0x3d64f4debccdf0b0U, 0xbd6c6542b8fc0278U,
  0x3daa11fb3c35e4bcU, 0xbd9cb091bc7d7df8U, 0x3d6fa912bd85c52bU, 0x3d1f7376bd6dda65U,
  0x3cc6dd343ca6aba8U, 0xbda05fefbd95116aU, 0xbbca593b3d8001deU, 0x3c612b51bc9342e8U,
  0x3d9ab3053dc30f85U, 0x3d47408d3da8fe53U, 0x3c940a903d4c4845U, 0x3c3200e63d8b9eddU,
  0xbd6e87fdbe031be8U, 0x3d627dee3bd57badU, 0x3d081fc3bce1b23fU, 0xbc1f50cb3d58d994U,
  0x3e2ceade3d11ccc9U, 0x3db7bbcd3dac121eU, 0xbc2e45173d152f14U, 0x3d4e2336bcc0e008U,
  0xbe13ca14bce1d161U, 0xbd74f58b3d3e5b76U, 0x3c1da2aa3bd4e770U, 0x3da4eea6bcbe2c20U,
  0x3da6bc6e3b8a6bb4U, 0x3b106b48bcd77e26U, 0x3da28bd2bd87e0f2U, 0x3d38590a3d8b8c05U,
  0xbd80a1b93d9c1b87U, 0xbd70fff7bdda94f0U, 0x3b6f22ce3d6c5b28U, 0xbdb04bfc3c08ead6U,
  0x3dad19ddbd980e05U, 0xbd4e2e683db77256U, 0x3db2b8063d3dc201U, 0x3d1acf4f3d6f1f64U,
  0x3daccbe5bcdafd0aU, 0xbc2ec6583d81bf25U, 0xbc8e03703da7fd2dU, 0x3d2e940e3da54c21U,
  0xbd9843683d4d07feU, 0x3da73c31bc0df888U, 0xbcfa231a3c669b10U, 0xbd87479f3d253d4eU,
  0x3d0549cebd01174fU, 0x3d513c423d882c2dU, 0xbd572631bd4c2d41U, 0xbdb377d2bcd7ebc0U,
  0xbd2fcfc7bd9f248bU, 0xbd2fdde6bc0fd638U, 0xbcb68dfcbd912921U, 0x3d6ec7d63b3af840U,
  0xbdb106903d3cce5aU, 0x3d9de2a53b9afa10U, 0xbd9841d9bd0fadeaU, 0x3bd53950bd4a8b47U,
  0x3d7174aabd3ea510U, 0x3d6ba07abd1a9d43U, 0xbd69bfc8bd784864U, 0xbbef7e103cfbc588U,
  0x3d2b363ebda52bf4U, 0xbcbbbc38bd7269f2U, 0xbd69b8293d962d15U, 0xbd3a9f843c0663c8U,
  0xbcb62f443c45d940U, 0x3d9ae13d3d83b0f7U, 0x3cc67de43d1640d2U, 0x3ba210503d6dd0feU,
  0x3bb0e2203d989bb5U, 0xbda2319439947400U, 0xba6d2280bda8c07dU, 0xbce4a64c3d82cd71U,
  0xbda4751dba0b9400U, 0xbdb063d23d8cf8e5U, 0x3d457276bdb07ebaU, 0x3d4c1b3a3c7f2630U,
  0x3b476fe0bcf6e82aU, 0xbd4a5fe93d87d975U, 0x3cb3fde43d57887aU, 0xbd782fa8bb690000U,
  0x3d81f44bbceeadacU, 0xbca46a50bd901c1eU, 0x3ca0ef783c0e54f0U, 0x3d3ef7eebd808694U,
  0x3daf18413adcfe80U, 0x3c86ee3cbd389811U, 0x3c79cc383d8484d5U, 0xbd1e6e603d3da00aU,
  0xbd4f4bfdbcbce1ecU, 0xbca76a90bd63a26dU, 0xbdad02253d7e3006U, 0x3c416dc03d752aaeU,
  0xbd237f16bc3acd38U, 0xbd180dbebcac14b4U, 0xbcb217283da79c7fU, 0xbd28ef2b3d2af30eU,
  0xbd9bf489bd7b7b4cU, 0x3d8b1d693dafe731U, 0xbd3492c9bd90998bU, 0x3ca922443d245aeaU,
  0xbd9cd7d7bc973ba9U, 0x3e13fd43bea5dfacU, 0x3d5ab92abb6efc7cU, 0x3dae4dba3d49febaU,
  0x3d8ddb0fbd561302U, 0xbcd9370a3db2caddU, 0xbbd24ffc3d6ddb5aU, 0x3d5980e43daff987U,
  0x3d30c140bb8fcc31U, 0xbd787775bda5e0e2U, 0xbc7a1f7d3d42b766U, 0x3db5d9203dab2140U,
  0x3a35566e3c13b2ebU, 0x3e1816aa3e2200fbU, 0xbca3a2873df54e5eU, 0x3d5093dabd11116fU,
  0x3cba01bc3ce138c2U, 0x3d49f0e63c6ccaedU, 0x3d3615723daf61e1U, 0x3d03af213b66bc50U,
  0x3dac47213c92e349U, 0xbcf6c0b93d4585bbU, 0xbda55e14bd980b60U, 0xbd14f497bd7f42fbU,
  0xbdb98e1e3b695d63U, 0xbd5e7681bd863894U, 0xbb1d2c003d1dd536U, 0x3d79db4e3b2f6dd9U,
  0x3db3d7883d75ba07U, 0x3d8a99213db0f901U, 0xbd2b40523da22a2aU, 0x3d85804abc89090eU,
  0x3d0d86383d005dcaU, 0xbda823983d7d1da3U, 0x3d82ed923dc6bcffU, 0x3d3812163d742ae3U,
  0x3e213fbf3cb8b4dcU, 0x3d90e11a3d96d7cfU, 0x3ce289bfbb21fa6aU, 0x3c5dccdeb988a000U,
  0x3dd1752f3df2c2e0U, 0xbc8e0f07bcb6dff0U, 0x3dc62561bd09ff13U, 0xbd72310c3dbafbdaU,
  0x3e16579bbd40ecbbU, 0x3d6b36ccbd839257U, 0xbc968b643c0453bcU, 0x3d2f84e1bd6d67b4U,
  0x3d89b04f3db7f138U, 0x3d8995e3bd3cd9a4U, 0xbc355c8fbd20b636U, 0xbc9983e13df9b70cU,
  0x3deff5323dea9b8eU, 0x3dfc0943bd2ceb77U, 0xbbca4e6c3d28c92dU, 0xbd27b48dbcc9d92cU,
  0x3cae85013d952f97U, 0xbc5782473d70e3dcU, 0x3decee8bbd107c56U, 0x3da09069bc06685eU,
  0x3db5ecf7bd87d20eU, 0x3d3074e23c18538fU, 0x3d8554653d9ec00eU, 0x3b1b4ad33b391302U,
  0xbd3bd8c4bd8ac7d3U, 0x3d9b6b0abdf663deU, 0xbd5b1f81be23ec3cU, 0xbdadef9ebd2af529U,
  0x3d566165bd713bbeU, 0x39377cfabdab6062U, 0xbbaf0f31bddabbdbU, 0xbd5d7aa83d2986d8U,
  0xbd1039703d16df15U, 0xbc957913baa1b0c8U, 0xbcdd96ecbce31512U, 0xbd5a67bfbd8e107eU,
  0xbd31c1333c2794ffU, 0x3db192063cf0fdf4U, 0x3d05ca573d38962cU, 0xbcef519cbd0d3725U,
  0xbc2f03fe3e016597U, 0xbc60554bbde407deU, 0x3d0bc51e3d59c366U, 0x3c8f24083d1a20cfU,
  0x3c175fe33c3e9f2dU, 0xbd3b8a093bf223c8U, 0x3c16c658bdaf161eU, 0xbd57ae2b3cdc725fU,
  0xbd8444133d615223U, 0xbcb565ddbdb74074U, 0xbdaa9d133d78275eU, 0xbd45647b3c20b544U,
  0xbd457321bc926903U, 0x3d7919b6bd4118c9U, 0x3b82e6933ce15b29U, 0x3d3c41223c6ed217U,
  0xbc1fd2093d1f23d6U, 0x3da29db13adf268aU, 0x3d807f4a3d2a132bU, 0x3cfb4077bc00b778U,
  0xbd996e43bdb8f8d5U, 0x3b212e65bd10b9c9U, 0xbc0606b33d27e931U, 0x3d77cbd33c914610U,
  0x3dc3d2363dc941a8U, 0xbd8f7a6bbd814085U, 0x3bf711aebd622f7fU, 0x3d7ab95bbd771bd2U,
  0xba75b4cc3db2f321U, 0x3d95bb4e3db11d4eU, 0xbda2412c3d27fbffU, 0x3d97e5b03d4ec2c1U,
  0x3d3e6a8c3db3ed8aU, 0x3a6abadf3c9bc2a4U, 0xbdbde3b8bceb1646U, 0xbd5ac0ae3de13c42U,
  0xbd810abebce9ccf7U, 0x3d787ae63d6bacfaU, 0x3c3e56bd3b794f2aU, 0xbd149b5cbc4d3ae8U,
  0x3d2670773b2c02e0U, 0x3c26da8bbcd48db4U, 0x3de9fd0f3d7d36aeU, 0xbb4641cebd1b6850U,
  0x3baef43cbdb84769U, 0xbcc9de48bc21ee5cU, 0x3dc7f2d73da26308U, 0xbd699cccbd4bb2cfU,
  0x3cba3fa93bc546dbU, 0x3db012d0bd4f13a4U, 0xbc7c3f0abdd5109bU, 0x3d3df1c53dea2704U,
  0xb9f51d373caf9524U, 0xbda5d82dbc7a2fc8U, 0xbc9dbc1d3c1e6459U, 0x3da05fa03d538994U,
  0x3d57f360b99e3b1fU, 0x3d80d999bdb9a7edU, 0x3c99728bbdcd8351U, 0xba3abeaabd5bdc59U,
  0x3c2dfe563db0fa53U, 0x3ccfe37bbd869c3bU, 0x3d60488dbc7a6a27U, 0xb9b0ab003c6f8a08U,
  0xbd59e2ec3e33421dU, 0xbcfb9af43bf37da0U, 0xbd98f5acbd47ef89U, 0x3cd5b6543c80267aU,
  0x3d1e772b3db4f345U, 0xbdd466ddbda95dfaU, 0xb963bc003d927a47U, 0x3d34941ebd855c6dU,
  0x3c084fd2bd495227U, 0xbaefae14bd974494U, 0xbd8535a0bcf70714U, 0xbd8d7b18bc09236fU,
  0x3d105ae53d2d1a90U, 0x3bc6d5e03d6be792U, 0x3dc5fe503d95980fU, 0x3db29fddbd8dc3b5U,
  0xbd125252bc612ed2U, 0xbd060456bdabf010U, 0x3d770a3dbbf8d0d8U, 0x3d9240e23d8480e7U,
  0x3d072190bd9c121dU, 0xbcf863ffbd48ada1U, 0x3cf2030e3dad1920U, 0x3db85fa3bba0b030U,
  0x3d6e06023dd0d954U, 0xbd5030673dc55cd0U, 0xbb6d9f183cbe87cdU, 0x3d38d2c0bd212a8cU,
  0xbb322cee3d0abaa5U, 0xbd67e86dbaa9f58eU, 0xbd1ccb00bc34f5a9U, 0x3d78ae6bbd3f6c58U,
  0x3be7a32c3d0c00acU, 0xbcb4d7a73c3709d0U, 0xbdce3cfcbd8d2644U, 0xbd75116d3dacd71cU,
  0x3c38e27a3ce9c158U, 0x3d93075d3c86fb87U, 0xbda8f6583d7c505fU, 0xbce7caf6bd93e848U,
  0xbd94a5963d9cf98bU, 0x3d6085f23cec0269U, 0x3da1dd8a3dc09125U, 0x3dc81f7a3c92694dU,
  0x3d481dcf3d752dd6U, 0xbd174c92bd4996bfU, 0xbd81d28abcf45cf6U, 0xbd39d9503d3009f3U,
  0x3c85f9363d702099U, 0x3dc22e0fbd656928U, 0x3d3e08c4bd3b72e0U, 0xbe0288543dbfb98aU,
  0x3d87ed523c4bede8U, 0xbd9114103cbe4a94U, 0x3daf6a4abcec75a8U, 0x3d9554963d7f9cd9U,
  0xbd4506a63d9bb743U, 0x3de95af9bc7eb1d7U, 0x3df2b0f33c877acdU, 0x3d7886b53c1a9f97U,
  0x3dacb0173dd8ec93U, 0xbc2c0e843d1f7872U, 0xbc42cc1abd447827U, 0x3d66efb23d0f70e8U,
  0x3d7799d03d90baeaU, 0x3d9dbb55bd7ed664U, 0x3ce2cfc43d8b8e6dU, 0xbd94d9743d8e95a9U,
  0xbd7b0860bdac4426U, 0xbd0164883dc0443eU, 0xbbda2420bd5ee0eaU, 0x3d839e9bbd71f7e3U,
  0x3d6915fd3cf4b5a5U, 0xbcbda01a3d7eb425U, 0x3d2076923c206100U, 0x3d5c73e23cc6a4b2U,
  0xbdfacdd13daa1f66U, 0xbaf428c03d623a52U, 0x3da997b4bd891c9bU, 0x3dc8fbe13da43a7bU,
  0x3ce87ab43d83eaa6U, 0xbb3bdbe0bd4123acU, 0xbdaaed6abd07b446U, 0x3d31bdf83d4f6bdaU,
  0xbdc8d218bd8389dfU, 0x3dce93b53d7b1a14U, 0xbd175fee3df9891aU, 0x3d800bc33d179632U,
  0xbcce35c53c411b41U, 0xbd8a783a3dd5ef0dU, 0x3cc7475b3daffa13U, 0x3d9b3c09be21229eU,
  0xbcac215f3db75ff6U, 0x3c94ea63bd882960U, 0x3d4ea7fabd5e915fU, 0x3da803c4bc95e886U,
  0xbcd31dbe3cc8398dU, 0x3cb5fc6dbd9ebd0dU, 0x3d98cdeebdb399d2U, 0x3db159e13d2bdc75U,
  0x3dcde62e3d16b583U, 0xbd9928e5bd85508dU, 0x3c95ede23d05ffebU, 0x3cdb59bc3d5aebb6U,
  0x3d896839bcc6dd24U, 0xbdaf1e333c530409U, 0x3d95cb4d3c20efbbU, 0x3c837f60bcf6b9beU,
  0x3d490e723dcfe11aU, 0x3d82cb1bbd1e46bdU, 0x3dab10d9bbf9c820U, 0xbd231ecbbd3fd0c8U,
  0xbdbf7c58bd956ac9U, 0xbd5c0554be28120aU, 0x3cb8b8aebdd1ec64U, 0xbc9f075e3dc685abU,
  0xbd5296f33bf00350U, 0xbd865b023db4352fU, 0xbce5a3303d0771d5U, 0x3d8d15ca3d897442U,
  0xbc9884243d857d3fU, 0x3e1d9be73c295627U, 0x3d0ce87ebc29ae76U, 0x3d9015fe3c83406dU,
  0x3cd01c7b3dac1e06U, 0x3ddc3f823d2ce2e3U, 0xbd4c126bbd852434U, 0x3d49825ebd5b7f2eU,
  0x3d9a23043e7bcfd9U, 0xbce39761bd8b2c17U, 0xbd74456fbd2c7022U, 0x3ca0d57fbd460c69U,
  0x3da1652e3cd873ccU, 0xbdc22cf63d3bfb18U, 0xbd90dd3ebda01091U, 0x3cc8475cbdb5cec0U,
  0x3d8ae17e3db5ba5fU, 0x3c916650bcb8cd43U, 0x3d4d7f8ebca6ef40U, 0xbd4a50bbbc4ec76bU,
  0xbda08910bd59f885U, 0xbd8e42f73c90b77cU, 0x3d0a4801bd5b3a3aU, 0x3da7c27a3c35610cU,
  0x3d75a6643db41ed8U, 0xbd49ab9c3d80ba52U, 0xbc5f93913d49cd7eU, 0x3d765c423d199624U,
  0xbd96ecb83d1c2bcfU, 0xbcb53cb2bc53c3f3U, 0x3caa1fb13dc82b36U, 0x3d26af34bca80d44U,
  0x3e0015c53db0aaefU, 0xbd9bab6e3e1caf77U, 0x3d9ab0363ca0a42fU, 0xbcc68267bdedafefU,
  0xbd2985713d3a97c8U, 0x3daa6fedbc34ba31U, 0xbd323985bcca4551U, 0x3c914ef7bc3a7b5fU,
  0x3e1c185a3c793515U, 0xbc6c6cd2bd689dd9U, 0xbc1209143d1dd986U, 0x3b78804f3dd20e29U,
  0x3d21c9613d9e3f2cU, 0xba52850b3d44d263U, 0x3d66a9dcbcbebd4bU, 0x3db1de573d0277d6U,
  0x3ddce1153d62bdfaU, 0xbdaa529c3d8afd73U, 0x3da78efb3d24763cU, 0x3cf317cebd7221a7U,
  0xb9318e8c3d4784afU, 0xbd979865bd6c20b8U, 0x3d34cf853b7b0cb1U, 0xbd73cac3bb0f7862U,
  0x3bafaafbbd7cf5e8U, 0xbc2865633e6bf477U, 0xbbad731d3d36c80eU, 0x3c9ae97dbd186d76U,
  0xbb3c625cbd8cadd2U, 0x3d1f737cbcd8a908U, 0x3d8a3956bddd7e82U, 0xbd1086573da32fafU,
  0x3d4e709a3d414a93U, 0xbe35dfeb3c1bd916U, 0xbdbc1330bdc1ea02U, 0x3bfc914ebca331bfU,
  0xbbc45e40bd91251cU, 0xbcad392c3c375292U, 0xbdaa7d723da8ed08U, 0xbb841990bd48f5eeU,
  0x3d3f6efdbe35afdeU, 0x3d8b15343db9f0b1U, 0x3d9932543c1f3b78U, 0x3dbcd0c83c183407U,
  0x3caf62313c961107U, 0xbd13dd693d236173U, 0xbdb0b82c3d544362U, 0xbd9faf0cbd03cb61U,
  0xbc7651b53b758c95U, 0xbd5721df3cdeb012U, 0xbdab920b3d8f475dU, 0x3d33577a3bbf0cc9U,
  0xbc48f18c3db250e6U, 0xbcb4d890bd52b6d5U, 0x3d74a1573dbbb711U, 0xbcfe89c13d24109dU,
  0xbd27d127bd80f13dU, 0xbdb416233d905291U, 0xbd6b6b0ebdf18ae5U, 0x3d126f193d9e3493U,
  0xbc2cd0c1bda9f7feU, 0xbdf2e02bbd137979U, 0xbb353dc63d741dc3U, 0xbcfef6e4bd78b4a0U,
  0xbcb33d72be259bc7U, 0xbcebe701bdf90eeeU, 0x3db118403cfaadd2U, 0x3c52da813d7dc95aU,
  0xbd816dac3d0f7064U, 0x3d9d57f83ddddad1U, 0x3d230d683c91f6c1U, 0x3d85f71d3dd0c35aU,
  0xbe14dec93db8cab5U, 0x3d732b723ceb5d9cU, 0x3d878f2cbd06eeafU, 0xbd6067acbda40d8bU,
  0x3daf05cdbe6626c6U, 0x3c928b7c3db88104U, 0x3d433a3f3db86084U, 0x3d646a6ebd91bf68U,
  0xbd8f154fbbff2630U, 0x3d557eb93acadf0bU, 0xbc6781c2bd036d55U, 0x3d040605bd647fc8U,
  0xbcdadacc3d6d8ad4U, 0x3d306ed6bb20f1abU, 0x3d56868c3badd3e3U, 0xbca213abbd75284cU,
  0x3d61311f3dcc240bU, 0x3d4d9efc3de800ebU, 0xbd7879c43d987d91U, 0x3dd4c503bd31e4a1U,
  0x3c3a9c0cbd13b9d6U, 0x3da783a6bd7d1568U, 0xbc00a248bcc4f5d6U, 0x3c463b38bbd96c66U,
  0xbda96fb9bc153f5bU, 0xbe47b2f63d4e3ddeU, 0x3d2f4fc13c0e2887U, 0x3df7144a3ca7b28eU,
  0xbcd6ce503c73b130U, 0xbd9c1a063d50882aU, 0xbc9426ccbd8df4b0U, 0x3d94e06f37fec000U,
  0xbd180c2bbdae3c59U, 0xbcc0e4093d023ba0U, 0x3d0c9fd6bc3e00c8U, 0x3cd85c433d1ffb9aU,
  0x3d578b86bb4d1c91U, 0x3dfbc6e5bd187024U, 0x3c49df283da94368U, 0xbd90da50bc09b1ccU,
  0x39b88ff4b9c9474fU, 0xbd998198bd38e287U, 0xbce3e4febd45cb71U, 0xbd889a6b3ca80d68U,
  0x3e13ddebbc68b342U, 0x3d5c580abd8274ecU, 0xbd71cacd3c87c365U, 0xbc4e2dbdbd49c9abU,
  0xbd9c53ecbd569569U, 0x3c0093483d0c4012U, 0xbcd8ce7dbe064fd2U, 0xbd8229753d89b90fU,
  0x3db85b8f3dfda9dbU, 0x3b08a8a9bd9b8959U, 0x3d64df66bd322313U, 0xbcc9beb43c70bcb8U,
  0xbdc50100bc753739U, 0x3dbee73ebdb6e727U, 0x3d84cc2f3dbe787fU, 0x3d2103d33cbc087fU,
  0x3de7bf1abdaea177U, 0x3d50a6c4bd5e18e9U, 0x3dbe053ebd2503b2U, 0xbaf6eb01383b8a3aU,
  0x3c657a35bbcb95dbU, 0x3d874ab3bd922e0eU, 0x3d904932bd20c5a0U, 0x3c52bd3ebc83d406U,
  0xbcf3059d3c3c23f0U, 0x3d71d3ca3d966566U, 0xbd185f10bd3ca82cU, 0x3db06c03bbbce3e0U,
  0x3d49a4bd3c5a9470U, 0x3dbf0209bd3ccf6cU, 0x3d5e64de3cf4e4efU, 0xbd933f45bd6834b1U,
  0xbd84455a3b8ce865U, 0x3d884f093ca2c3dfU, 0xbdbcb2603d60a66cU, 0x3dd846ab3d9f96e9U,
  0x3d8543bf3d2217f2U, 0xbc173830bdb09818U, 0xbd6c37ce3c388258U, 0xbca33f383cde2794U,
  0xbd430ddcbdab5c5aU, 0x3cf342583c99c76cU, 0xbd5c7b54bd57f519U, 0xbdb2cda43d38d9aeU,
  0xbcaaf5b03dab159bU, 0xbd642caa3ccf55c8U, 0x3bc90ef0bc879da4U, 0xbd24a3523d3f84d2U,
  0x3c8844d4bc72f578U, 0xbca3f1203d8dafc3U, 0x3d21b65e3d64db0aU, 0x3d0a9ca03cd2ae74U,
  0x3d9518a53d9eadc3U, 0xbd947810bdb00eb4U, 0xbcea44563da214ebU, 0x3d36d016bd148278U,
  0xbd7557e63d9a9e05U, 0xbcd556403d32ba7aU, 0x3db14f8f3d9ee907U, 0x3bd598503c1624b0U,
  0x3ca758e0bd9dc678U, 0x3ca61078bccdc944U, 0x3d5d475ebd4f776eU, 0xbd20a672bb2826e0U,
  0x3d9d3c293cc46914U, 0xbd27dccdbcba1380U, 0x3d1235d8bd7dff65U, 0x3cd064b4bc03f3e8U,
  0x3cdc3ddc3c583630U, 0x3bcc03b0bd916f18U, 0x3c5b3cc03d479532U, 0xbd1a4915bd8cb798U,
  0xbd877ce8bd403f0aU, 0xbd9dccae3d67aecaU, 0x3d9805df3d625c36U, 0xbc8a2b24bc973ef4U,
  0xbda603713ce2385cU, 0xba541a00bd020779U, 0x3d5e457a3c6f44b0U, 0xb9fd1f003c965cb0U,
  0xbd300fcbbd27c8baU, 0xbda7a3963dac7dcbU, 0xbd1ce128ba61db80U, 0x3d843a23bd8f2dbaU,
  0x3bb803d0bda7979bU, 0x3d1dc5823da3b5f9U, 0x3d4b06b2bd0ee6d5U, 0xbd7dd7cfbd8da0deU,
  0x3d8e71f3bd04f624U, 0xbc7a2fa0bc3a06b8U, 0xbd7a2b14bcc06e50U, 0xbca366b8bbd4c7e0U,
  0xbcbea8603d813523U, 0xbda74c6abd3b3f28U, 0xbc434990bd8908caU, 0xbd8367b33dad9831U,
  0xbda276713d8ee991U, 0x3d3cadaa3d9efbe7U, 0x3d148ba4bc9b9d08U, 0x3bd62f60bd0c3aacU,
  0x3d7545bbbd7f529fU, 0xbbe1c47cbe47e83aU, 0x3c0218a8bc83d9a3U, 0xbc616a7b3da4f143U,
  0xbd4f24f7bd59121bU, 0x3d36a205bd8683f0U, 0x3d5a065e3d6b94c8U, 0xbccd1fd7bd7a748fU,
  0xbd6c8d553db70f34U, 0x3e078bf3bd483047U, 0xbd969b2c3d565fc2U, 0x3d8e3bf03ccc76dcU,
  0xbc6dcc923dbdb883U, 0x3e0757e53cbb6cc9U, 0xbc8957283cc53288U, 0xbd54ca123bedd3c0U,
  0x3d7fc0063dc06026U, 0x3da2c2cbbd3a2ed4U, 0x3d04ae4bbd92e3c4U, 0x3c3ab38f3cc30565U,
  0x3dd21b833df12bb2U, 0xbd8db0f1bd4c1372U, 0xbd948d2a3caa4071U, 0xbd8fc098bdc47722U,
  0x3d99a9e83c94bc6bU, 0xbd8c857dbb78f6deU, 0x3cc04684bc6632e8U, 0xbce7ce643d3e5f1dU,
  0x3cc057b5ba0a747bU, 0xbce7a506ba93ff80U, 0x3db465b63d45e85fU, 0x3d2df409bd4ee18aU,
  0x3d483c883d203354U, 0xbb3f13203c99b869U, 0xbd383bad3d7be646U, 0xbd87d6a83e070024U,
  0x3e1a9fbb3df7e338U, 0x3def20463dc46678U, 0x3dc611ba3d58618eU, 0x3d0f45d5bca213dcU,
  0x3db53ab03e585339U, 0x3c9f72c63cd64715U, 0x3d35be253d59a491U, 0x3c0e31833d96a871U,
  0xbd1e0ac73d84042eU, 0xbb3ffda5bdb3aac6U, 0x3df030673e0441beU, 0xbd7e2d14bd9949d0U,
  0x3e42cd753e099fdbU, 0xbd1d0d273b081c20U, 0x3d016a88bcb77c8cU, 0xbd82bb8d3c1f2af3U,
  0x3cc45a143e502866U, 0xbc1d87d1bd3dca60U, 0x3d7ef01fb8809e65U, 0x3d6df0163da4cb6bU,
  0x3defb916bd9e225eU, 0xbc93f57c3de2f64eU, 0x3de7c758bcc2977eU, 0x3df867fdbd701c3aU,
  0x3d0866fd3bae7b84U, 0x3c5099f03d1a8cf7U, 0x3d62d2ffbcaf9c39U, 0x3d319bb7bd12ada7U,
  0xbdb1deb73d94fdabU, 0xbd293de8bc5a5c40U, 0x3b1a9b94bd396b00U, 0x3d2e15193d9f6a5eU,
  0xbd41597dbd3db2bcU, 0x3d88f834bd9b404eU, 0x3d8a35243c7b3ef5U, 0x3c7fde053c7cfa38U,
  0x3ccf40883da06d74U, 0xbe004f32bdb830a4U, 0x3d8861bd3b92674eU, 0xbdd688b2bcaf2d28U,
  0xbd302bd83dc8c774U, 0x3cb5fb543d952e56U, 0x3c974c0bbbe3de27U, 0xbd00e258bd9b515cU,
  0x3ddb102c3e16809fU, 0xbd39dec13c29873aU, 0x3d64cbcd3c6404a0U, 0xbdcbb0afbb11898fU,
  0x3da9293d3c723301U, 0xbcb34ae33dbdaf13U, 0xbd088c3b3d184e0cU, 0xbd51fa203d6851eaU,
  0xbd94bd013bf697f9U, 0x3bfe682bbd1aebb8U, 0x3cbfd670bb92f100U, 0xbce08f02bd9caed2U,
  0xbd21cd933c80ef0dU, 0x3d1244c8b8aa0800U, 0xbc2ded603d4aa4d4U, 0x3d6ef768ba40f535U,
  0xbd3e74933ddb2294U, 0x3d8b886d3d9290dcU, 0xbda759df3c359638U, 0x3da9457dbd0d813cU,
  0x3dc22c3c3db177bdU, 0x3e022ec0bd307999U, 0x3df0e0863d90ef82U, 0x3cddcddc3cb534d0U,
  0x3ce8fe55bce3c054U, 0xbd5ad6fb3d4d8bd7U, 0x3de18d9abd1bd8f8U, 0xbcfeb97dbda32016U,
  0xbdf13cc83d3f72b3U, 0x3cf05c383d4da319U, 0xbc4093b13b910b44U, 0x3bbfb1533d83dff8U,
  0xbc850571bb303c58U, 0xbd1fa2f53d3a2dbeU, 0xbdaa94a13cb63b70U, 0xbd01c84e3d4b488aU,
  0x3c34de8b3da271ceU, 0x3dd33d963c403d47U, 0x3ca2fb8fbca3dfa8U, 0x3d161f263d8c829bU,
  0x3d1e68353c968328U, 0xbd337825bb9c24dfU, 0xbcfe89e33c58690dU, 0x3daf13cb3d9f1634U,
  0xbd89a8323d1b92faU, 0xbd9b88363dba427bU, 0xb9ba10d3bc93533fU, 0xbda68c313db0d7adU,
  0xbcad8cc83d552f96U, 0xb989ffa23e698fc3U, 0x3d8339e3bb9cc219U, 0x3c1d7fe63c8dffc3U,
  0xbb1c51283b939830U, 0x3dbe6f373da93281U, 0x3d3f6019bd5e20a6U, 0x3d998c133d233207U,
  0x3c44a6f7bc912a7dU, 0xbe109d8a3d202b43U, 0xbd6904d6bd7da661U, 0x3dc8b9ad3be3092fU,
  0x3da62f3b3d0c411fU, 0xbbca50cc3d098555U, 0xbd5148ab3dc70a06U, 0x3d28ea523dabf99dU,
  0x3df948ddbe622d20U, 0x3d80b551bc34e758U, 0x3d7cf3cfbdab3de7U, 0xbd22726dbc3ba0bcU,
  0xbc3473553d35ba3aU, 0x3dcfb2503cfc408eU, 0xbbbd3940bd7167dbU, 0xbd24f0703d1d2ffeU,
  0x3bce79e8bd99c692U, 0xbd9253f2bc550b43U, 0x3d805aa3bda0c800U, 0x3d30a7023d32b828U,
  0xbc6aa4ffbd96082aU, 0x3d6363da3d485b8aU, 0x3d2b09e73d5c0e6eU, 0xbd27c092bd1a4853U,
  0xbc98fcc13c9148e6U, 0x3d298d46bd3f223aU, 0x3d048c26bd2f9502U, 0xbd36705ebdcf464dU,
  0xbd1c9b0e3cb36129U, 0x3cb98b2cbdb023e5U, 0xbdacf6993c17008dU, 0x3d8381ee3d6c6b8aU,
  0xbba33427bde7e152U, 0x3c7086c2be049448U, 0x3d8063a1bd8beb49U, 0xbd81c3473cbe75e5U,
  0x3da3030a3d386b05U, 0x3d602f243cda0e4aU, 0xbd8dec60bc7edb1fU, 0xbd180a3b3d2fa081U,
  0xbd8e9a6e3c77cca6U, 0x3d8076c6bd7ee063U, 0xbd07d0a93d2e8caeU, 0xbcb2bde03d41293dU,
  0xbd130335bd50b176U, 0x3cc842ee3dc447b9U, 0xbd8b77783dd631a4U, 0x3c549d283d82ffe5U,
  0x3d84cf9cbb202b60U, 0x3d0f6935bd8f9bbaU, 0xbd547849bcd982a1U, 0xbe00be5dbd6a8b3aU,
  0xbb6d63e23d1e2725U, 0x3d1deade3cd5b4aeU, 0xbd69ef61bcf9d7eaU, 0x3d9d99e6bbfffcc7U,
  0x3d4265f53d034f73U, 0x3d1278d6bd9ee2d3U, 0xbd851302bdb1538fU, 0x3d9b6ab8bd90691cU,
  0x3d894f9f3d7d7486U, 0xbccc7c67bcd9612cU, 0xbcd1725ebda6e5b7U, 0x3d9182513d35d055U,
  0xbca03098bd232200U, 0x3d7084323d544bebU, 0x3d87a0e93cfe536bU, 0xbd14b4453c19eb81U,
  0xbd8695d13d31a7bdU, 0x3da8278fbd18a19aU, 0x3d21c2cd3c29061eU, 0x3daa7cb1bcd63810U,
  0x3ccf51eb3c46259eU, 0xbd9823b0bc92aa42U, 0x3d4ba23e3d1db932U, 0x3d196994bc8fa758U,
  0xbc438613bd9148ceU, 0x3cc9edb63d31550fU, 0xbd97ab14ba6505c4U, 0x3da04fabbc916295U,
  0x3ca66b6d3bb07537U, 0x3cbcf1f4bdafa8e7U, 0x3ba6acb03c3b2c90U, 0x3b9f39403d8291a3U,
  0x3db3a52dbcac693fU, 0x3d48495ebd9d8726U, 0xbd5872d33d82bd14U, 0xbd9fdec63d5f7397U,
  0x3da89455bcf5c0f3U, 0xbcf06924bd40d3ccU, 0xbc5484703c50d09aU, 0x3ce6a799bd88bbc7U,
  0xbbb4fb7dbc2a821eU, 0x3b8955a4bca8f1f5U, 0x3c3c7f8a3c594bd8U, 0xbd8269363d32d9b2U,
  0x3d232c3e3d94440cU, 0x3ceed2d03d876242U, 0xbd8e172a3d598b24U, 0x3d959df9bcc5f543U,
  0x3d53136cbd8619ccU, 0x3d8cbeb9bd5339d4U, 0xbcd2441bbd92d773U, 0xbd247b2fbdbaf680U,
  0x3cac0f333d54f02cU, 0xbd973dd63d2f4e46U, 0xbd7613f8bd86dcadU, 0xbd7e663bbd56cfd0U,
  0x3d5ebac8bd6cf55fU, 0x3c39d1e5bd6b2478U, 0xbd25cf473d611fbeU, 0x3d687e6e3d812467U,
  0xbb6c86fdbcf5490cU, 0x3d8d6c8d3c318114U, 0xbcb795e5bc7162a2U, 0xbd560dfc3b17912bU,
  0xbc2e34983c0ec644U, 0x3b7211a0bdac90d3U, 0x3b994e24bcd46a7aU, 0xbd317ca6bda6be77U,
  0xbcf2b273b86b3fd1U, 0x3da3b4753e875820U, 0x3d88d8db3d82e80dU, 0xbb8552f03d40514dU,
  0x3ddbb55b3caedc48U, 0x3d4e535bbca6b388U, 0xbc1846693ca9e225U, 0x3cc021c63dad8c43U,
  0x3db1c5163c475f97U, 0xbe0883bcbda0453cU, 0x3cfb6715bccd7c02U, 0x3d1147f2bd15df61U,
  0x3d17f974bd165c4bU, 0x3dc1757cbc66e0bbU, 0xbdbe00c73df45e8bU, 0xbdaa86823d8ff03fU,
  0x3de0cf06be6bd10aU, 0xbad851b23df659a0U, 0xbd0b32abbdad058bU, 0x3c3bb2d53dc0c812U,
  0xbcdaf93d3d01bb2dU, 0x3c9bc7733dc468a3U, 0xbd948c083c4bdf1aU, 0xbcfcf4063df7205bU,
  0xbda245eabc18a1abU, 0xbd244f9b3d9b161fU, 0xbd1b6aad3cd3785cU, 0x3c700330bcd4516dU,
  0x3bbb6c0c37fa3401U, 0x3d240392bd8d486bU, 0xbc095b003dcab8e2U, 0xbdc21fce3c8a9904U,
  0xbc328ecc3bc2109bU, 0x3cce8b1cbcd2875cU, 0x3d53cc58bd8855a8U, 0x3d9791e13d25e887U,
  0x3dc47719bd0ff198U, 0xbd1ef1853d2d44a3U, 0xbc7f9c483d93abe3U, 0x39e95af63d8ad16dU,
  0xbdbe5923be2b6345U, 0xbcc762f2bbdd8389U, 0xbd6b09dcbcfbfcf5U, 0x3d015d4e3dd72ba5U,
  0x3d43d9bc3c8cc34cU, 0x3d1966743ced6b2fU, 0x3d876196bd4fa4fdU, 0x3da23a8c3daa5c41U,
  0xbddc2a1fbbd435b0U, 0x3d0005f03d2946c6U, 0x3dfa2b443d9fb7b5U, 0x3d157711bd50238fU,
  0xbc7a37e6be1b663fU, 0xbb67801a3d4d4d80U, 0x3db63a91bc1dcef8U, 0x3d9c40a1bdb070d2U,
  0xbc9887c6bc9f9df0U, 0xbd04f23d3ca7cbd8U, 0xbd7754e43d491169U, 0xbb98b8aebccaba21U,
  0xbd98bcf63d653751U, 0xbd961e673da4eaffU, 0xbc1e35ab3dc2e9b1U, 0x3da809e23da9f60aU,
  0xbc9c0b0b3bfe92edU, 0x3bfd44f73cad7cbbU, 0xbe1716b4bd707849U, 0x3d9344433d1128f7U,
  0xbe36c0033d90d5adU, 0x3d8a4037bd7d6f86U, 0xbe0912e33d3f3eb2U, 0xbd618e2cbdb7babdU,
  0xbd81cbd33d6baf61U, 0xbd8873e0bdb6f012U, 0xbd253feebdb2da71U, 0xbd6596bd3d977cadU,
  0xbcbc6bd43d862d55U, 0x3daec783bc2dee55U, 0x3d3550b7bd2ba589U, 0x3c7412603a9238c0U,
  0xbe1787a33e6b4b8eU, 0xbaad4a83be1948d4U, 0x3d8f80c73c8866a4U, 0xbd27ecdcbe15d957U,
  0x3c517b8fbb92db27U, 0xbe09d945bcd2f26fU, 0xbd6bc7fcbe340bcdU, 0xbd8d732abe337c54U,
  0xbd783bdabe35d857U, 0x3d555e43bcdd596aU, 0x3d09cfde3d3c282eU, 0x3db207ebbbfe760eU,
  0x3de07e1abe55d5b4U, 0x3d118d6ebd64aedaU, 0xbd0a632dbe081ccfU, 0x3beba4a63cbf5a49U,
  0xbdb668a13c7c7acbU, 0xbc0d16f8bda7d037U, 0xbdbec2a63e18d9c7U, 0xbdbab3f73da5613cU,
  0x3d9a10943dbfab4cU, 0x3db460cd3d5e9c2dU, 0x3dbef36fbe09179fU, 0x3ca77673bd9b5e8cU,
  0xbd2be2e23e121bfaU, 0xbe00f5b33cbdb9d0U, 0x3dfe0e42bdd8d128U, 0xbdb3bc9a3d99e059U,
  0xbd7cd8ce3d394026U, 0xbd8e441ebcf72333U, 0xbd2ec3313dc39071U, 0xbd80d890bdbd6c37U,
  0x3dde89103df431b2U, 0x3d9b8fa6bd9173a2U, 0x3d72457d3c8b8970U, 0xbe1a621ebd1c8c39U,
  0xbd444bb33e2065d5U, 0xbd25a2d8bdea406fU, 0x3c348b39bd6cbf0dU, 0x3d577b223d931ee1U,
  0x3d03b3733c532268U, 0xbd3d58f53e2285dcU, 0xbd483abc3db78b4bU, 0x3dbe4041bd49f52aU,
  0x3d0924253d266992U, 0x3d70bd7abdbfd384U, 0x3d00fa023cfb3423U, 0xbd0e4c30bcbfecf3U,
  0xbcd75226bcfd90b0U, 0xbb33efc2bde957b3U, 0xbd183ca4bd05c753U, 0xbd8438913c4391d5U,
  0x3c122d1c3d01ddfeU, 0xbdaec8c7bdb2207fU, 0xbc86ccbfbd3a3c0aU, 0x3ccb6962bbd0e9cbU,
  0x3d96b5e53da194d5U, 0x3d94b09a3b8d3c0dU, 0x3db208da3cff99bdU, 0x3ce2775a3d3d0998U,
  0x3d9bbc50bd144976U, 0x3c4cc77cbc0f157dU, 0x3ddcc4e83da4bc30U, 0xbd5fc417bd6630fcU,
  0x3d898a083e7eb3b4U, 0x3dabb0aabd99ace8U, 0x3d294259bd9660e6U, 0xbd6f2ca8b954370fU,
  0xbcc25d523db441e9U, 0xbdfc1697bb9fb7b3U, 0x3d97a16fbc9b3bd8U, 0x3cafb6dc3d613652U,
  0xbd9234b4bd8e5ce1U, 0xbca376c3bd72f414U, 0xbd46e1c1bd43ae43U, 0x3ba41fc0bd131a75U,
  0x3dc66243bb92c74eU, 0xbd30a46b38976800U, 0x3dc22416bb4d917aU, 0xbb042768bc2ad394U,
  0xbd649ec63d916d52U, 0x3c46f610bd92eb15U, 0xbd9589a33e150c85U, 0xbd713aef3d8c2d77U,
  0x3c783fce3ca6b65dU, 0xbcbe6283bd61f2c5U, 0x3de1a1903dbacb80U, 0x3c9a4f023d086aa2U,
  0x3ddcfa9d3e01686aU, 0x3d8558b2bdac56dbU, 0x3dd26061bd854827U, 0xbd3773b4bd8c11beU,
  0x3b9222b93d0c98b8U, 0xbd29ac7dbda61ce9U, 0xbd9c58333bce1fc6U, 0xbd186ba13d21bedcU,
  0x3ddc16e3bd0d06f9U, 0xbd2ab7f9bd8cbc7cU, 0xbc9912b33d31359aU, 0xbd81e7b93dde4b5cU,
  0x3c83809c3e1adc17U, 0x3dce9a453d36240fU, 0xbd80c863bcf8ab3fU, 0x3d9543133d591576U,
  0x3c39731dbca66928U, 0x3bd691753cf0103bU, 0x3dd36218bc7ffd73U, 0x3de3fe003d89ab6eU,
  0x3dbb7b363d53733dU, 0x3d1963063c647e25U, 0x3d874de8bd3376f2U, 0xbc99f3123cced0ffU,
  0x3dc259793c098920U, 0xbd5f6fe73e0d1b77U, 0x3d7009463e1fc668U, 0x3d454f86bc3012a9U,
  0x3d7a082b3d83abd1U, 0x3c6a4e313c5ad420U, 0x3cd4dca03c35907bU, 0xbd26312d3cb426f4U,
  0xbd31ac9a3caa6a85U, 0xbda151dcbcbb5dcfU, 0xbd551a283d048b3cU, 0x3d9b007abd2c26c2U,
  0x3d80910fbdb0b92dU, 0xbbff4c213d93590aU, 0xbdb1244dbd2f17fdU, 0xbd338ab7bd7f5a6bU,
  0xbb3e669bbe83469cU, 0x3b986ca93dc3ac99U, 0x3dd5e5593a585900U, 0xbc6c7b52bd5943e1U,
  0x3cb1a3703d90c923U, 0x3d57d04e3db07d39U, 0xbc7392d8bd6da088U, 0xbb94c4003d4cce9eU,
  0xbe03abb0bd97d45aU, 0x3d9c5d51bc935f72U, 0x3db031c7bc586d50U, 0x3cc74384bc855184U,
  0x3dddae5a3d09c1d4U, 0xbd1f901fbd21cd17U, 0xbd5f958ebd25bbbbU, 0xbbf4436fbd5886baU,
  0xbcc885a9bda4546eU, 0xbd75e65e3d85c0e6U, 0x3c2dd6ad3cb18fb5U, 0x3d98b0a9bcd50a5cU,
  0x3d88d405bc8910aeU, 0xbd4951cdbcfb241cU, 0xbbcb6dd0bd6ce60fU, 0x3dacdc25bd140c23U,
  0xbe091256bd20c170U, 0x3d217a5dbe1969dcU, 0x3cb08255bda43bd7U, 0x3cb13cf2bc0af0d8U,
  0x3e0295193c980e17U, 0xbd4fc8babcbcf8e3U, 0x3d28c46b3d1d429eU, 0x3d6c4a8f3dc6d8caU,
  0xbdb091413dc0ae30U, 0xbd1992d0bcae9038U, 0x3d2c31ca3b0cf620U, 0x3b849de2bcad11aeU,
  0x3dc00be1be259dedU, 0x3d07a29f3a745060U, 0x3c56b2563d097f5fU, 0x3db2d7b1bd0b5d97U,
  0xbb6b10e7bd480205U, 0xbcf497b3bddeb266U, 0xbc4471183ccafac6U, 0xbdb57bec3d6ec1a3U,
  0x3d55e89f3c999748U, 0xbd65b4d03d3aa73cU, 0xbd951b2f3d061e32U, 0x3c09a2ebbd4d2f4cU,
  0x3c90a8213d077d9aU, 0x3cbbd0b13de5339fU, 0x3da7a3733e2355b3U, 0x3da41f9e3d55ce97U,
  0xbda471983d36926eU, 0x3db6b6533d23370eU, 0xbad976d0bd0b61bfU, 0xbd83324c3b380454U,
  0xbd9c4d40bd99949aU, 0xbd8675613d802200U, 0xbd903dfabc7bfba2U, 0x3b240e523dad7a33U,
  0x3c3d9f9fb94f31bdU, 0x3c329e623c06e680U, 0x3d5698ee3dbdc393U, 0xbd16797a3ce64b60U,
  0xbd4ac4613d0a606eU, 0x3d3a8e193e166a6fU, 0x3dd169b13d4409c2U, 0x3d4077fbbc855a9cU,
  0x3dd81fcc3da9a845U, 0x3d7826863d59b30eU, 0xbbfb3250bd3082a4U, 0xbd6c2f603d711234U,
  0x3c6f3a2d3d2872b2U, 0xbdc09c68bd32e4fcU, 0xbda3017bbb8198c0U, 0xbc19e8003d12a3c7U,
  0x3cfe91293cc4ea14U, 0xbc8da6c83d9cfa9fU, 0xbd7611b5bd264945U, 0xbd4d9bf03d57a5a5U,
  0x3d9a3eaabded8eb8U, 0x3cdf6020bd707dfaU, 0xbc3999d0bd4f370eU, 0x3d91b3c43bf8a501U,
  0x3e0b45943cdc6191U, 0x3c73e7c8bd920d22U, 0x3d405b08bdaaae30U, 0xbd3e22b13d523a3aU,
  0x3d9ac5f9bd388427U, 0x3d4e123cbe09a57cU, 0x3dbff22cbd04bc6bU, 0x3dc864703d862930U,
  0x3e010133bd832397U, 0xbc7d78c9bd82cb4dU, 0x3d1672183ce82516U, 0x3da6c52fbda7a338U,
  0x3d98d5b73b9cd70aU, 0xbd9774b13d562ebeU, 0x3bb6ad553d8e5709U, 0xbd2a66663bfb75ffU,
  0x3d9cf7e63e3712eaU, 0x3dddcdae3cfc50c7U, 0x3dd99a57bc5a6a03U, 0x3da246e1bd874ccdU,
  0xbd2cf011bd36b0f3U, 0x3daa0eec3c93a390U, 0xbd360339bd8681efU, 0x3d4046653cfb0007U,
  0xbdb780d33daf2a3dU, 0x3c9798a03d501440U, 0x3c50bd0cbd76ebbaU, 0x3dab779ebd63a7a9U,
  0x3cb92aa33c7458daU, 0xbd779bc13e022d03U, 0x3d0f40753d9c4323U, 0xbb23386abdf732b2U,
  0xbcec2a04bdaaeb66U, 0x3dd11c7bbd90e592U, 0x3d3c1ca83c169b44U, 0xbc8212433d55dcd9U,
  0x3d4e8e1d3d2bd2f1U, 0xbda0efddbd7633daU, 0x3d2584843db9e201U, 0x3bfa4c773c8f4fd3U,
  0x3a685c9abdaf4253U, 0xbd220dd73da3f21fU, 0xbd1185d7bd274088U, 0xbc6c5888bbbc63a0U,
  0x3aa2d783bdcf2ffeU, 0xbdb45e123d24cabcU, 0x3dd6c6563c3a4a60U, 0xbc641e313c92d425U,
  0x3de8f47f3d162eddU, 0x3d9b7f08bbca121eU, 0xbdb0f8cdba93ce45U, 0xbc96d1c0bd72d903U,
  0xbd0e3fdb3cca7737U, 0x3ce76b873b85c62eU, 0x3d9f2a49bd9e3204U, 0x3b952db0be0337abU,
  0x3cb10677bc024c31U, 0xbc4e93003b74fae0U, 0x3d51c40a3dd1711aU, 0xbded582f3bfd7fa1U,
  0xbdc70b38bd813a54U, 0x3d6766623daccffaU, 0x3c9f2d7ebe0378f2U, 0xbd8921103c5f5dc6U,
  0xbc0eb3a63dc8fd86U, 0x3d39a576bd229e15U, 0x3d7b933e3b54ae04U, 0xbc68e80fbd3b6b89U,
  0xbd5a6e81bd413418U, 0x3d4f66d0bd5b51baU, 0x3cbeac943c9d59cbU, 0xbda741f83d526646U,
  0x3d6ff3b1bdaa6fa5U, 0x3c96fa403dc8a15dU, 0x3cf7e5523bcd2081U, 0xbd595a5b3d9d6fc8U,
  0xbdb60ec0bd8f8c3fU, 0x3d9202173d9bec61U, 0x3d1f4071bd489218U, 0xbc9d465a3d64c315U,
  0xbc6afbba3d6f3618U, 0x3d555ffc3d83eac4U, 0x3d89c2383c8d7ef8U, 0xbbb9eaa03d4ed0faU,
  0xbd54eee8bda3d4a2U, 0xbc0aab0dbcaec9c4U, 0xbd197adb3d0a34a4U, 0xbdc31863bdea2671U,
  0xbd81b01fbd57404aU, 0xbd673574bca55b0fU, 0xbcff19b13dcedc5aU, 0x3dc3a8583d6b03f3U,
  0xbe12ccd6bcb0f319U, 0x3d0abc433e343a4fU, 0x3da2dfd23e152d69U, 0x3d762b72bd928699U,
  0x3db049fd3c8605ccU, 0x3d4ed5e1bd7bb9f2U, 0x3ca792ffbc8d77aeU, 0xbccdd2913ce21319U,
  0xbbad98a0bdec12ecU, 0xbd2b182fbe427e22U, 0xbdec8cfc3ca938c8U, 0x3d4123273d803dc9U,
  0xbc1a604dbd41aedcU, 0x3c4002223c9bad9dU, 0xbde9b5ef3c6fb3ccU, 0x3b5fbdc03d8ba633U,
  0xbbc97d0abe4605c6U, 0xb9ae942c3d94e37eU, 0xbd0778d9bd425d2eU, 0x3de00d333dd51e7cU,
  0x3d918d86bc4a3286U, 0x3dee18703cd4c865U, 0x3cf00c54bd0a0513U, 0x3da9a4dbbc2dc963U,
  0xbc8f515fbda6df24U, 0xbd0c48b9bd092123U, 0x3d8473193d6a15b6U, 0xbdb02fdbbdc9ca47U,
  0x3cf943a4baf2fde7U, 0xbd969c7abd34b522U, 0x3d8a2ca73ddac54cU, 0xbcc36d50bd23eac8U,
  0xbdbb7d07bd3e9716U, 0x3d928f65bcdd627bU, 0x3da512c5bcd96d78U, 0xbd80b8e13d42efdaU,
  0xbd25d65d3d2a9172U, 0xbdb8b5753c5f6f38U, 0xbc608d45bd1ad6d4U, 0xbd394b863d9f29b3U,
  0xbd9b2eb6be102fabU, 0xbd26c42ebe1848f8U, 0x3dea462f3b4a38d8U, 0x3ca1ffbf3e2eda6bU,
  0x3dec9ebc3d07b87dU, 0x3b1aca4c3c889fccU, 0x3dc180f53d45fd8cU, 0x3d764734bda2ad28U,
  0xbe1ffe9e3d01dd6aU, 0x3d094fd0bd8b247dU, 0x3df0a45fbda737caU, 0xbd7f54343d3b3417U,
