/**
  ******************************************************************************
  * @file    network_data_params.c
  * @author  AST Embedded Analytics Research Platform
  * @date    Thu Mar 21 12:47:27 2024
  * @brief   AI Tool Automatic Code Generator for Embedded NN computing
  ******************************************************************************
  * Copyright (c) 2024 STMicroelectronics.
  * All rights reserved.
  *
  * This software is licensed under terms that can be found in the LICENSE file
  * in the root directory of this software component.
  * If no LICENSE file comes with this software, it is provided AS-IS.
  ******************************************************************************
  */

#include "network_data_params.h"


/**  Activations Section  ****************************************************/
ai_handle g_network_activations_table[1 + 2] = {
  AI_HANDLE_PTR(AI_MAGIC_MARKER),
  AI_HANDLE_PTR(NULL),
  AI_HANDLE_PTR(AI_MAGIC_MARKER),
};




/**  Weights Section  ********************************************************/
AI_ALIGNED(32)
const ai_u64 s_network_weights_array_u64[26881] = {
  0xbd14ae16bd8af9d4U, 0x3d13b4073e33bf76U, 0xbcf29f8dbd04a8eaU, 0xbd76b2f73db13c71U,
  0x3d8c19a83a9c9de8U, 0xbd34c978baa8741eU, 0x3d0461863d0696e9U, 0x3d46c5423d2607beU,
  0x3c4be8d5bc609640U, 0xbce4069f3d49e631U, 0xbd6c3eca3b0f4e0cU, 0xbda8b4593bfacd45U,
  0x3cf70f4c3d677c26U, 0xbdb0b9783d8c6b0eU, 0x3c723c803d870a59U, 0x3d1a2efa3ce956c1U,
  0x3c1f18583c15a6a7U, 0x3dbb72c63d67946aU, 0xbc0f62cfbbc195a3U, 0x3d84677b3d603e60U,
  0xbd9318283dc48abaU, 0x3deb0b333d88eb01U, 0x3ce270b9bcdd3bc7U, 0xbd81009b3d893e9eU,
  0x3d5a3ed5bd13d5c4U, 0xbca1e6313c0c1bc4U, 0xbc54ba76bd006ec1U, 0x3c94a1fc3d19092fU,
  0x3c94569bbc1ba24dU, 0x3d3fadc7bbeeb36bU, 0x3cd3b0f23d9a1ed9U, 0xbda82870bd9e7f46U,
  0xbd8ae8223d2eac16U, 0x3d6b493cbcb28d15U, 0xbd91e8d9bd9b6441U, 0x3ce6c8c83b755fa0U,
  0x3e3e931c3a7dfb1bU, 0x3c8f9b133d59113dU, 0xbcddcd773c2da7c4U, 0x3d04470cbd35c963U,
  0x3d9c06173c42a6f3U, 0xbad06698bcdad6d2U, 0xbd97c990bd3199f0U, 0xbccdd05fbd497d49U,
  0x3d298ace3c8f7d3cU, 0xbd01d6ef3df1aba0U, 0xbd7e764b3d087092U, 0x3d660a303d464589U,
  0xbc21fccbbd84b7e3U, 0xbcf4745fbd986ab8U, 0x3cd353c8bc95b3cdU, 0x3d92a2de3d5f1206U,
  0xbcc77a173d4d4a49U, 0xbca7150fbdb7d77dU, 0x3d867391bdb85253U, 0xbcf080cf3d8edcdfU,
  0xbd632baebca95aa7U, 0x3cc9985abd6b6f2aU, 0xbdad80d2bc0e361eU, 0x3d1eb3843d83c584U,
  0x3c530dbd3cefa236U, 0xbc23f0ea3d4825f4U, 0x3d3a0e73bddd1512U, 0x3b896fad3db4647cU,
  0xbc9d772c3c06163eU, 0xbd92df413d2b1b43U, 0xbcb9f3643d9d326dU, 0x3d531aaa3dc12c5bU,
  0xbdd10a7c3d36ada4U, 0xbdaa109ebd740639U, 0xbe1ffd4b3d765a77U, 0xbcfa85da3d53444eU,
  0x3baf07003d3e1928U, 0x3cd8fc28bd850e2aU, 0x3d4da60b3d82fcd1U, 0x3cf1d9a2be00c87dU,
  0xbd8afefa3cc4d3a1U, 0x3d812bf4bd62e7afU, 0x3d01e3dd3d49089fU, 0xbd8cbe26bc78a43eU,
  0x3cb61638bd147327U, 0xbbbb0eab3cd12472U, 0x3d3bfd2e3d876e0dU, 0xbd22ae173d8c5992U,
  0x3c576d203d81011fU, 0x3c7dafc33d81a1b9U, 0xbd84ced2bd6a009cU, 0xbdb1ecb7bd7351beU,
  0xbdb1cb19bddcbd5cU, 0x3d97a5083d78d1d7U, 0x3de1bd183d34522eU, 0x39fc5f00bd3f1986U,
  0xbd3c49e93d1273dcU, 0x3ce8c0213dcdecf2U, 0x3cd55cabbd62d6bfU, 0x3e03dd953c1b6ea0U,
  0x3c9e77503d8b613fU, 0x3cfad108bce0fc0dU, 0x3cd38bb43bab44f7U, 0xbd9bb8d4bd61b8ffU,
  0xbdd5ea3e3db55c72U, 0x3cb395d23e0c8f75U, 0x3d65635ebcd99cdaU, 0xbd1094da3d00156bU,
  0x3d9d1b333e18b010U, 0xbdbaec933cd13a47U, 0x3d69bc97bd94c497U, 0xbdbcebeebd805d1eU,
  0xbd6905d3bd014b86U, 0x3df12938bdea61ecU, 0xbcb25ba7bd28c72cU, 0xbd8d7b18bcd48e9aU,
  0xbcdaae043c867607U, 0x3d0fb6bebcf5c540U, 0x3d895eeebd705291U, 0x3c0b9ad03d7657eeU,
  0x3bde94a03c91483eU, 0x3d665fdcbdf31531U, 0x3d076c9b3cada2c7U, 0xbdd6c9b33d92b405U,
  0x3bbebe4e3dca0fe4U, 0x3dadb4ba3d52c5b2U, 0xbcf672393df44437U, 0x3ddb0a6cbd80276fU,
  0xbcadd6dfbd03cd88U, 0x3d9461533e047e95U, 0xbc7fe0d03da9da22U, 0xbc8c5ef4bd719e27U,
  0x3d2c9a57bdb08c98U, 0x3d2cc8d23d04d3bfU, 0x3da856c23d993f23U, 0x3d8930b7bcf996a5U,
  0x3da71dda3c27eaa2U, 0x3d601043bd5085b2U, 0x3d5a3658bd61f67fU, 0x3d7671cebdae84e1U,
  0x3d6537533cfe1d2dU, 0xbcfe0d4b3d9dd7ddU, 0x3bed7f05bd42555cU, 0x3c74d68ebd8097d7U,
  0xbd6e5680bc60628cU, 0x3d93323a3b9b115fU, 0x3e744b92bb66a1f4U, 0x3d3256babd0c5b50U,
  0x3d01cc48bda691d0U, 0x3d7339003dcbfc1dU, 0x3cfc078cbd50a292U, 0x3da500453c3b7fc9U,
  0xbd9729923dc10e58U, 0x3e3d89d6bd98d096U, 0xbc8f9a91bcfde97aU, 0xbcdf11f63da01448U,
  0x3d232f65bbd83753U, 0xbcbfab163c1ee92dU, 0xbd9cb164bce8df68U, 0xbd6553f33d5f6b85U,
  0x3dff8617bd1ef19bU, 0xbda35ac1bd47a147U, 0x3d75c2293abaf980U, 0x3d6e7975bd4b3c82U,
  0xbd3abf993da8bcd3U, 0xbcfbd11b3e1071fcU, 0x3d1b55023db1bf37U, 0x3d92a091bd523133U,
  0x3d2928d73d44e1ceU, 0xbc8356e2bd6ce6a3U, 0xbd1936cd3dd6e287U, 0x3d0b89503d10fcb6U,
  0x3cd42dfbbdbad8dcU, 0x3bb61f29bd17a3eaU, 0xbcf152d53d757fc2U, 0xbc6bbdef3d52c60eU,
  0x3d1522763dc7cd4bU, 0x3d665bea3dd459f8U, 0xbd97bd8e3d0ce858U, 0xbd0826973dd5d95fU,
  0xbd5ac0edbdc12161U, 0x3ce93903bcf5f6beU, 0x3d2fd1123d10d84aU, 0x3caa763e3ba0fdd0U,
  0x3d125e6a3d8e3fbeU, 0x3d3a06493cf314abU, 0xbd823b8ebd83182dU, 0x3c9961a3bc41f1bdU,
  0x3b312d503da77300U, 0xbc9ec703bd433d0aU, 0x3d0774d93da8195aU, 0x3d95b69e3d947b30U,
  0x3be060a63d993a0eU, 0x3d6a2629bb4cc8ffU, 0xbcac92fbbd28700eU, 0x3c74d06b3d089ecdU,
  0x3cc28b62bd8a3e25U, 0xbd667def3de58328U, 0x3d081bb4bc09f6d6U, 0x3d8e7c7d3d401a11U,
  0xbe09ed79bbe1ef51U, 0x3d68809e3bf61796U, 0xbdb1536d3dac40e1U, 0xbd3173f13d9b2f7bU,
  0x3cd15e773d877e5fU, 0xbb21beb7bd45ae0aU, 0x3d15e8453e1a4773U, 0x3d391676bd93877fU,
  0xbc7fd1f0bca39c8dU, 0x3c6552d7bd443046U, 0xbe25029e3b06f754U, 0xbdae5f59bc1e8a84U,
  0xbd19e0c9bcb748a0U, 0x3d399f2fbd1a7df6U, 0x3d676d213d4c0304U, 0xbd22ef63bd0c861eU,
  0xbbd3655bbc9b130fU, 0xbc32d2e73d33f585U, 0x3c396f723b809129U, 0x3c9b24543cd184edU,
  0x3d9a450dbd356582U, 0x3dc66b99bd49f611U, 0x3c551f683d85a402U, 0xbd65366abd5aa1d2U,
  0x3e2e12cd3d93cb17U, 0x3d8f6f753d980d1dU, 0x3d88a2c0bd8c4f81U, 0x3d5cd69f3d9d78b7U,
  0xbd6976713d55a432U, 0x3c9f1be93d341009U, 0xbd23d49e3d88120dU, 0x3d0354113d65728eU,
  0xbe3c186c3d4c1698U, 0xbd2259583e44b344U, 0x3db5c0a13cbe8c48U, 0xbd28e6d1bd0d005bU,
  0xbd2ee4ea3d244948U, 0xbda474d83d64edceU, 0xbd399106bd55c39fU, 0xbd99f5b1bd052ec3U,
  0xbd9de8173d6f9ca9U, 0xbd522682bda1a56fU, 0xbd182b783da2e556U, 0x3bb1413cbdd6b94eU,
  0x3d81900e3cd549bfU, 0x3d6604b63c88ab80U, 0xbd4ab7ac3d803f3fU, 0x3d4b73fabc451b88U,
  0x3dfdab823a19e5a5U, 0xbd3d82f6be400549U, 0x3c3482dcbdb4ba04U, 0xbd8144e83d5ffc52U,
  0x3d85f4f53ddc0b10U, 0x3d96937bbd86440cU, 0x3cdb18273e4b18ffU, 0xbd8f57d9bb480490U,
  0x3d12fc04bdc352c9U, 0x3d80b2f03d3367b1U, 0xbcd0b2983dcc9126U, 0xbcde2b5bbc115af2U,
  0x3cfa4c95bdaa988cU, 0x3c320aab3db82bf0U, 0x3d6da368bd918e4aU, 0xbcd19f00bd3ffdf5U,
  0x3d9d54cfbd219cacU, 0x3d12b3443c5c46e0U, 0xbcf6f7713d9bd51fU, 0xbc304478bd5008e0U,
  0xbcdb6028bcbffe63U, 0x3de0104cbc117e81U, 0xbc4be7ddbd51b1baU, 0x3b31a310be150d2cU,
  0xbd6cada3bcf3161eU, 0xbc93b49ebd83ee6dU, 0xbc105a6bbc647673U, 0xbd6b458b3d3fff5eU,
  0x3b07df80bd0b9256U, 0x3ca6410ebc0a4958U, 0x3d8dad40bbc228acU, 0xbce2f226bccfed8dU,
  0x3bc8bb233da2021dU, 0x3de3b2703d04a96dU, 0xbdfda7863d003e5dU, 0x3d78f376bcc5b3a1U,
  0x3d45b932bbf507cbU, 0xbd35b6de3cc7bd89U, 0xbdc48e873d207c70U, 0x3da6bf713b6cb3b9U,
  0x3d7317b83d359a5dU, 0x3badae643d8993c2U, 0xbe012077bac82b40U, 0x3d123ee63d261e66U,
  0xbd43893abd4bdf65U, 0xbc97ea08bd83a3bbU, 0xbdd03ec33c2e65b8U, 0xbdba1c353cc0c468U,
  0x3d451765bd30c2e3U, 0x3d4bacb6bd4e6b12U, 0x3d43db2c3cf4c0bdU, 0x3d797bfabd1b9a6cU,
  0x3db06f42bd52c2cbU, 0x3da94f003cfe45e1U, 0x3d8bc144bc1d5f38U, 0xbdd2204abc949822U,
  0xbc2838e0bdf3ffd7U, 0xbc60264d3e00d1bdU, 0xbcddd40bbd0a8ae5U, 0x3bc8133b3df93a92U,
  0x3c818687bd69803aU, 0x3d755d37bd6a899cU, 0xbd5d9df3bccb2122U, 0xbc8b51113d44109aU,
  0xbd87812c3bedb0cfU, 0x3dbaa0c23c11a891U, 0x3d51fb283ceee3d2U, 0xbbc649573d5c56b8U,
  0xbd03734f3e2b94a5U, 0xbda1a1813d24b07aU, 0xbd2fb5833c2da5a6U, 0x3bc680373d763f0fU,
  0xbd8a51babb34a002U, 0xbc3513ac3dbfd862U, 0xbd2f295abd337b19U, 0xbdb47f813d305249U,
  0x3c954894bd555d29U, 0xbd1162edbe6704a9U, 0xbc0aca7f3d813679U, 0xbd33f8483cae2a72U,
  0xbd8ed85cbd7cbd93U, 0x3d1fbf573d564d79U, 0xbd8b18363d438d56U, 0xbd9e5077bd1c4201U,
  0x3ccc6bc0bcee3fc8U, 0xbd473913bd8b74bcU, 0x3d55685b3d742edcU, 0xbcd09486bbc5078dU,
  0x3caf83f83d8864abU, 0x3d71cab1bde4dda4U, 0xbbf0e1c8bdcd8af1U, 0xbd62d166bbd13c54U,
  0xbd9b1a03bccb6c18U, 0x3d9cb2be3d4c1ebbU, 0xbcc3b27f3d60ba21U, 0x3d95c0f93d8e59f0U,
  0x3d05c8b4bd6b0ee7U, 0xbd83dab13ce9eedfU, 0xbc3937363c846ac3U, 0x3d3948023cb82ecaU,
  0xbd74ac3d3c6c6d16U, 0x3c82e2b83da404b7U, 0xbd506f603c86273fU, 0x3d298b2a3d461989U,
  0x3c9f50423c91c6a1U, 0x3d06c924bd665a9cU, 0x3dd3b57d3ccfb788U, 0x3d6be8f0bd530df9U,
  0x3c5626583cc94b38U, 0x3d14522ebde48007U, 0xbd7ad7203c4833e0U, 0xbc960fe8bd893eedU,
  0xbe614b023d4cb0f6U, 0xbc98704cbd4456c4U, 0x3c2ea727bc56cbcdU, 0x3d2ae9523d873ef1U,
  0x3d416b44bdc8e1ebU, 0xbd0cb7073d158ef9U, 0x3d9ea6763bc82595U, 0x3d36bbc4bd9a403eU,
  0x3d7435723c3843ecU, 0xbcf65e42be38fe55U, 0x3dcfdd943cccd199U, 0x3d9d0c973b99e55cU,
  0x3d129e69bc2b7e60U, 0xbd9d27473c95ceb0U, 0xbda8bd69bda749a7U, 0xbd94aea03c89305cU,
  0x3d1673103dafd091U, 0xbb9c21563c9c2b7fU, 0xbd02147cbd80fc29U, 0xbd9e5e86b9ab5945U,
  0xbd35fcf8bcb8148dU, 0x3c384ae2bc729f1eU, 0x3dc660b63d0b2994U, 0xbd7f548abd4c5ee2U,
  0xbd3e80ecbc84e758U, 0x3dc6b8b9bdc304a6U, 0x3d31a0f53d80334cU, 0xbd4cfc21bd973431U,
  0xbce8b9ecbd32ae85U, 0xbc7023493d5f9ec6U, 0xbb65e9353da81cbfU, 0xbc6dcac83d031576U,
  0x3de2f3043d61fe23U, 0x3daf55133cbed206U, 0xbd21f6153d5d462fU, 0x3db25f353dae485dU,
  0x3d637eba3d1498b3U, 0x398ec301bd42eb36U, 0xbb9f65ea3d559762U, 0xbd00fa8ebde2dbd6U,
  0xbc12fc68bd283cb6U, 0x3db3ee103cae5bbbU, 0x3cedd9293ce08b65U, 0x3db181a13d77e385U,
  0xbd4227d13b88f320U, 0xbd7742703d775b3cU, 0xbd5703d0bd570e00U, 0xbd1d437dbd4f2c91U,
  0x3d0c04683d9ed937U, 0x3e07713cbc2ba776U, 0x3d86d0d93dac234cU, 0x3d233966bd2caf13U,
  0x3dae934dbd5cd92eU, 0x3d3f909b3a8f9860U, 0xbbb1668e3cfb009bU, 0x3d9780ad3cda7511U,
  0x3d69e593bd5e8792U, 0xbccc2720bb1c8b81U, 0xbd8f418abd62034cU, 0xbcd8fc273d8d8275U,
  0xbb909a70bad41440U, 0x3d01922e3ae75c03U, 0x3d956e293d9bdabeU, 0xbd696b553db404adU,
  0x3dae043f3dc8a224U, 0x3d90138d3c83f77aU, 0x3ded351c3c2efc1cU, 0x3b52d4403ddf9860U,
  0x3ca397983cd0116fU, 0x3da870ab3d790e2aU, 0xbd7712553ba3e50dU, 0xbd89ab323d7e1c14U,
  0x3d976b473dbe7bf0U, 0xbda84f843d0d88ccU, 0xbc3e1190bc874b73U, 0x3cb691a83de71f86U,
  0x3c573d09bd0a8e01U, 0x3d9c11303c6451f8U, 0xbdb7d1ae3d8336a7U, 0x3d8f3b2a3da23c9dU,
  0xbd8ed2b0bc83ed7bU, 0x3c7ff6093d9c82adU, 0xbc37c6ff3d8d018eU, 0x3dc15020bd64c686U,
  0xbd8641f53d15f440U, 0xbcc59db53ac50d3aU, 0xbdad9f283da71dbfU, 0x3d8469343d6c6f81U,
  0x3d4ee6ac3d64a76eU, 0xbd9fd050bc8defaeU, 0x3da7bd89bb7b7c3bU, 0x3c65b2a3bd910d6fU,
  0x3dab1e933c282b7bU, 0xbc3c8ccebe8ef7fcU, 0xbd339971be11e7daU, 0xbd544610beb8aee7U,
  0x3d8882073db966ddU, 0xbcb475053d8595c7U, 0x3daed9323d82e900U, 0x3d84a5dbbd300899U,
  0x3d4c2bf2be401163U, 0x3d7d26583d1ed4acU, 0xbd4e996ebc3d61c3U, 0xbc3763513e2437ebU,
  0x3d921ea53cb0a8b1U, 0xbd5c7b49bed9006dU, 0x3dc78309bea92e78U, 0x3c9e42ecbd961d17U,
  0x3d2d5bf6bd84cb2aU, 0xbd93abb13ca33720U, 0x3d1e78debdb10010U, 0x3d89a243bd774ddfU,
  0x3d61f0833d700105U, 0x3d1d8a80bcc69ed2U, 0xbcdbd493bba7ff10U, 0x3b4aca60bd8073f3U,
  0x3d71dddabca33e56U, 0xbb4d96b73c4c22e3U, 0xbe91fe95bd8b1e94U, 0x3da85f813cad3f85U,
  0x3caaafd2bcdda401U, 0xbe05bfc63b955e93U, 0xbe1e93a8bd92449eU, 0xbc9b9b003cdca65cU,
  0xbd40644fbd9c3c5bU, 0x3d057debbad6a63bU, 0xbdc4c1373cfa0bb4U, 0xbda7f749bd17c579U,
  0xbd8b57833dcaafb9U, 0xbd239e8c3b86812bU, 0xbd4c53143d43bf11U, 0xbbbf80f03da2dddeU,
  0xbe7b32f7beb557b4U, 0xbd051a02bc073f22U, 0xbca48b4d3c014318U, 0xbdbc7c0dbd1a5137U,
  0x3d82d3db3d44727fU, 0xbbeed1dcbc98caebU, 0x3d88d0583b0e3e02U, 0xbcb2fad43d3ea68dU,
  0xbcbe9762bda60e67U, 0x3c2d76793c503701U, 0xbd8f0d72bc58d085U, 0x3d7ff12abd1fe32fU,
  0xbddc7000bd0c8527U, 0xbdd7e3ad3e37335bU, 0xbd2c6012bd039b9dU, 0xbd55c427bcc193c7U,
  0x3c9514d7badfb127U, 0x3c73597e3d3ebedcU, 0x3de9edd3bddd644bU, 0x3c415e593d882b05U,
  0x3da5cd4c3c63814aU, 0x3ae5e26bbd9b9686U, 0xbd2e3db2be290b32U, 0x3cfc18bcbebf89e0U,
  0xbdb59fc73c0004a1U, 0x3c4ee7a13ce71801U, 0x3da70d6d3ca69323U, 0x3cb95fb0bd16cc6dU,
  0xbc0b013e3d396b55U, 0xbdbf1079bd5724f7U, 0xbd87b2b13d832359U, 0x3c9404f8bd4c315bU,
  0xbda1babebd586a85U, 0x3d8784ab3d9eb490U, 0x3d736ebabe27dda7U, 0x3d2c850a3d17435fU,
  0x3d3621d6bcc66a7dU, 0x3d8d49f83c6de38bU, 0xbdaffc963d80c20dU, 0xbd2317cebd5d5eb1U,
  0x3c563858bdb0670cU, 0xbc720c78bdee84cdU, 0x3d2a7f2fbd21f197U, 0xbd80b8423db3d891U,
  0xbd93d7273af30222U, 0xbd7723c63d5ef717U, 0xbdc92601bd9be2feU, 0xbad0fb003be9dc0dU,
  0x3da69793bca4ace4U, 0xbdb29c4ebd913f12U, 0x3d7d9d833d5a8c34U, 0xbdb1441a3d5f9c25U,
  0xbdbdc50b3c268e69U, 0xbd8c0054bd798a40U, 0x3c5b25163d40a55eU, 0xbd12540dbdaf16abU,
  0xbcbf08843d04d212U, 0xbdacf49abc9458b9U, 0xbdd3531f3c909c84U, 0xbd076189bd9f034fU,
  0x3dbc97bb3e0a76dfU, 0xbc8fce3b3d8c01b6U, 0x3d1d65903d2fefbfU, 0xbcdef1ec3d019359U,
  0xbe08f7fb3dbfc487U, 0x3cd9a89cbd905f34U, 0xbd842ae5bc2c6120U, 0xbdac23eb3cab0e48U,
  0xbc1e6520bdd6b9a2U, 0xbc13cc0f3c3c0089U, 0xbdaa2ea9bd2f87edU, 0xbc4e2e283dddd63cU,
  0xbd0e0e533d7c34b4U, 0x3e0b96da3ce9a470U, 0x3d7516cebd36535fU, 0x3d69b8873dab8d71U,
  0x3caeda1b3ba8a6b5U, 0x3d938bf43d21bad9U, 0xbd586a20bc955be4U, 0x3dad1468bda3cb1bU,
  0xbd83ee3dbd12a545U, 0x3d94784e3d91b01bU, 0xbdddcda4bdd29e81U, 0x3d610c1abd37e455U,
  0xbd0104d03d6dfeefU, 0x3c4ee5243d4dbdddU, 0x3db56918bd01385dU, 0x3cbaf2ce3d384cceU,
  0xbc451dd43d9c2772U, 0x3d09b9a8bd5f0855U, 0x3de86f8cbc9b98e6U, 0xbd407996bda86d38U,
  0x3de83c33bc4e46dcU, 0x3de24041bd9c9b59U, 0x3e2ebfbb3d10a5c3U, 0xbd77ef9e3d8f1ce1U,
  0xbd5bba413bfac992U, 0xbca358ee3cdd833cU, 0x3d50ba6c3d6cfd6cU, 0xbba10b743cd29a25U,
  0xbd299061bd2434c8U, 0xbd170f3fbd1e6519U, 0x3e629fe8bd93f856U, 0xbd160314bd35bb22U,
  0x3d4334ce3d3a674cU, 0xbd0aefe43dc2f4d8U, 0x3e14ff39bd97ca7bU, 0x3d84573b3d9ee719U,
  0x3b05b6643d692a52U, 0x3de126373d6ca0acU, 0xbc8e87463da0a4ddU, 0x3d6e5a0e3d89162dU,
  0x3d8a76363c121e5eU, 0xbd668189bd9fef76U, 0xbd85f0043d9e0ffaU, 0xbd9303ee3d24478eU,
  0xbd550f48bb8bdde0U, 0xbd9a93b63d9a9befU, 0xbd0ce1b23d0f777eU, 0x3da9ff543d3e028eU,
  0xbd5ab906bdb06cc5U, 0x3d609c8f3e0a768fU, 0x3d0d71da3d3a51b1U, 0x3ddbf40dbd50773dU,
  0x3d9d70e23dc4d6b7U, 0x3d32d7943b8101bfU, 0x3db12cda3d9bfaa9U, 0x3c1599c03db0df9bU,
  0xbbac3624bd4eb3b9U, 0x3e194a413d7400a8U, 0x3c863e993c8c61a4U, 0x3dc41f203d64a218U,
  0x3d1550cc3d810755U, 0xbdb454cebdc2e074U, 0xbde8e4203d532d09U, 0xbcff803fbcfdebb4U,
  0x3d3c94783d82c839U, 0x3e2dfd27bd479687U, 0xbcc021003ca3787fU, 0x3de86b703ca94f20U,
  0xbd45f996bde44070U, 0xbe03811a3d130c0bU, 0xbce22c793d85d4a9U, 0xbd988af53da9b9daU,
  0x3d2999e2bdcf7786U, 0x3b6739733da7c4f1U, 0x3a50f928bcf7a50eU, 0x3e024c28bd9ecd11U,
  0x3d98d333bd392ab3U, 0xbd9c7a013da3b43eU, 0x3d8ecb8c3d0b9f77U, 0xba34ce823dc9b299U,
  0xb96ec07e3c5c1c44U, 0xbafcf1d9bd8f3d01U, 0x3c56c701bcf0c201U, 0x3d37d21ebbdc9bf5U,
  0x3c476de5bd2806beU, 0xbdb89e763d0e555cU, 0xbd39e86b3db439a8U, 0xbdb056973c86313cU,
  0x3d6b2e16bd560b10U, 0xbd74447e3d3c2b54U, 0x3c894d12bdddfdadU, 0xbd1023adbcfc5a54U,
  0x3be21630bd6960d1U, 0x3d947d783db70f91U, 0xbdaa69b33c93f1c9U, 0xbd4eb7e73d5b99ceU,
  0x3d50b4923bea7f7bU, 0x3da2203fbdf39de4U, 0xbd800c7dbd252d62U, 0xbc8a28943d924749U,
  0xbd8b1dbf3c0222daU, 0xbcc90970bd1054a5U, 0x3c796f81bc23949eU, 0xbd7674463d2e7ddfU,
  0xbd6c608d3d8dda44U, 0xbd513de4bd50a5f1U, 0x3c948378bd4ca140U, 0xbd0b81e83d00b64eU,
  0xbd4ac4d43ceba4b0U, 0x3b6d97a2bdaf0d6dU, 0xbd9606163da2590fU, 0x3d9f66633d5af20aU,
  0x3d846f813d1d2bceU, 0x3d9bd1b3bccdeb34U, 0x3b25bdaabd65d0c9U, 0xbd453f29bd8bc6deU,
  0xbcc78bfc3bd5d652U, 0xbe3ac96dbdd52a01U, 0x3d920f24bd61ccfbU, 0x3bdcc5b0bdc1e4f9U,
  0xbd776ace3ddb9815U, 0x3cbc4b2abda5faa0U, 0x3d1e059d3d82d188U, 0xbd9c05fdbcbfe960U,
  0x3d1fa4c23d0285cfU, 0xbdb21ebabd4822aeU, 0x3c6d115d3dc3bb78U, 0x3caf23d7bcdb3290U,
  0xbcca3f253da688cdU, 0xbcc46acdbc952628U, 0x3cea4fb53c54cb93U, 0xbb378afa3bc264e0U,
  0xbd1364eabd4ecd7aU, 0xbda85e3cbdd062ceU, 0xbc2195a0bd244142U, 0xbcf937f7bd73dce6U,
  0x3db97e5a3d58abd6U, 0x3d0b409c3d9ae785U, 0xbc13a4633d7064a5U, 0xbdb0e286bcfd7392U,
  0x3da614ad3b1f37b1U, 0x3bfc3da53d60b528U, 0xbcd44905bdaac021U, 0xbccb537e3d61e186U,
  0xbd5811c6bd863670U, 0x3c8df0f63e56f261U, 0xbcfeca8abd1865b3U, 0x3c370e383cf1e7fcU,
  0xbd3112ad3c3c7c08U, 0x3ce0e4973c55e459U, 0x3d30cd333d8b3ce7U, 0x3d8b27b3bd2d2c9fU,
  0xbd218ac9bc6f336bU, 0xbe0d6dd73db5b3eeU, 0x3cbce3aebd65b162U, 0xbd9845eebd437118U,
  0xbc665790bd5be588U, 0xbdb1b29c3cb2cca8U, 0x3e10d9be3e09786bU, 0x3c1e26f0babd0975U,
  0x3da628bd3dac6b3fU, 0x3d9473d3bc6657d1U, 0x3d0f78f13cd8c919U, 0xbb33ad00bdaf3cafU,
  0x3d8c61913dbea599U, 0x3d4687163d483e17U, 0xbdb4ba00bc8f0365U, 0x3d0b9a4a3d9ede25U,
  0x3d8a664dbd9515e9U, 0x3cd731723c85060aU, 0x3d3fa1583c97b7dfU, 0xbcae8a483cb31ccdU,
  0x3db13e55bdb62b4fU, 0xbc8b3942bd3af082U, 0x3db27fe13d885ccfU, 0xbb7a868fbd4db876U,
  0xbd6ee024bd736fdaU, 0xbd0feb853e05618dU, 0x3d776f19bd99266eU, 0x3d73a4913cde8750U,
  0x3e5afd4a3cfb6781U, 0xbcfe33323dc9d19cU, 0x3dc7edd2bd6c301dU, 0xbb8873503d7af914U,
  0xbd4f11a53d762efeU, 0xbd4aa66ebd6c8b74U, 0x3d0032e4bd120a84U, 0xbd9ca22fbd8460b6U,
  0x3d9d5fa3bdacaf2fU, 0xbe0a8f273dc9d0b9U, 0xbd88e73a3cc7bd35U, 0x3d8c6a713d965815U,
  0xbd5e13483c33dfb2U, 0x3de0d3b63d6b8359U, 0x3bcb31a0bd9cebd8U, 0xbadd85ddbc2f3458U,
  0xbd9c7b1a3d7ab628U, 0x3d9dfa41babe3cf8U, 0xbd0b6d6d3d7a97eeU, 0xbc46473abdb29568U,
  0x3bdcce9a3d29afbcU, 0xbdaea021bda423faU, 0xbd6373653d2dbde4U, 0x3dba480c3d8ffd92U,
  0xbd6abaeebd5a824dU, 0xbd10cd54bd9970c0U, 0xbd99766d3c049ecfU, 0xbd298d3e3d21f269U,
  0xbc5115463d511997U, 0x3cf1188ebd88e592U, 0x3c4722f33d60ba0eU, 0x3d1aa6a6bd78f37cU,
  0xbc49b3163cb6cae8U, 0x3c41178bbd36cd64U, 0xbdc67ab93da19470U, 0xbcfbab2c3d548c0aU,
  0xbc8688acbb6f8110U, 0xbda7abc4bdd40a41U, 0xbc0e8ceabd22203fU, 0xbd8a4fb33d8f461bU,
  0xbd3e4da8bcea1c22U, 0xbd4076d1bd3179d4U, 0x3d8eb9333da7a2efU, 0x3c2a3b783ba21265U,
  0xbcabde9c3c78fdaeU, 0x3d99bb1dbce8efe3U, 0x3d8212933d59cfdfU, 0x3c78c1603d25d6e4U,
  0xbc713caa3cd17166U, 0x3d88637fbdb41409U, 0x3d3129a5bca148daU, 0x3d00f1a8bd0481e1U,
  0xbcdb1a883d65ef5dU, 0xbd916d21bd34eaf8U, 0xbd98435fbd9bfb9dU, 0xbd46ed223d309ce9U,
  0x3d2c5340bd59286aU, 0x3da5f47ebc03724eU, 0xbd846996bd6189adU, 0x3c4fc4d0bd08b7d4U,
  0x3ccab1fc38760000U, 0x3c0ea9303cf7746bU, 0xbd989cc9bd471a09U, 0x3d96393dbd44dd7aU,
  0xbc738b03bda3e43eU, 0x3cf2368e3d5bb0e3U, 0xbd5a2e14bd94e075U, 0x3d9683a93dbb721bU,
  0x3dab52bbbe2ac5acU, 0x3c8ff3073c0dc495U, 0xbc4dbbe63d574cccU, 0x3b2fe80f3d794672U,
  0x3d2898523da4e0feU, 0xbb3d814c3d18f283U, 0xbbb8a7a5bda629c3U, 0xbdae24b53d13129bU,
  0xbd967f253c3461a9U, 0x3d1e1da23d073540U, 0x3da206313d53487cU, 0xbdb7a0bfbca6f528U,
  0x3d939d6fbc89253cU, 0x3cb8fcc8bb4401bdU, 0xbc4bd9c0bd076082U, 0xbd35c558bde43aedU,
  0xbd7e31fd3bbfd74cU, 0x3d28d3dd3da4e75fU, 0xbd39e66dbde2a71cU, 0x3d2927203d2bdef6U,
  0xbcc97d5b3c92c6b9U, 0xbd08ac283b5a3d7cU, 0xbd061a883d80bd3aU, 0x3d3079f7bdbcad9fU,
  0xbdad51393dae9931U, 0xbcd44567be3e5975U, 0x3d513a983dc0e59bU, 0x3c0e4d70b930e147U,
  0xbc86016a3c3e67f5U, 0x3d71813b3cdd2439U, 0x3dbeaa7e3c8f886cU, 0xbd89a60f3cf7f024U,
  0xbc287fe1bdac29a4U, 0xbdb9ef3ebca47eb5U, 0x3b4237693cff7150U, 0x3df1a3993d28d1edU,
  0x3d44bbc23d32256aU, 0x3cdc3611bdbc5c7fU, 0xbdaf8a173cb55437U, 0x3c45e1c0bdb0629cU,
  0xbd9811de3d529cecU, 0x3c8ec655bd639104U, 0x3dacf88d3c87857aU, 0xbbe67dc0bcb03ac8U,
  0xbc88e852bca00f45U, 0xbe16698c3cb7ae4aU, 0xbd54126a3dad6051U, 0x3d21042abd964a22U,
  0x3c722ce7bd481a16U, 0x3d42caf9bd6e1141U, 0xbd91512fbc232740U, 0x3d9cfbb73da219a1U,
  0x3d7e5f4d3db1254aU, 0xbdb07b6cbd2c2a5aU, 0xbce7e2d33d936d0bU, 0x3d9a84053dae811dU,
  0x3d4c953e3bc3f380U, 0xbd410d443cd3717aU, 0xbd79542f3a9f3281U, 0x3cb134eb3da77849U,
  0xbe2bb742bb8983e9U, 0x3a92c5113ba8d7e6U, 0xbd6c63df3d64911dU, 0x3d8e2185bd14b4d9U,
  0xbd2c9cd2bdf189a0U, 0x3d7fdc153d70a120U, 0x3d8e16f63d9a1073U, 0x3c8543e7bc9edc7cU,
  0x3bcc8e003d516c4aU, 0xbd7737c1be4332b1U, 0x3dec56e33cacb94cU, 0x3d198f77bd8b47a0U,
  0x3cd9304dbda26757U, 0xbd512a20bd6a0664U, 0x3b25a92e3d77086bU, 0xbd8f5dae3d9ade75U,
  0x3c2ad7083dc2f577U, 0xbcf710a6bd095d98U, 0x3c9b1a9c3d8dd1c5U, 0xbdce542dbd6ef9e2U,
  0x3d8fb8f7bdb603f1U, 0x3d983ce13c636e8fU, 0x3ddeecbabdf1979eU, 0xbdb06c21bc79cdedU,
  0x3d96d445bc320960U, 0x3dc68216bd2ced11U, 0x3cce4f12bd380f03U, 0x3d6211c4bd9d39d1U,
  0x3da2f85ebcd6ecc3U, 0xbcfa2486bd9f7a79U, 0x3d9df46abd9f3c65U, 0x38b2d0003da163fcU,
  0x3d9d33403cd15280U, 0xbd4b43173d8fb53bU, 0x3d8ccf613d636c09U, 0x3c9dfa543d67b37eU,
  0x3c8115f8bd98435bU, 0x3d7b5830bda55923U, 0x3ca3311fbcbff791U, 0xbd7bed3ebd89fde7U,
  0xbb4aafe0bd48d49fU, 0xbd7c0a77bd948922U, 0xbd8ab5503ad57ae6U, 0x3cfaf6d0bdaeea16U,
  0xbd25c51dbc87fb5bU, 0x3d93a1993d99a25cU, 0xbc428677bd447d70U, 0xbd672da8bc9506b2U,
  0xbdaa3577bda296f6U, 0x3d739f71bda27acaU, 0x3a7964d53d7893c6U, 0xbaf6bcc0bd86d9e8U,
  0x3c97ce1b3cfbbb82U, 0x3d256d503d8af3eaU, 0xbce2d24dbd83ce1fU, 0x3d9274f1bd0e09e9U,
  0x3c66c1a0bca4cb89U, 0xbd3ad9933d31e881U, 0x3c7ebd3f3dadb511U, 0xbcc5d580bdafec96U,
  0xbd26997dbd3de948U, 0x3d3d3682bd3eaf08U, 0xbd9906e13b473fa0U, 0x3cc10b55bcfdac94U,
  0xbc9ee9aebc3b24e8U, 0xbd417beebd95ba78U, 0xbd9c72ed3daa72d1U, 0x3d7abf3a3d00f7a3U,
  0xbdac1ce3bd6ee7c1U, 0x3c7d2207bc6fae2aU, 0xbdaed2d53d6afdf1U, 0x3d81ddeb3c34f4e8U,
  0x3d397a663d8fafb5U, 0xb9bdc9dabd9aeb32U, 0xbd085284bdb42f49U, 0x3c0ef8d83b63ecd2U,
  0x3d3b56a5bc7df69eU, 0x3d7029e4bd0fc762U, 0x3ce89f64ba1e0965U, 0xbd304391bdae60f7U,
  0xbc85d6463c95cb48U, 0x3d6017a6bd775f61U, 0xbd023769bc1eb53bU, 0xbd98bc4d3bd88640U,
  0xbd946ee13cd64890U, 0xbc049d5fbccaa7d6U, 0x3ba106e4bda4c25dU, 0xbd811982bd43459aU,
  0xbcbed6c43d1f63b3U, 0x3d8576a73d3a5881U, 0x3c218615bccba894U, 0x3d1028783d439bb0U,
  0xbc2c8b48bbb73ad0U, 0xbd1e8941bd5da52dU, 0xbcd557283d100368U, 0xbd33239c3d0c9318U,
  0xbb656c203d7a7d96U, 0xbd621220bce278ecU, 0x3c0fdba8bcebec76U, 0xbd83441b3cf855a8U,
  0x3d3f4aa23d720d5aU, 0x3d9c0d233d17fbdeU, 0xbda79384bc89a770U, 0x3cbad5203c3af2b8U,
  0xbcf889d23d76ab36U, 0xbd8ad954bd662d5aU, 0x3d993dcfbc2c0070U, 0xbd87b9b0bd4ac47aU,
  0xbdab2d72bdaeb9c7U, 0xbda61320bc286b50U, 0x3c28a0f83d9ae461U, 0x3d95b557bd83b90eU,
  0xbcbcd5ccbdae5041U, 0x3da09375bd9d7accU, 0xbdae97873d9d7a67U, 0xbcd63756bd7a05f8U,
  0x3dad9829bd63e660U, 0x3d48634ebdb30b37U, 0xbd29a59dbdac4534U, 0xbd5b7e573d78e216U,
  0x3c17b3883d87f149U, 0x3ce2a3ccbcb39600U, 0x3d9bb651bceeabdcU, 0xbda756083c4f1dc8U,
  0x3d1396823babedf0U, 0x3d8a2cf1bd1903baU, 0xbd95eaa83db30057U, 0xbd2d89823d646516U,
  0x3d91c7a53d8ca6bfU, 0xbc98ad3c3d79eef6U, 0x3d2d79b2bc8afa14U, 0xbcdd809ebd375efcU,
  0x3d72b756bb929040U, 0xbcade4143d2e417eU, 0xbdb2a3a6bc9fd330U, 0xbd87f002bd261cafU,
  0xbc4536f03d829b33U, 0x3d4cc4f23da0ca11U, 0xbd1d6cf1bda8b860U, 0xbd1b273dbd247dd5U,
  0x3d758c6ebd82cb50U, 0x3d831f633d8de007U, 0x3d98541fbd80ce7eU, 0x3d45cb26bdb4519cU,
  0xbd1dd215bd5a686aU, 0x3ce455e8bd58f668U, 0x3dacea873d7a2cd2U, 0xbc4025203cbd2cc0U,
  0xbcdcd9143d45de76U, 0xbd0422993cf72e9cU, 0xbd2550543cbc2b88U, 0xbd1468bfbccca4c4U,
  0x3d49ccdabd4d6a48U, 0xbd18452f3d61d4daU, 0x3d2dd0d23ca03a14U, 0x3d00e5b43d0cb852U,
  0xbca41b383cf969f5U, 0xbc56e7af3d6769c2U, 0xbda80e3b3d7464c0U, 0x3d7833d2bd809361U,
  0xbd3b329b3cd1b854U, 0x3bdf2e623c4bac54U, 0xbca04745bcb165deU, 0x3cf5b190bd4956deU,
  0xbd4091dfbbb39761U, 0xbd4b5021bdb43957U, 0xbd3ce056bc8c3c5bU, 0x3d9e9df3bd58df97U,
  0x3d94f6d73d7019b4U, 0xbd3663733c194eacU, 0xbdb334a33d65a46eU, 0xbd642b2c3d3ce98eU,
  0xbc9205ccbd4f394eU, 0xbd7e293fbd3c34c6U, 0x3d774177bd8cea88U, 0x3cbcf6e43cea4083U,
  0x3d2aa83c3d63e3f3U, 0xbcc341283daf63bfU, 0xbd9cb94d3b48d21eU, 0xbd227b863d4b0fccU,
  0xbd4b7b383d52ec23U, 0x3d78f717bab07ddaU, 0xbbd187d53b3ef6d3U, 0xbd8dbff53d2fc631U,
  0xbd5b130abd841e89U, 0xbd0d40d8bda5b423U, 0x3d8f3af13d54a8feU, 0x3ce35902bc915a80U,
  0xbd5d8158bd291029U, 0x3cb7c9183d9789e5U, 0x3b70edf7bd823f18U, 0xbd90899c3d3f8b22U,
  0x3da48c77bc8f3422U, 0x3c88fa843cd4b830U, 0xbd46a14dbd88b567U, 0xbc1c11583d27fe7eU,
  0xbda7ad07bd482325U, 0xbd258fd13d1db454U, 0xbdb38fe1bd41ce75U, 0xbcae290a3c2348a8U,
  0xbce78616bdb343cdU, 0xbd895e343d89ad23U, 0xbd5d8f2abdaaeb66U, 0x3c40c739bd3749fdU,
  0xbdb40c9ebc9d3da1U, 0xbbb423fa3d51c44aU, 0xbc5ddbd8bda9f595U, 0x3d302eec3d822a7bU,
  0x3d12ff6b3d8404c6U, 0x3d12c8163cc84d30U, 0xbd42f0dbbd8739b2U, 0xbda05e94bda43ffdU,
  0x3d6a3b623cf5fdc4U, 0x3c893d20bd9ab473U, 0x3d07eda5bd9bc0b9U, 0xbd93bbb7b9ba5cf6U,
  0x3d1462483d686c1dU, 0xbcf5068a3d478dcaU, 0x3d967eac3d9b0055U, 0xbdb0076cbccdbc12U,
  0x3d978a333d07b2ceU, 0x3c0a12d83d52728aU, 0x3c914434bd31da6bU, 0x3d0da844bd826604U,
  0xbc90e39cbcfc292cU, 0x3c7cfb80bd7c3668U, 0xbc9716e0bd549d25U, 0x3d3c4e6a3cc9d680U,
  0x3d95347fbd14095dU, 0x3d2ffdbabcbbb180U, 0xbd8ed1f8bc907488U, 0x3cf4450c3caf4078U,
  0x3d1e0a8ebd5eafb9U, 0x3c8e08bcbd78ce8eU, 0x3be460d03c40d468U, 0x3cbad400bd6169ecU,
  0x3d3c184abd0c1072U, 0x3c54b3303ca9bdc0U, 0xbbd85e103d078a1aU, 0x3b716160bc99e7ecU,
  0xbdb3ca75bd002137U, 0x3cf39c8cbcd4d29aU, 0xbd79c4053c198160U, 0x3da90fe5bd01a800U,
  0xbd9b8a78bd16ce3dU, 0x3d4238063d9e6841U, 0xbd1023fbbd90d1efU, 0x3d7c028abd601653U,
  0xbda490fbbb3b2f00U, 0xbd9a3cf8bd1294cfU, 0xbbd8a8803cac449cU, 0xbd35838b3c2179e0U,
  0x3d0e6b923d9a5cb1U, 0x3d40a1763d2373f2U, 0xbc164fc8bd3049eeU, 0x3ade2b80bd84045eU,
  0xbcd3326c3d14dd14U, 0x3d56b3aa3d1bd802U, 0xbccf06d83d8080a7U, 0xbd9f80683dade405U,
  0xbc41dfa8bda7e73aU, 0xbda34bf03d2b24deU, 0x3bd9a5a0bd1b514cU, 0x3cba4360bcf8b79cU,
  0xbd9cca8cbd3917b0U, 0x3c9428243d56b816U, 0x3d87e4dfbd01665fU, 0xbb7ebe603d93bb77U,
  0x3c5e5830bd04c14fU, 0xbd4aa9b23db498f5U, 0x3c5540b8bd371307U, 0xbd0428af3d690536U,
  0x3cee99403c8ceb44U, 0xbce7fc7c3c7c9520U, 0x3da4377dbcd8a3a0U, 0xbcc27950bd3e8f3bU,
  0x3d29b69a3d6cd65eU, 0xbd24a19ebc9924ecU, 0x3d8b4fbbbc8e17fcU, 0xbaa658c0bd5b4c69U,
  0xbcdfc9383ccde47cU, 0xbd901b46bd0103b3U, 0x3cae5764bcf1ce0cU, 0xbd51b693bd0ac5e2U,
  0x3cf2d343bd62aa71U, 0x3d8d894ebe57a929U, 0x3d8d08f4bca75ca7U, 0x3c0a8128bdf971a4U,
  0x3dc828af3d68bb13U, 0xbd33c13b3c84b67aU, 0x3d8403edbd90a9e9U, 0xbd8054923db0d38fU,
  0x3d52e686be7add40U, 0xbb134bafbdd765ffU, 0x3d72d86f3d9de724U, 0x3b0378323dc8b1bfU,
  0xbd059e473ce4cf7aU, 0xbc7a93c2bea4ee84U, 0x3d18aebebe917092U, 0xbd25e1c83cc91fcfU,
  0x3d6862fabd8e8426U, 0x3ca14fc03d5abb96U, 0x3d4fbe1d3a1bab08U, 0x3d1e0ad2bd2a41a0U,
  0x3ddcfc6cbd1dc54cU, 0xbcb9dbdc3cc5f53eU, 0x3c1fd5913d98ee94U, 0x3d746d8abd1a5285U,
  0xbd65c8913d77f13dU, 0x3db991453d83a83fU, 0xbd48d824bca33e89U, 0x3d734802bd88849cU,
  0x3bbecd933a9f3712U, 0xbdbaab1d3c8b3709U, 0xbd4b3407bd23e4e6U, 0x3d06006d3d27a72aU,
  0x3d989e69bcd7939cU, 0x3d9f554e3c52fa53U, 0x3d9e6fce3d83d357U, 0x3c363376bba3d850U,
  0xbe519511bcdeef8aU, 0x3cd6cc05bddaa835U, 0xbd95ca393d11b527U, 0x3d9f71693db30808U,
  0x3d3d02453b102280U, 0x3d12bb2c3d9df802U, 0xbd0de722bd7173b9U, 0x3d903d823ccd0648U,
  0xbc5e2e703d7c86beU, 0xbc08a860bdc2e6ccU, 0x3d8be10b3c9d6573U, 0xbd50177b3da8310fU,
  0x3dcfa3733dc5a2f6U, 0x3d1c0c6dbd4cdfd4U, 0xbc7a6f9cbd886b93U, 0x3d6d9cd13c8cbd78U,
  0xbc6a9a5d3d8ab3e4U, 0xbd49b9ba3c2c1845U, 0x3a4235803dc620ebU, 0xbd305741bdc67888U,
  0xbd6b1682bda17749U, 0xbb671927bd413d8fU, 0xbcb228b4bde7619fU, 0xbd480c0d3c6948d0U,
  0x3cb74f77bce63b34U, 0xbd8a0c37bd5670b4U, 0xbbc670b33d9fb900U, 0x3cdecd90bd9c147eU,
  0xbbb5ca553cd50863U, 0xbd0c54693c66e9daU, 0xbd9d7aeb3c03699cU, 0x3c9667943d62bbfeU,
  0xbc9cae54bcae794fU, 0x3cb2f2acbda532e1U, 0xbd35b83c3cb76d56U, 0xbd490735bae01d80U,
  0x3c8d2eec3d9a91d1U, 0xbda6b7353d64dd02U, 0xbd03ee2d3d719652U, 0xbb809e503c16276aU,
  0x3d14fd4c3da60934U, 0x3d7639b5bcc45a9bU, 0xbd67fb31bdb8d763U, 0xbd331169bd7a992cU,
  0x3ce8e554bdae5681U, 0xbc1f4358bcb5c4f2U, 0xbd88f501bd9f00f3U, 0xba81ab40bdb79ab5U,
  0xbd96cf83bd7b4837U, 0x3d21cefebd9faa19U, 0xbd1c5b18bbb27100U, 0xbd1296283c84ed83U,
  0x3d5d3c2abc13d17cU, 0x3c7d0cc0bd9e9ebcU, 0xbdb9e4ce3d8e16aaU, 0x3d8de391bbdcbb1eU,
  0x3d7e5e6a3d487289U, 0xbd6ad8e2bd401f83U, 0xbd11504e3cc6a4dcU, 0x3d8cc1d7bd06ede1U,
  0x3bad9620bcc207d8U, 0xbd2cf4523c722870U, 0xbbc693e03d89ccafU, 0xbda8e97abdaad603U,
  0x3d984c93bd0e281dU, 0xbdaf0145bd8affbdU, 0x3d673c7a3d2bbab2U, 0xbc981c04bbc0fbb0U,
  0x3d5dbc72bb0b9b90U, 0x3bec21b03d566035U, 0x3d0ece033d147bb2U, 0x3d9a7a1abc834700U,
  0xbd8a6600bd570078U, 0xbd8d3da63d1a0976U, 0x3cbd99c83ced0d24U, 0x3d447c58bd86db6cU,
  0x3c8819a03d50ee6aU, 0xbd8e9c7bbcb2c1f0U, 0xbb793140bdbaf371U, 0xbdb272233a7bb080U,
  0x3d1b9546bd1f553dU, 0xbdb813a2bd7e42e8U, 0xbd1e52cc3d712bffU, 0xbd25f6ea3ab9de19U,
  0x3c1f18f0bd14864dU, 0x3d4d1ecfbb4fd480U, 0xbc50990b3d1f35cdU, 0xbd8f589f3d58a2abU,
  0xbd47cf523d3f2563U, 0xbd9bf13cbc9fbf01U, 0x3db2d52fbd45c9c7U, 0xbcdd676b3d09e0c0U,
  0x3d624b813d88937bU, 0x3d2a1ff0bd8173aeU, 0x3c8ea3a63dcb002eU, 0x3cb1a04cbe15aa79U,
  0x3d914caa3d380e96U, 0xbda3e8593d9ff14bU, 0xbd400d97bd930cdaU, 0xbd28caa2bbd9fe30U,
  0xbd97ddd0bd869102U, 0xbd20ac14bdb58594U, 0x3db3ccc73cc28f03U, 0x3dcdbe40bbc7c056U,
  0xbc7235903cf82857U, 0x3cd95b0bbd9fd690U, 0xbe5ef3bb3d3967dbU, 0x3db4ddabbbfdca3dU,
  0xbda83e1fbda4c445U, 0x3d7d3219bc2da5dcU, 0xbd8076fb3d93b833U, 0x3d83bb4b3cc0be47U,
  0xbd34b1ed3c672401U, 0xbe3c84bbbc38d3fcU, 0x3cef2005bbcccda7U, 0x3d90223f3dc71ca6U,
  0x3d1313983df2ac8eU, 0x3d934136bcf5bff9U, 0xbdd0406c3dbf9d7dU, 0x3bdd75103daecd91U,
  0x3bb77a2e3aa47977U, 0x3b62d39f3dea60cdU, 0xbce481e0bd8aefbfU, 0xbcaa32403da72677U,
  0x3c0a0788bda51124U, 0xbd893ec2bdcc67edU, 0xbd6c7ea93c9cf962U, 0xbd8e71a23d67463eU,
  0xbe5b9d4fbd153b5aU, 0xbd876d69bd8d1f92U, 0x3c6c3b0cbcc9e713U, 0x3d8fbd91bd792216U,
  0xbd67784f3cc27343U, 0xbd0557c73b1930b3U, 0xbd432d833cb082faU, 0x3c8c93bbbd158c8fU,
  0xbd8e0b0b3c4e8be2U, 0x3dd8570ebd9d811cU, 0xbc6f23cebd2a49bdU, 0x3d2117d73d83c437U,
  0x3c9967d63cd3c45eU, 0xbdd0c3a93d4d74ceU, 0xbdaa4ce2bcfb3a54U, 0xbe2572233c7ff378U,
  0xbd6e1c113d213403U, 0xbd2e5af7bd863aeeU, 0xbd03fe703de5f8dbU, 0x3db4eadcbc99409dU,
  0x3cd3e7e9bd3c8713U, 0x3ce6a267bd9b18a3U, 0x3bd8ad4dbb25983aU, 0xbd6e25c93b94d1f5U,
  0x3d1f5ad2bd82bc61U, 0x3d5711ae3d513339U, 0x3d0f32efbd2defabU, 0xbca8a4543d8104f2U,
  0xbe66cdd7bdb8e320U, 0xbda42c343df41f2cU, 0x3d20ee6bbd585459U, 0xbcfe16dc3df8b275U,
  0x3d79cc513d9a0d0cU, 0x3d646dd5bdbb9440U, 0x3cb7c86e3c026dd4U, 0x3d5640c63da05659U,
  0x3c8402e83dc773deU, 0xbded423a3d98cc66U, 0xbd221f4abd3cb14fU, 0xbced4338be37cc4cU,
  0xbb9e8ab03c1f2360U, 0xbdac41573d8d97f9U, 0x3e1060d63daf467bU, 0x3ceafa683dbc0536U,
  0xbd6f87ec3ce3e14cU, 0xbcec90503cb4bfffU, 0x3dd5e6463ca78239U, 0x3d5778f2bcd18c94U,
  0x3cabf60f3d4fbfd2U, 0x3e1154523cf0f9baU, 0xbddbd174bd8a35faU, 0xbbda0760bd605133U,
  0x3db255e7bdba1b6aU, 0x3d0d5aa2bd6dc7a2U, 0xbdda71823d210b1cU, 0xbca3c430baee75a0U,
  0x3d8dc0b5bd066a18U, 0xbe15b44f3bb232c6U, 0xbc9fce9ebd3ce94fU, 0xbd49932dbc825150U,
  0xbd4932443d8a73dbU, 0xbd68ef3c3dea76c4U, 0xbd57697f3d231d1aU, 0x3b70f57a3d6bd876U,
  0x3dd13cb83d5c7111U, 0x3d952dfa3d8ca0c3U, 0x3c0a57893cfb03c2U, 0x3d27cbf23dad83c3U,
  0xbd4a0fd23df8cea2U, 0x3dbce97cbdacbd65U, 0xbe5252a23d395826U, 0xbd9fee1f37b83000U,
  0x3dafb703bccc45e0U, 0xbd0598873e454780U, 0x3c3d1a863d81b0ebU, 0x3ca94313bc2356d3U,
  0x3c1ebad63d6ed0ecU, 0x3dd190ae3b910a5bU, 0x3cb82fd43cada733U, 0x3dd76341bd6ec3dbU,
  0xbb60f40fbde6c85aU, 0x3d16635b3d7b81a3U, 0xbd9db89f3d6288ebU, 0x3dc8c9aabaeccc75U,
  0xbd719cd73d07841dU, 0xbc514e343d8af965U, 0x3bc1a73cbc10333dU, 0x3dbddc59bdb2fe22U,
  0xbd9c46ea3daedf36U, 0xbd7589803d3548bfU, 0xbd44531fbe6657a0U, 0xbc89a65cbc9736c8U,
  0xbb930880bdb4e942U, 0x3cb2c09cbda8e329U, 0x3cb775ac3d874853U, 0x3cd7dd04bdad38a5U,
  0xbd79eea5bd50bd79U, 0x3ca07b483c256f88U, 0x3a93ce003d8f9fc3U, 0x3b3f4a003da255cdU,
  0xbca6fda0bbe2bb80U, 0x3aa17dc0ba9b3b80U, 0x3b887750bd90a6a7U, 0xb9fce800bd50871aU,
  0x3d4d5576bdb29a37U, 0xbd57935a3c85c004U, 0xbd37ceddbd06f038U, 0x3d22482e3d7f982aU,
  0x3d71f2dabd64b980U, 0xbad9af00bd6aa0beU, 0xbd9df0113cfd1230U, 0xba8a81c0bd7a1712U,
  0xbcee65863d9c079bU, 0xbd9c73c13c231680U, 0xbd89bbe13da242efU, 0x3ce22c503bac9d20U,
  0xbca2485cbd032d21U, 0x3d9238653c3637a0U, 0x3c88e940bd10976dU, 0x3dac45173c2b56d8U,
  0x3d95826dbcae9c3cU, 0xbb6ecb80bb8799a0U, 0xbda0fb82bd3ecd91U, 0xbd2a9c70bda6eac3U,
  0x3d77995e3d087f2aU, 0xbda76b02bd6ac936U, 0x3da8be7fbdb33c79U, 0x3db2e967bd9e6b1aU,
  0xbd7106c2bd2e65b7U, 0xbd1cd619bd89494aU, 0xbd03ad3d3c2c0bb0U, 0x3d8d27df3db1d3f5U,
  0x3d133378bd88b0e6U, 0x3d3c728ebd91c6deU, 0xbcbfdc043d766912U, 0xbd922152bd24b9cbU,
  0x3da71f23bd90c836U, 0xbc61c0b83c8700dcU, 0xbb58cf20bd265461U, 0x3d047bf23d77f61aU,
  0x3c2897003d6defdeU, 0xbd0226133a90e340U, 0xbbe33ec03da3000bU, 0xbd8be1313d5e4b3aU,
  0x3d7ac37a3ca32450U, 0xbd0bbb54bcebf5b4U, 0xbc22add8bd0a9a0eU, 0xbd596044bd05c652U,
  0xbd3db93e3d69c062U, 0xbd39ad193c8a6c08U, 0xbbab35c03cf07e2cU, 0x3c03ef50bd0b603bU,
  0x3dad0ad13d5a3952U, 0xbc0792f83a6d0180U, 0x3cd5b0c4bd7504a2U, 0x3d5fa0ee3daa82e9U,
  0xbd86d4c2bcbf5845U, 0xbcd3787e3d6a6244U, 0x3d6480923c34f426U, 0xbd394a673d3f49c6U,
  0xbcdf92d63d698d3eU, 0x3dc7e7813d058bf5U, 0xbce348a23d8a612dU, 0x3d0ca668bd1181deU,
  0xbda21a6b3cca2366U, 0xbdf188bd3cacdf93U, 0x3c2ae10bbd82b52bU, 0xbdc812fabd95df84U,
  0xbd3031e03c93fb69U, 0xbd5caafa3d0d4ecfU, 0x3cb70e523dc0c76fU, 0x3be05f80bcd6d83bU,
  0x3d9f431fbc4275a1U, 0xbd3f1a223cfce979U, 0xbd516bd43c980647U, 0x3c1718f0bd88c82cU,
  0xbd81ae503dab3f00U, 0x3e1a2dffbd2280efU, 0x3d3ec2d83d884917U, 0xbd446729bd760186U,
  0x3c40c913bd1dac17U, 0x3aa0e26d3d6c4682U, 0xbd6f080ebced0f08U, 0xbc7811203dd06dd6U,
  0x3d4eedbcbc88484eU, 0x3ce051ad3defda0eU, 0xbd6e2c3f3d0aca5eU, 0xbcfc40283cfb4920U,
  0xbdb1a6813cfd13f4U, 0xbce80365bcd91909U, 0xbd817cfb3cf8eb15U, 0x3d43b3dcbd10e4dbU,
  0x3e07c7c33da9ef84U, 0x3d5ca5483dc2c4abU, 0x3dc7d7a33da222eeU, 0xbbf819a03db23f90U,
  0xbd59e7923cda0dc7U, 0xbc410100bb3ce8cdU, 0xbd3f80043d88ed6dU, 0x3dbf83063c32d150U,
  0x3b1f3ee03da98345U, 0xbd9351793cfad99eU, 0xbcaab0743d079b4fU, 0x3db857493dbcd491U,
  0x3d250fdc3d7030cfU, 0x3e0ec9dcbd5d3ff6U, 0x3dafced93cf35040U, 0x3d8fdc79bb3bc4c0U,
  0x3d27f07e3d4a487dU, 0xbd2e88713c2acadeU, 0x3d6c10423d905dbdU, 0xbb64f4723d2dfab9U,
  0x3dda3742bd406cbeU, 0x3d1bf342bd23121cU, 0xbd44c0973df6dfe9U, 0x3a3bf7dabdb9dc91U,
  0xbd24b4c23baebcd4U, 0xbd9574acbdfb54feU, 0x3d059675bdff51e2U, 0x3c85f4dcbcf1f560U,
  0x3c3da4843da2a31aU, 0xbd408a61be3465beU, 0xbc34dcd13d38ae53U, 0xbd7b66d3beb73804U,
  0x3d3efc55bc96196dU, 0xbd86d9abbd5fe7d8U, 0xbd16d6c43cc90a66U, 0x3d4847aa3c741ea0U,
  0xbc879348bd9751a2U, 0xbddb4770bd59a72eU, 0x3dd9f3b4bb5b29beU, 0x3d9d1c8a3e290b7fU,
  0x3c8ce3b43d8f2d54U, 0x3cdacc43be6853f5U, 0xbddf62eebe9ae983U, 0xbdaf8da1bbdcb39aU,
  0xbcdb6a88bd6ac9cdU, 0xbc96235c3c9a915dU, 0xbc9f50733d168c9bU, 0xb95d0a003d365494U,
  0xbcd149e3bc2ae86bU, 0x3b845801bce45471U, 0xbd0fa8593d1d114cU, 0xbcb38abcbbe00c22U,
  0xbdb810003d4fae09U, 0xbdaf5d543da5869dU, 0xbe4dd8403dca4d03U, 0xbcf7b4ac3db09923U,
  0xbda80b01bd681cbbU, 0xbdc4b2633bf6bd87U, 0xbdc763d0bc253290U, 0xbd19d3b6bcaedc10U,
  0xbd0da27bbd4a55a9U, 0xbce995a63d9de00cU, 0xbd3cc001bcab0cfcU, 0xbd3ffa08bc3a4ea8U,
  0xbe41c9303cfacca9U, 0xbbf87677be0e581cU, 0xbb892f95bdaea876U, 0x3ca461e4bdbea3bfU,
  0xbe5a5806be56dc6aU, 0x3da7cc95bd52b0ddU, 0x3c96ae3bbdae648dU, 0xbc50633dbc5538f8U,
  0xbb7140003db61401U, 0x3de87c94bdc7c0bcU, 0x3d21f9cabd0f869aU, 0xbdbc37d9bd2bf02dU,
  0x3da4d5ecbdda899aU, 0xbc13efecbc0325cdU, 0xbb8e21f03cdae620U, 0x3c72b21b3cb41b58U,
  0xbc59c7363da66f9eU, 0x3c35fdcebca46f55U, 0xbd143e90bcb871a7U, 0x3d8eefcbbe16980eU,
  0x3cabbfa3bbc8432dU, 0x3d90b8d9bd7b3631U, 0x3d8f1234be886ba0U, 0xbcaabe2fbc9264dbU,
  0x3c7996cd3dc29babU, 0xbc42d9c6bd1180daU, 0xbcbfd0243c97de77U, 0x3d9adeb3be44abe4U,
  0xbd53a425bb5bbe4cU, 0xbd5b451cbd659e0dU, 0xbd953db1bd7a9e09U, 0xbc083bc03cd7ecccU,
  0xbc875fc83d033a63U, 0x3c6fbcc5bd423f51U, 0xbc3217f0bc6911d8U, 0x3dae2bbf3db0491dU,
  0xbd6e831cbc90dc4fU, 0xbd3b39d73c0241e8U, 0xbd41de0dbc3f0b2dU, 0x3da58ae63d7ccc89U,
  0xbc96c864bd0e0245U, 0xbd4f942abd52ed3fU, 0xbdaa86a23cfba00eU, 0x3d96f605bb2addc9U,
  0x3cf218d43bc90a37U, 0xbd2e53dabc1771d2U, 0x3d807101bc88545fU, 0xbd5b83dabc5330daU,
  0xbd9c6034bdac70d2U, 0x3dae35193da7371bU, 0x3cce72cb3cb83a5fU, 0x3cfdb5443d7f80e7U,
  0xbc58cb443be3a854U, 0xbb9a6cc5bd38c5fdU, 0x3d4783dfbd587164U, 0xbda6bc733d89ebe5U,
  0xbb5be2803d92d5c5U, 0x3a0d5d203c807fbcU, 0xbda8bc49bd22634bU, 0x3d677d693d923c43U,
  0x3d9a48cbbdad5611U, 0xbc3343983b874e80U, 0xbd931b0b3cf99f78U, 0x3d505052bd95ea8dU,
  0xbd271886bcf5299aU, 0x3c7e84df3cf2e8bcU, 0x3d6d68a63c971198U, 0xbd3fa558bd1705a1U,
  0xbd644f73bd62880fU, 0x3c916f3c3b02af60U, 0x3d9116c23d934269U, 0xbca65dd2bbf69710U,
  0xbcf4a9fe3d9d0218U, 0x3cc74d3cbc185a60U, 0xbd41f4d53c1c787fU, 0xbc9edd7c3d3dff9eU,
  0x3d49e0bf3cdbd8f3U, 0xbd46f645bd4fdaa5U, 0xbd1f735abda5ca7eU, 0x3da31541bd6ae96eU,
  0xbcb03bb4bd9f4cc9U, 0xbc8f228ebda77c01U, 0x3da7b16b3cdf8e69U, 0xbd9491ae3d2f7e36U,
  0x3d8d2efb3d86002dU, 0x3cb2a41d3ae52d13U, 0xbcd881f1bd7b3b1bU, 0xbb87a280bd2945afU,
  0x3d7d1856bc7cd524U, 0xbd5a075ebd530c24U, 0xbcc13b52bc8167a2U, 0x3d5e173abdb1ca08U,
  0x3da591a7bd8def8cU, 0xbd333fa53e461e4cU, 0xbd98d49e3b856dc7U, 0x3d17a0dabd110e79U,
  0xbd7cc01d3d67bccbU, 0xbcd58ce03daa4943U, 0x3d1e50a53db44339U, 0xbd8fdc313b861570U,
  0x3c849cf63de01c0dU, 0x3d93238d3ddad939U, 0x3d8f8e433cb9c7d4U, 0xbdb9ffd5bdbeace6U,
  0x3d6d27eabc2a1411U, 0xbd067d343df38e94U, 0x3e016814bd474543U, 0x3da38f2d3cfb15b0U,
  0x3d316472bb38f2d0U, 0x3b80cfff3c4a1e93U, 0x3d9d460a3d3d3ceaU, 0xbd87806cbcea716cU,
  0xbd7d5d7b3d0fb5dcU, 0x3de42fd5bd9f1a8eU, 0xbd3a8e2b3d266bbbU, 0xbda928843ca20d18U,
  0x3c7be29339f4f4eaU, 0xbd8de9f43c77a12dU, 0x3bde25d4bc890552U, 0x3d6d063e3c26aa19U,
  0x3def9dc2bcb7361eU, 0x3cfa7a7a3cb9529dU, 0x3dac4a54ba77d600U, 0xbd08eed7bd1eb4fcU,
  0xbc9e5ba03cbc8b9cU, 0x3d121dd0bcbf09abU, 0x3d53dd833d51c278U, 0x3c0fbc33bd577e3aU,
  0x3e1d68763d3f3d47U, 0xbd92c1443d96a1bfU, 0x3e03b6f2bc9c0f9dU, 0x3d6d95ba3d78cdb6U,
  0x3d87c134bc98dd36U, 0x3dc622f13d628395U, 0xbbd16729bcad198dU, 0x3d7dd3343c41dfb7U,
  0xbbfc28603d851592U, 0x3cddca3e3e226174U, 0xbdabd919bc25a174U, 0xbd1dfe97bd394b92U,
  0xbce91e74bd8c0e6fU, 0x3d4a231a3d1f5832U, 0x3d9af2fb3d8131efU, 0x3e0172e13d021e3eU,
  0xbd8dd838bb2c7c10U, 0xbcd4ca52bd9130daU, 0x3d928457bd19e372U, 0x3dc0f47a3d8cb93cU,
  0x3d0ecc6a3dad3718U, 0x3bcaf68ebca6a596U, 0x3ceea5af39efe573U, 0xbb581c173cd90d12U,
  0x3cedacf6bd670be5U, 0x3cbd81a63d908d3bU, 0xbd7e32fb3d23bfa1U, 0xbd873b453ca963e7U,
  0xbd65a6c0bd2ef1edU, 0x3da06e303b19fd0eU, 0x3c80318f3a3f1785U, 0x3b72ba403d9fe8c9U,
  0x3c9c2790bd804e52U, 0x3d7382233db34cf1U, 0x3b8651bfbcab783eU, 0xbd84d1f73d29af66U,
  0xbd9ca2ce3bcaa975U, 0xbd828e03bb9746e2U, 0x3db5befebdb8bad8U, 0xbd18d71e3d6bbca5U,
  0x3ca305443c8d65cfU, 0x3da31ac83de8d19aU, 0xbe570c0abd43be40U, 0xbd9b615dbc2bdbc5U,
  0x3d9ec9ad3d3618c9U, 0xbd7714503dace86fU, 0xbd647a913dbc29d3U, 0x3db0cf69bd7a4b79U,
  0x3d9dcd103c6a5bc6U, 0x3bd486e5bd420221U, 0x3cb61dbc3ccbe42eU, 0xbda7cddabd23ca21U,
  0xbd7c3fd4bcff553bU, 0xb9d330e23d091ee0U, 0x3d74a001bd85782bU, 0xbd6b98023d71e035U,
  0x3dde3f113cb47691U, 0xbd9eb806bd7980a5U, 0xbb968f8d3d826d83U, 0x3d962ac4bd699f91U,
  0xbd1e66f93c357578U, 0x3d16d6eebd659aecU, 0xb8f29cf43d8c4a8fU, 0x3ba8d90fbd54cfdfU,
  0xbc9ddc3f3d07f584U, 0x3c31c6953c2425a0U, 0xbd15f8f6bd3f4038U, 0xbd1c0471bccb4004U,
  0xbd6a295f3d5ef8b7U, 0xbd6ebdb8bd0f55d3U, 0xbd2b03d1bcf88741U, 0xbd3deffbbd220162U,
  0xbd862315bcbaf88cU, 0xbbd03d10bd5e65d8U, 0x3cd29507bd64cbf7U, 0xbd09f8d4bc2080f8U,
  0x3c35d4033c8bc994U, 0x3d0ac5fe3d345177U, 0x3d765835bc19093cU, 0xbd027779bda4ea24U,
  0x3da394963bb5f44fU, 0xbc4073a4bcda4849U, 0x3c2c9f7dbce2b57fU, 0x3d119051bd9d597dU,
  0xbbb087783c94dfcbU, 0x3d591d7cbc6bb01dU, 0xbd369670bd198b8dU, 0xbd0b98e4bd2c3c9aU,
  0xbc541d7bbd07632cU, 0x3d40b640bd9691b6U, 0xbb5e4e7ebc662970U, 0x3dbd39bf3dff9877U,
  0x3d730b9dbda7a500U, 0x3bf5d9a0be1cfee5U, 0x3d56ebf53baea9ddU, 0x3c4fba003d1b0be0U,
  0x3c0685403aece6a6U, 0xbd905276bbf3ab19U, 0x3d80ef28bd8243ceU, 0x3cde293cbcfdf3d0U,
  0x3d8989a33db23075U, 0xbca13b2ebd5294edU, 0x3caa0c103c7eaebaU, 0xbdf292713d91fe3dU,
  0xbbeb5c80bd13277fU, 0xbd06e2913d8f0998U, 0xbccab21c3c1a12a6U, 0xbd6c24563caad10bU,
  0x3d8f8b51bc92840eU, 0xbd709664bd3fbf09U, 0xbb884bb73c29b798U, 0xbad1d480bdb63b3fU,
  0x3cf41eb73c93b909U, 0x3e2207393da5f2c0U, 0xbccc30fcbbeacd9fU, 0xbc4834c8bcf8bf4aU,
  0x3dab531fbd80e2a8U, 0x3d70e10e3cf7189aU, 0x3db19a53bd09614bU, 0x3d6efc72bda4a971U,
  0x3cbe9d63bc98a278U, 0x3daa27243d8af7afU, 0xbd2b96aabd1d3d69U, 0x3d8380d4bd92f11cU,
  0xbd63f3f4bd5deee4U, 0xbcf111de3d7cdbb9U, 0x3b4fe4683dafe059U, 0xbd5a04e5bb3b7de0U,
  0x3e0e90f93df970b6U, 0xbd21f217bc3fc2abU, 0xbdc7d3c83e23fd31U, 0x3bde5e003dc6c739U,
  0xbcf983813a44cab8U, 0x3dfd6119bda2737fU, 0x3d9f7f543da65bc4U, 0x3c279ed6bbd7dab5U,
  0x3c5e90003d763d77U, 0xbd1498613e052533U, 0x3d4adddbbd88e32bU, 0xbd15497e3d6310a7U,
  0x3d98948a3d13fcaaU, 0x3d138d88bd9802d9U, 0xbb6631823d126e70U, 0x3da428123c680df0U,
  0x3d94b5b03d83d184U, 0xbd6bca98be0ddcafU, 0xbd19d6d93ca74a0eU, 0xbd19db083d921b5dU,
  0x3d9a84d6bdf6b28cU, 0xbc4fe0253d4acd01U, 0xbd6657f93d967dbeU, 0x3ccd87cf3c9bee9fU,
  0x3c8d6444bd7eb9a8U, 0x3d86e14abcba0649U, 0x3c48157d3c27bc14U, 0x3cc0d39ebcd1c764U,
  0xbc5b2bac3d89e267U, 0x3cde11e73c19301dU, 0x3d144c69bd420c53U, 0xbb9a6d703d497d49U,
  0x3d433ea1bd2bed47U, 0x3d4b360dbcad45caU, 0xbe1fceb83d9e35e1U, 0x3d9459bfbd661ecaU,
  0xbbdb135dbcf78a33U, 0xbdbdb91d3d1cfd1bU, 0xbcb83d27be03182cU, 0xbcccae733d5b3a72U,
  0x3cbd3e6cbd55be79U, 0xbb5bacfb3da61838U, 0xbe123385bda0c36bU, 0x3be9f9a0bdbd65cfU,
  0xbc73df28bba8d4b2U, 0xbd20891d3d291e69U, 0xbcb5a3e7bca8f1bfU, 0x3cf0ee6c3d5d6374U,
  0x3d86baac3d53ebadU, 0xbc9869953d604ca6U, 0x3d521f5b3d9f5b72U, 0xbb618820b7ffa43cU,
  0xbd63f129bc3daaefU, 0x3d8842c83d21e0b4U, 0x3d1defd8bc468d50U, 0x3d1b727a3bf6d2aaU,
  0x3da5bcf33da60832U, 0xbd2dd5db3d31fd9aU, 0x3d9231d5bda84e85U, 0xbbd8986ebc83dad8U,
  0xbbb85bd0bdad9057U, 0x3d0126a2bd72e555U, 0x3d9e3337bc989d72U, 0x3c0e7de83d986a4bU,
  0x3dc613c6bd86eb4aU, 0xbcd49673bdb72322U, 0x3d1a30eb3d9466e1U, 0x3c5e3860bdae6bdeU,
  0xbdcaa9843dc0d93cU, 0xbdcbe0a43d901a39U, 0xbd1724b13caa163cU, 0xbd879c263bd25147U,
  0x3d3041623ceaffe4U, 0x3d50db2ebb576f2fU, 0x3d93ba673daa49bfU, 0xbc81a7b33db8c716U,
  0x3d5ee237bccbce4aU, 0xbd47a5be3d5f7df3U, 0x3cbeb6aebd57b746U, 0xbdf09879bd2f4981U,
  0x3cbe9e5a3dc34711U, 0x3d69478c3daa5819U, 0xbdaa5ddcbd8e9b1bU, 0x3d99671ebdad2decU,
  0xbd82a8ccbdbdd9d9U, 0x3d8ca5cebd393143U, 0x3bc8c6bebd9a20b5U, 0x3bcb4803bcd1ebaaU,
  0x3be0ee7abd827778U, 0xbd02d199bd9d4780U, 0xbd4f287fbd694e36U, 0xbd45137f3dce639dU,
  0xbdb32edbbd186defU, 0x3d28f15a3d574cf3U, 0x3d89af7b3cbdb72bU, 0x3d3f4a9e3d92dfa1U,
  0xbcbf7f8c3d355dbeU, 0x3d7ec1963d3c53f0U, 0x3caa166dbcda8609U, 0x3d40689abdb40707U,
  0x3d3c71fa3d0d00d3U, 0xbd28ff04bd8071ecU, 0x3ddf4ba83d36ff77U, 0x3ddcb466bd7837e1U,
  0xbd6eeef5bc866ad3U, 0x3bd897243d01b7f1U, 0xbe8faf843d2a67caU, 0xbd30cbb2bd0fe40aU,
  0xbc5c91b0bcd0ea06U, 0x3db9d7a93d3a35a1U, 0xbda64f2ebdc561ddU, 0x3d2a1afabd3cd1a6U,
  0x3dfbc55e3ddb5001U, 0xbe1084933dc42eccU, 0x3d751341bdb9b052U, 0x3d49c2663c27915cU,
  0x3d4a5fd93cbb804cU, 0x3db3911bbd9bf6d6U, 0xbca505cc3e0b60b2U, 0x3bf8c0303b593eaeU,
  0xbd5ffdc93ca314a3U, 0x3cc1fb2f3d54356bU, 0xbbdafb94bdad915dU, 0x3d087178bce007b0U,
  0xbd73c88abdb05d2eU, 0xbd803edebda9a886U, 0x3d9751f5bc9296d2U, 0x3cdb8b0a3d8508d7U,
  0xbe831ec63cd279b2U, 0xbbec838ebd867146U, 0xbdea52fd3c9a8fb5U, 0xbd8a5395bcbc061bU,
  0xbc3edb03bba2d814U, 0xbde02ddb3d2467edU, 0x3b27d9f9bd8836cbU, 0xbb8e0d55bd255e92U,
  0xbbb60720bd05c29bU, 0x3ca135adbe6f0c49U, 0xbd85032bbda6bd0fU, 0xbd9a2fb23d1754fcU,
  0x3de02e68ba44a01cU, 0x3da8e27c3d8ae3adU, 0x3d305831bce3b9fbU, 0x3c06ebd3bb8d6cb0U,
  0x3d8bc4e83caf4adbU, 0xbd23ccc0be8f52c9U, 0xbd915071bbde9b8dU, 0xbb677c4a3c01fd9eU,
  0xbbd282b4be02b9c5U, 0x3cb61209bafa082aU, 0xbda756943dc6df8dU, 0x3dab61f03d23c9e3U,
  0xbcafa2fbbd8a44f8U, 0x3d5982cdbbbbbf37U, 0xbce9eb7c3d2ca178U, 0xbd41ef5bbd47ca4cU,
  0xbdbe65713c72b003U, 0x3d64e8463d8a2ff5U, 0x3d866c173caf8d45U, 0xbccf1d90bd8841c2U,
  0xbc6abb2dbd0f5109U, 0xbc6561d13d439a88U, 0xbe217043bc9e1970U, 0xbda30b4c3d4ec942U,
  0x3cedad403d7ed844U, 0xbd321652bd0e3973U, 0x3dc3ebbebdbd00d9U, 0x3de443093b1278c8U,
  0x3b0538a0bd894bd8U, 0x3d6c3a34bd576d38U, 0xbe63d9053d1d1255U, 0x3da3f7753d0ce234U,
  0x3d621b4abda54b5bU, 0xbdb70d3d3ca34472U, 0x3d82eaf73db12436U, 0xbd2834a33c956177U,
  0x3dda26b93de54201U, 0xbdafd17a3cf358f5U, 0x3d1c38fbbd4d931dU, 0xbd22134abd087da6U,
  0x3d91b0163bed515dU, 0x3db1b1f03ce89023U, 0xbd0ba207bd85fce9U, 0xbcd67c583c801973U,
  0x3dd916043d998dd0U, 0x3d1b4fbf3dc26c6dU, 0x3ded7b0cbd151819U, 0xbd25cbf4bc17b968U,
  0x3d175442bd85687dU, 0x3c1c75bebdbb48bbU, 0x3c8c7dcb3b5ce4e6U, 0x3caeda7cbd0d75f4U,
  0xbdf95823bdaf463eU, 0xbd7c0e453de53510U, 0xbbfc3264bd05ee01U, 0xbd561b2cbd3c7229U,
  0xbd8a6c763d676bbeU, 0x3c97d7b0bc805a95U, 0x3d6661aabc89467eU, 0x3d8b6a8f3d87bd35U,
  0x3d14d6983d3383ceU, 0x3d8605a1bddf8c62U, 0xbd0503b23d167750U, 0x3dd4de7fbd337b05U,
  0x3d8d846e3e0ca59eU, 0xbda038cfbd37b0cbU, 0x3c8b27453c8c879aU, 0xbdd9967a3931e800U,
  0xbcad15563bb48da4U, 0xbd8bfb4abdb21c34U, 0x3d8767603d24f756U, 0x3d7585d33cb23bcdU,
  0xbd4498f43d156595U, 0xbd4b6138bd82943aU, 0xbcd9d3aa3cf19902U, 0xbc52648f3d8f6ff8U,
  0x3d313ca0bd195489U, 0xbd15a503bc90abc7U, 0x3d92a9443c802d94U, 0xbbce71fb3d9b0086U,
  0x3cbef8a73cb2300eU, 0x3c98d5e93b94ea38U, 0xbda1dd223c7d98ecU, 0x3b8a99f0bc903dc9U,
  0xbc11c12cbd5d6ac0U, 0xbcc21c073d5397c0U, 0x3c8e8470bcb8ef35U, 0xbd185a98bda9c506U,
  0x3d191fb23d7b6c9fU, 0xbdae03c73d5e88ffU, 0xbd5edd4b3d5ff0afU, 0x3b7f0f643d517106U,
  0xbd0a3915bca361e0U, 0xbdb85727bd8aa745U, 0xbc294d47bd8d36bdU, 0x3d609f06bb746a93U,
  0xbd575c4f3ce536edU, 0x3d4d782a3d86ef26U, 0xbd1963893c22552dU, 0xbd1523ef3d6462d7U,
  0xbd56ba88bcb11aceU, 0xbd9f632d3cdfecb3U, 0x3d8a364dbdbdfb30U, 0xbd8e95e0bdb096fcU,
  0x3af6a645bd8303ddU, 0x3d5500b53c31ec4eU, 0xbdc1b208bd508b77U, 0xbd4b7631bd8dcc44U,
  0x3bdc2c783d6dca16U, 0x3c77ef043d598932U, 0xbd350bd63c177ff8U, 0xbb71cee5bd46d8dcU,
  0xbda27608bd9a52efU, 0x3d544bc23a233400U, 0x3d7c5f923d971b21U, 0x3c50044f3d8992b3U,
  0xbba74fc03cd46001U, 0x3d4dbc33bded2090U, 0xbc90b70d3d2f872aU, 0x3d96f98bbb311690U,
  0xbdad890f3c8947e7U, 0xbba551bebd69a74dU, 0x3d87becbbdaafc12U, 0x3d34f13abbd17deeU,
  0x3d71ddaabd22cf4eU, 0xbd2e98d5bd90a422U, 0xbcebf685bd9009d5U, 0x3c26ed7e3c6dd19fU,
  0x3c9009fbbda69641U, 0xbdb3250bbd8aea68U, 0xbd84df1ebce1dbfaU, 0xbdb337c1bda3a5f7U,
  0xbd8aaf6c3ce6eefcU, 0xbd0beffbbd00641aU, 0x3c8a55103d6c77deU, 0xbc3af9a8bdca7e33U,
  0xbcf462edbd079c5dU, 0x3b685b8a3d597edcU, 0x3d08d3053d11694eU, 0xbdfb2a013d5d7df9U,
  0x3d337f92bd4460e1U, 0xbdb82a793d388964U, 0x3c1c32ca3d508cf6U, 0x3cfa5d423bb8e7faU,
  0xbc715a783d0fe994U, 0xbcfb1b62bbc21d00U, 0xbd42cfbebdb1bad3U, 0x3c31a290bc35f288U,
  0x3d6ba98abc34bbd8U, 0x3b7c8ea0bd086505U, 0x3d5f1722bd1d5dd4U, 0x3d2215d2bdae7b26U,
  0xbd8a92fd3b6f8060U, 0xbc596bf8bbfbf010U, 0x3d7c66eebdaf85faU, 0x3d9aa22fbd1e1e48U,
  0x3dae98713c9ebff0U, 0xbd199690bc1b89b8U, 0x3d6860cabda2acd1U, 0x3d22b17a3d30bd3eU,
  0xbda3b23cbdb2c136U, 0x3ccd7d74bd9827f8U, 0xbbdb66e0bd179cd6U, 0x3d0e1a86bdabffe7U,
  0xbca71f48bd97e389U, 0x3daa9fdb3cac7b6cU, 0xbd8f98bbbbd35a80U, 0xbd6bcc2ebd91d3a1U,
  0x3d95046b3d925705U, 0xbadcf680bd5a6f9eU, 0xbd40680dbd0944c7U, 0x3d952087bda72c0cU,
  0xbd4d08c73d96b5a5U, 0xbd47e6803cc26c18U, 0xbbb82cc03cfd1bf4U, 0x3d50f1723d4b63aeU,
  0xbc88e8483cb125a8U, 0xbdae6e573d56e2beU, 0x3d04d06c3da1b371U, 0xbd0792673c6ce120U,
  0xbc79f4183d4ca89eU, 0x3ce5c4f8bd84a208U, 0xbd87c4ec3c0e3be0U, 0x3d298666bda287b8U,
  0xbd6e2f383c3e37e0U, 0xbd0725acbd16cf33U, 0x3c33b5703d28e5faU, 0x3cb6c6a03c440de8U,
  0xbbc933c0bd58ac02U, 0x3d831ed5bd3dceadU, 0xbd9bd77c3d00f766U, 0x3d0c398cbc1fa148U,
  0xbbc2d2903d536f76U, 0xbd57a4533d85f9f9U, 0x3caaa6a0bd039710U, 0xbceb5782bd2e2e9bU,
  0xbca88cecbd9c8bcdU, 0x3db0e7413d637c2eU, 0x3ceb2b08bd8b540eU, 0x3bc31e90bcf6505cU,
  0x3d29dc0ebd2d88aeU, 0x3d0bbcfcbcfb5e02U, 0x3d963cc3bda31c19U, 0xbd066bacbda9e5e8U,
  0x3ca183783d945b0bU, 0xbd140e92bd2a2cceU, 0x3d982a79bd14b5e9U, 0xbbc847503d40ccb2U,
  0xbdc273ef3d34f341U, 0x3d3a56993e4a6106U, 0x3d3bbf0a3dcd7fa9U, 0xbaddb500bcac78edU,
  0xbd9ebb723d44e47dU, 0x3d1ebc90bc9c04c9U, 0xbe8b70733c4ce6bbU, 0x3d449f2e3ce4c08cU,
  0x3d8ab7ce3db4c4a2U, 0x3da84d563c529324U, 0x3d4521f53d0d3108U, 0x3c35b65bbd70f0c0U,
  0xbc021678bd993e63U, 0xbd5a10cf3da50e1cU, 0xbe1902fc3d3f7d54U, 0xbb0966e0bd7ad971U,
  0xbcacf4643ba86717U, 0x3cdb5b86bc3ad34bU, 0xbcdaf08dbd005507U, 0x3d1e8e8ebdabadf0U,
  0x3d3525df3c8aca35U, 0xbd1eee20bd371aafU, 0x3cc386373da3f096U, 0x3c402628bc9d7223U,
  0xbdaa629c3b58110fU, 0xbd47472abda31c89U, 0x3dbbcc6ebc689dc5U, 0x3d7af91abd835e6eU,
  0x3e0dd7bc3c8dc8a5U, 0xbd85a0cdbc50629fU, 0xbd403f7c3c337b20U, 0x3c1376d13c3567c8U,
  0x3d9e6b333d3b59d2U, 0x3cf29810bd9f420fU, 0x3d180ff73d34b355U, 0xbd1bd0f6bd2e3faaU,
  0x3df47a6d3ce532a3U, 0x3db8229c3dfd0b0dU, 0x3dade4803bc06864U, 0xbd06ae21bdafdd9fU,
  0xbdd26dfc3d9ecce7U, 0x3d95cc2d3defeca6U, 0xbd7045243d395b88U, 0xbd81bd67bdbc8600U,
  0x3c8d0788bd4ed5d6U, 0x3d590af03d83bd08U, 0xbde443ae3da02454U, 0x3de6fad3bd87cc4bU,
  0xbdca55a0bd40bde9U, 0x3dc4e9f63d2ac36bU, 0x3d8fc1e03cae4a5cU, 0xbccab78e3ce19448U,
  0xbdb0c60a3dd7f370U, 0x3cdab7ddbd4619feU, 0xbd4d3934bd78e584U, 0x3dcbb07e3dd16466U,
  0xbd4531863c157b0fU, 0xbcd167ebbc6b7d53U, 0x3cd2a7613d3014c0U, 0xbd321b023dcbc73eU,
  0x3d3e73c2bd66a2c4U, 0x3cb3b16bbdeb5a1fU, 0xbd280aa83be6bd71U, 0x3c27a39a3d3c0c70U,
  0xbcce781abd7dce7bU, 0x3cb5793bbe0a1e47U, 0xbdcb6d84bd96bc67U, 0x3d9a1e25bebc68a1U,
  0x3d146a6b3d9ae94fU, 0x3cfc75133ca5f09dU, 0x3d19af753c9eab64U, 0x3d9e77dbbb210040U,
  0xbcce5f9cbe13ecc0U, 0xbcc5aa1a3ca7b429U, 0xbd1da471bdbdc032U, 0x3d314c953e08da91U,
  0x3ba639a0bd3a40cbU, 0xbcf6a7babe91996fU, 0xbb52dab0be1fb2d5U, 0xbd3d0704bc90b3f0U,
  0x3dae75bbbd604220U, 0xbd91f357bd477c86U, 0xbcc1f4e63b6bd2c4U, 0x3b498380bd592965U,
  0x3ba9b8c8bd1d042dU, 0xbd67cddc3d3088f8U, 0xbacb2fdc3cf410c3U, 0x3d1f4d323bb48e81U,
  0xbbe2df733be6e39eU, 0xbd864db53d905d1dU, 0xbda1b5993c0ec3deU, 0xbd75adbe3d4338e3U,
  0x3d05340abd7681cfU, 0xbdb53a1f3d2b8b72U, 0xbd33784a3d925ac1U, 0xbd257bcbbc5ba388U,
  0x3cfb71843d026226U, 0x3d797e533c91c8c7U, 0x3d819b1a3d057e0bU, 0x3c6c8522bcf397c4U,
  0xbdd64e7e3d2ec690U, 0x3da36ad7bddd2669U, 0xbbd804813d1f980cU, 0x3d88f6233c8f1106U,
  0xbe666877beb567d5U, 0xbd84a0233b707cabU, 0x3deae33cbd401237U, 0x3cbaa533bb59d31cU,
  0xbd69eba03cfb2125U, 0xbd246febbd8a414eU, 0x3d9b5f0c3d0974fdU, 0x3cf5822ebd919acaU,
  0xbd5e4ccabdf8e71cU, 0xbcf436abbc9c3ae1U, 0x3c8dffb4bd69e1f9U, 0xbd9531a93d1cc4eeU,
  0x3cc3bd8b3d05088bU, 0xbd0a6cc0bc77b859U, 0xbda4772abc66e36bU, 0xbd15e891bde66e91U,
  0xbc6d2be33cab1605U, 0x3d3ca50bbb9148ceU, 0x3d4c60d8be34c498U, 0xbdf9b0603e0cfd92U,
  0xbd07502e3d39c4f2U, 0x3bc966023cffbe40U, 0x3d3af21c3ad589aeU, 0xbce36086be5ce3f0U,
  0x3b8ec69b3dba8bfeU, 0xbd0c1966be29ed4dU, 0xbc6818c8bcb3c4a5U, 0x3dae879d3dbf7b4bU,
  0x3d35332bbd6e8fe3U, 0xbd9e9d553d5c2678U, 0x3d2aac6bbd1f34c3U, 0xbd534bfa3d11fb08U,
  0xbd9ac5e0bd90e907U, 0xbd943e2abd06330cU, 0x3dd4502e3d84f685U, 0x3d261fad3db7f026U,
  0x3d96846fbd8ac402U, 0x3d3e2170bdac2734U, 0xbddf18983d85a557U, 0xbd7165afbd5c7d8cU,
  0x3d1655ba3bfdbcfdU, 0x3da47a4ebd832484U, 0xbd9c02293c883c41U, 0xbdb3d7163d7b407eU,
  0x3c7b6003bba06f69U, 0xbd14f51a3d90e054U, 0x3d35e7e63d8dc931U, 0x3b8b9ac03d899c4dU,
  0xbd849a6b3dc95f39U, 0xbd3e5e673d9a1467U, 0x3dbba8ff3d32e4faU, 0x3d94bcfdbd354e77U,
  0xbd4196403d42a715U, 0x3d29e30cbd08a12fU, 0xbcb40e0dbd520343U, 0xbc7c7e96bd856fa2U,
  0x3da087973cfcaec4U, 0xbcddab87bdb3b192U, 0x3db375183d80efdbU, 0x3d16dca3bc4f8268U,
  0xbda8c7443b576f81U, 0xbd910dccbbdf0d7dU, 0xbd37d5a8bd9dfd72U, 0xbc911ff0bd212477U,
  0x3d88280abd50f985U, 0xbdc5f0223d4e6562U, 0xbd0469fe3da728e8U, 0xbd0ce8d03d012741U,
  0xbd396c47bd26f037U, 0x3ceaf121bd5d699fU, 0x3d1a5f413d8332ebU, 0x3d5aa5e4bcd9fdeaU,
  0xbc3e53343d9a2708U, 0xbac23addbd760aadU, 0x3d7cd90d3d270963U, 0xbdea4a84bc993048U,
  0x3cd8c0193ca6439fU, 0xbcf811ac3d7f6c43U, 0x3c89a33dbc03e265U, 0xbd9f51943d9585b1U,
  0x3d3c4381bdf56844U, 0x3c5eb9033d383c47U, 0x3dba05303c960c96U, 0xbe0c0274bd8a1660U,
  0xbd0e7d133be3f850U, 0xbd0a45e7bd94ab2eU, 0x3d73c2393df0f3daU, 0x3da35e293d298f8fU,
  0x3d822f6dbc9d8424U, 0x3d8b8f5d3d0db600U, 0xbd8ffa20bd3ec5c4U, 0x3c356a103d6d8132U,
  0x3d7698aa3c60c950U, 0xbd9d276a3d9c06bbU, 0xbd619752bc0232f0U, 0x3d9975dfbdb41b8eU,
  0xbc09ec703d0a8968U, 0xbd8110a7bda3f039U, 0x3c096348bd02bb57U, 0x3d55216a3d063668U,
  0xbcd6060abccf0fdcU, 0xbc8609a4bc4fb7c0U, 0x3d48f4aabd996957U, 0x3d8091a1bd5f3bedU,
  0x3d5d3caabc1ef988U, 0x3d54a08ebce9b13cU, 0x3c158848bdb44c51U, 0x3d87327d3c529ee0U,
  0xbbd7fe30bd79c9faU, 0xbc88facc3bc15390U, 0xbd1dccf73d0f8548U, 0xbd0a5f47bd6a9779U,
  0xbd9d524abd58ab6fU, 0xbce09f3a3d509d46U, 0xbd76d504bd49cb00U, 0x3c95c2a03d7b7f86U,
  0xbd9947b5bcc7dd28U, 0x3d4e54d6bd84044cU, 0x3b8252b0bd9040f2U, 0xbd8b85d03d5c5b4aU,
  0x3d32f2debd1aaf29U, 0x3db07a6f3d42ce9eU, 0xbcf3edca3beeea00U, 0x3d816febbd8f50b7U,
  0xbd94cfe83c136970U, 0xba5276003d868843U, 0x3d62ff7e3d1c488eU, 0x3d8c608b3d2a04aeU,
  0x39e2e900bd16c419U, 0x3d4f94523d3fad56U, 0xbc83c1dc3c481958U, 0x3d2e5c9ebda5dd57U,
  0x3c868764bd5bcc98U, 0xbd28f3db3dadd3f3U, 0x3d2e37f2bbb2b3a0U, 0x3d01c4c83c285f18U,
  0x3dac730bbd37c3a0U, 0xbd33964ebd866630U, 0x3d871bb73d90490bU, 0x3cb5c248bda32765U,
  0x3c2583003cc112f0U, 0x3d7182ce3b15ace0U, 0x3d533d4a3d36bf92U, 0xbda582e53c03d280U,
  0x3bb8c4503c6cd3a8U, 0x3caba1943d95f54bU, 0xbd9ba8f4bb63e380U, 0xbda1c5f13c6088c0U,
  0xbd4fc4b7bcd4ca28U, 0xbd5b3cfa3d8ab349U, 0xbc0d5b20bda494b2U, 0xbd20c3453c52f0a0U,
  0xbe5faacebd7335a8U, 0xbd4dbfb73d40f5a1U, 0xbbbfff4cbdc18942U, 0xbce9bd5e3b5499bdU,
  0x3da539eb3cfb7950U, 0x3d4053fbbd9725deU, 0xbd5dc9903d7ae2e1U, 0x3d905c993cd47b1cU,
  0x3d5a7eda3d037982U, 0x3b38b8eabc872deaU, 0xbd9369a5be0370c4U, 0xbde187cebd715e0dU,
  0x3d0ad9acbd97fd7fU, 0x3d4e9a2a3ded3272U, 0x3e0b62df3db490e1U, 0xbdb242b43cbfcc6bU,
  0xbb77b6a0bda3e03bU, 0xbce4b372bd20cc58U, 0xbcdcfefb3d2bd5a8U, 0x3d5393a2bdf80129U,
  0x3b988bc33d624962U, 0x3e403e70bcb01723U, 0xbdb877003d20755fU, 0xbd0d91ddbd990b4bU,
  0x3d4fc578bce22f62U, 0xbcb12fccbd38a42eU, 0xbbaaa31cbd99bc9eU, 0xbd915a02bcc516d8U,
  0x3d8837393cc87ea8U, 0xbe4419de3b9b5b52U, 0xbde55e733daf2bbbU, 0x3d8a11193d98c08fU,
  0xbbf92330bc58f0f8U, 0x3d56f5d03d6bb768U, 0xbd8814ccbd00de8cU, 0x3d158eb23c24d128U,
  0x3e7134fdbabf2d38U, 0x3c57b086bd2dc619U, 0x3def16493d1f2be6U, 0xbd8c80143d940a86U,
  0xbe309e603e543255U, 0x3cb460b5bd3b1af6U, 0xbd375e33bbd0e5c0U, 0x3b2f15bc3cdf785dU,
  0xbb4caee03d0ca673U, 0xbd396afe3d61c485U, 0x3d347743bd6f325fU, 0x3d1997ea3da38b84U,
  0xbcae2b80bd8b5b3cU, 0x3c36ead5bd79378cU, 0xbcf9c000bd6b14b0U, 0x3dbea7ccbd780077U,
  0x3d1e079cbcb729ffU, 0xbd444e6b3dbb0a81U, 0x3da3b1ddbd5a7387U, 0xbbcc41953d6d4a38U,
  0x3d9568bf3dd7ba8aU, 0xbde693043d491abcU, 0xbb9ad03dbd49b10cU, 0xbcc659e2bb34ab18U,
  0xbad60bc03d8e02fdU, 0xbd9dcdf9bcc06bc5U, 0x3d118560bea104caU, 0x3d470049bbdb68e1U,
  0x3d292d20bdba6413U, 0xbdc98ba0bdb03824U, 0xbd41c792bda7f7afU, 0x3d7f66063ce82a0dU,
  0xbc79d4933dab2ea4U, 0x3d8a36263d6c9c13U, 0x3ddcf0883c99ca4fU, 0xbb179f403c49b460U,
  0xbdaea2b3be613e4dU, 0xbcf9acbb3de89802U, 0x3cc1b1dc3ce2ee0cU, 0xbda454e1bda2dcfcU,
  0x3d8e5277bd832910U, 0x3b9b2a12be5f3a32U, 0x3e63f98bbd6dac76U, 0xbc1d0710bc1a486bU,
  0x3c2a6f70bd978653U, 0xbc93e344bd6041c7U, 0x3cb7ece63d892536U, 0x3daf626dbd996a4aU,
  0xbd5b68e7bd80a260U, 0x3e06c0ef3bcb2424U, 0x3ca4c7223c2cc934U, 0x3d81a1d1bc70ba56U,
  0xbd1fb9d53d48a3c8U, 0x3d86a0adbc6181c6U, 0xbde00bd83cab206aU, 0x3db44fb93d0ff42eU,
  0x3d59c047bd8c1249U, 0xba283fad3d6716ebU, 0xbd2f97edbd6ca5fbU, 0xbd113739bd1dfc8aU,
  0xbdb186843da6d02fU, 0x3cb8859b3d5c42b2U, 0xbe2b72163c45ab23U, 0xbd02998f3c30e8d0U,
  0x3e32a4ea3d2a5a8dU, 0x3da536acbd2b341dU, 0x3d9d47d83c947026U, 0x3c8c55ccbd830296U,
  0xbaec1e84be762356U, 0x3cf45a7fbd8e54a7U, 0xbd73273b3d972adaU, 0xbdab518e3dab8dbbU,
  0x3dad67c33d6b1945U, 0x3d05c78b3e427e3eU, 0x3d42b9fa3cacbfebU, 0x3b6668483b34951bU,
  0xbda05874bcd17aa6U, 0xbd251cd3bdb6d00bU, 0x3dac5599bc65e536U, 0x3dbfe882bc484368U,
  0xbc74f744bcbee716U, 0xbd782f773da4fc3bU, 0x3d865721bded02eeU, 0x3c07da06be2bedc1U,
  0xbd925f5dbd2a905fU, 0xbdc137e33d6871e2U, 0xbcce010dbe7b42d5U, 0xbde98b95bd81b619U,
  0xbc8e19583d358ecaU, 0xbdf61eee3a328b96U, 0x3cbce7d4bd481bf0U, 0x3b859518be72da0eU,
  0xbd92d3393d5ff441U, 0x3ce98bffbdbd5e36U, 0xbcc223f9bcb950aeU, 0xbd72c7d8bee55b8aU,
  0x3dbc696c3d85ade6U, 0x3da650e63d9e962dU, 0x3d83d0c5bd0dc531U, 0x3c0a2e383cb9ae10U,
  0x3d79fc02bd82a9f2U, 0xbd392008bcd4f485U, 0x3d8dcc373c95f692U, 0x3d8d619e3e5a7a56U,
  0x3d700dea3d977fcbU, 0x3d2c6fe4be8b07b3U, 0x3d810c69be4a6cfcU, 0xbd4e68ffbd814443U,
  0xbda604783ca3138aU, 0xbb197040bd09216bU, 0x3dbb01f1bd122499U, 0x3c0ecb08bd91b6efU,
  0xbbd070d1bd37e7daU, 0x3c014762bd731065U, 0xbd948f04bceb56caU, 0xbd6e70f8bd09789cU,
  0x3d7c4fde3ddc6662U, 0xbd8cb681bd6a7aeeU, 0xbe6ee1fa3db6e64eU, 0xbd8653b53cf923baU,
  0xbda99e1a3d3fe18bU, 0xbda5606db9ec2eaeU, 0x3d1e0361bdb42a26U, 0xbd8a71633cdb0cecU,
  0xbd2a99c43d096188U, 0xbc7eaa2f3cb8c84eU, 0xbc885ffdbd09b9efU, 0xbd91ac143d8a13a9U,
  0xbad16c163cfe8012U, 0x3d4c0b26be134afdU, 0xbe0a415cbd5c8408U, 0x39839900bdaba2fbU,
  0xbe8ac81fbea49ab7U, 0xbd1a8aefbacd5b98U, 0x3d3e32d1bd95c39eU, 0x3d1529753db2d5efU,
  0xbd8a1ce63c5b628dU, 0x3b346adcbdb782ddU, 0x3cfd3f1ebd7cccd7U, 0x3d0a44723db11469U,
  0xbcd5ab58bdca94a4U, 0xbe074c4abd6b2a76U, 0x3d91ee71bdb2db2dU, 0xbd3d76de3cde9034U,
  0x3ba9b8a7bd124cf0U, 0x3d0a79223da3dcf5U, 0xbd8a86c43c33040cU, 0xbd4b9303bdb6ccb4U,
  0x3d65b334bcc2a8f7U, 0x3d8da514bd7036e4U, 0x3de7b1f8be880db3U, 0x3d2831333dcb814fU,
  0xbcb462c0bd851a9eU, 0x3d7abbd43d632663U, 0x3d61183ebc8b34e6U, 0xbd1be217bdc1b886U,
  0xbc4db8f33d9ef840U, 0x3cb5891a3dfd2df9U, 0xbd246f223cd68430U, 0xbd037d473d880c03U,
  0xbd233d05bd859bfcU, 0x3d59f45bbd6e0e90U, 0x3d2c93793d623467U, 0xbcdf3552bd00e082U,
  0x3bb9e117bcc277e9U, 0xbd1f2dc03d95d0c5U, 0xbcf176783cda36e2U, 0xbc27b5babdcf0aa5U,
  0xbd3a4589bd572413U, 0x3d025062b9d7501cU, 0x3e188281bc5b1a7bU, 0x3d5514623dc27449U,
  0x3d310e6e3d13c51fU, 0x3ad3b42dbca06a22U, 0x3c01d7c93c64f2edU, 0x3dacb0fbbd3bd8dfU,
  0x3be0e423bca8b8b9U, 0x3dfee916bc74e344U, 0x3d1efd723d83a633U, 0x3cad511c3c830c00U,
  0xbd283235bc72f9dcU, 0xbcdf0c01bc9faffeU, 0x3c691aab3d2bddeeU, 0xbd37f2e73dbe9e2cU,
  0xbcd79a503d00626eU, 0xbd56dd603cb48d4dU, 0x3ccc6d7fbd137df7U, 0x3d9cb9943c4ec218U,
  0x3ac57b003d73200aU, 0xbc2f7c433d4c4d48U, 0x3d3898d8bc9b6bd7U, 0x3d14a0acbd2e4040U,
  0x3e4aea853dd923beU, 0x3d0dc46c3da4c338U, 0x3d8a8aac3dd6b9e0U, 0xbcaacaf03dc82a8cU,
  0x3ca0cc63bbc8705aU, 0xbc58402d3d53db2aU, 0x3ca054b4bd8094deU, 0xbd37fe1abd801ba6U,
  0x3d09ca74bc4bcbabU, 0x3bf2f1af3de86cf7U, 0xbd92944dbd85d9afU, 0x3dbf288a3daa26e0U,
  0xbc999943bdad4382U, 0x3dfe6d1e3cc507ecU, 0xbdba3e623d4b3183U, 0x3c964b92bda53984U,
  0x3ca3d339bcfd3ea3U, 0xbc238afb3cbd3cb1U, 0xbda76cdbbb5c3a15U, 0xbd4156073dad04b7U,
  0x3d88ed70bd177243U, 0xbd3bf0fb3d7d3aa0U, 0x3caeeeb2bb7c4d63U, 0x3cf5cf4e3cfe6a6fU,
  0x3d80a9f13dd3bc66U, 0x3c1bcc48bd0739e6U, 0xbd76e73fbe00c047U, 0x3d93bf563c2f7ebaU,
  0xbcfc08b7bc404e2cU, 0x3d7c0557be1e43b2U, 0xbd8e6b773d5b97e0U, 0x3d8ff7a7bd98b1baU,
  0x3bb8f9123d752ea8U, 0x3aa0eae73cb96fa3U, 0x3bd9931cbd2047f7U, 0x3d5e888a3cfe69e8U,
  0xbd2d3cb33cff6d95U, 0xbd628744bda29103U, 0x3dc750c0bd62f86dU, 0x3da0dafc3dd27ea3U,
  0xbd80ce8c3d646963U, 0x3c647a0cbdc37eedU, 0xbdbdeed3bcb428b0U, 0xbd85faedbbb5dfc2U,
  0xbd82f9283d09b166U, 0xbcb90ec7bd817faaU, 0xbc615cf0bd07e3e3U, 0xbd6178763d981340U,
  0x3be502de3d4669c2U, 0xbd5c4a583d76021eU, 0xbc96a72bbdbe272eU, 0xbce6cc8a3c8f7dcaU,
  0xbc8cd69d3dd7ed47U, 0x3d2b8f1a3d3caf04U, 0x3cd974e83d9dd69fU, 0x3918c200bdab97d0U,
  0xbda267ef3d98e149U, 0xbdd05c2f3d40e52bU, 0xbd2a4e493da69335U, 0xbd78bd52baf16e00U,
  0xbd76f36c3d8ed697U, 0x3d95affdbc582772U, 0x3d7b718abc939d3fU, 0x3d90d9c3bd0f3ba1U,
  0xbd1ebef4bdd6aaa2U, 0x3d88dbcabe074933U, 0xbdccdebf3d616481U, 0x3d8fc031bcab75f7U,
  0xbbcc85c2bc82a24fU, 0x3d608b28bd099c07U, 0xbd392daf3dad1530U, 0xbc444b9b3d11d4cdU,
  0x3d67f022bd8c1b85U, 0x3c879366bbf8df24U, 0x3c2a93023d6095e6U, 0xbd7bca1cbb4e42adU,
  0xbd2d47f43d7ec42bU, 0xbd8571833cd36dc4U, 0xb9c97f3abcb03509U, 0xbc144204bbbccd80U,
  0x3d5bc1523dcabef3U, 0xbd9afaa33d83c96dU, 0x3cc33dc2bcd4e201U, 0xbd3c2e57bcf1e834U,
  0x3d3ade39bd05eee2U, 0xbcec29d03d96f047U, 0x3dc6fc36be148005U, 0xbd8c4a803d9d6a76U,
  0xbc832d813d7f83b0U, 0xbbf7b003bda548e9U, 0x3d19dd233ddb085fU, 0x3d996bb6bbbf4bb1U,
  0x3c8dd1d63d6d9f50U, 0x3d6537d9be1c9f31U, 0xbbeb38d63d5e68c5U, 0xbd21d954bdc5a737U,
  0x3c38d1f03daad954U, 0xbc9964ce3d20a83eU, 0x3c8fbfcf3d9fe620U, 0x3d6a5082bd702c89U,
  0x3d9b4a22bd9ba005U, 0x3da4c0303b41a842U, 0xbda9478fbdb3cf49U, 0xbb1ba37e3d245da3U,
  0x3d0f348a3d99d76cU, 0x3d0153393c413104U, 0xbcfd723dbcd475aeU, 0xbd1f9501bd97cc0eU,
  0xbd72d701bcb0ba84U, 0xbd3ece863d769fa5U, 0x3cbf79edbd1ec44bU, 0x3d8e55a9bd7e142aU,
  0x3d9b93c7bc39eebdU, 0xbc6eaeb7bc9d40e0U, 0x3c9d7cd6bd13b92fU, 0x3d5bc7b2bd03fbdeU,
  0xbc4d63c43d6adf6dU, 0xbd40662f3c493978U, 0xbc07e64cbd4b9377U, 0x3d2b21e6bcdaa092U,
  0xbd7262613d62abceU, 0xbd7aca3bbd4c279fU, 0xb988d8fdbd8c164eU, 0xbcf66b3a3ce1c438U,
  0xbc1a8910bdb3f0caU, 0x3dab83d1bdb8c3e8U, 0xbd8c99973d8693beU, 0xbc0eaa5abcfbac20U,
  0xbdc98d693c0d7646U, 0x3d0ef9a6be0f7440U, 0xbdd756d2bd283e95U, 0xbd1ccbd23d800ffaU,
  0xbd42c19fbdd67800U, 0xbd1ac4d33db66ac3U, 0xbd13c370bd01ffd8U, 0x3c5301c33d15d27fU,
  0xbd2efde0bd2d91e7U, 0x3d2bb34dbc99542fU, 0x3deabedb3b1cf761U, 0x3d4f01f5bd7a005fU,
  0x3c92e694ba94d3f1U, 0xbcadc2e43db491e9U, 0xbd9d9dde3d5f28e2U, 0x3c395ad4bd540ecfU,
  0xbd9529c13c95d035U, 0x3d38fdbf3d2d9bc6U, 0xbc8eb8e83cc8c359U, 0x3b0c15463d3741d6U,
  0xbd7c272e3cc326cfU, 0x3da839f9bd8a9887U, 0xbd836473be488877U, 0xbcf9c4a93c53f951U,
  0x3bc24b95bbb1a750U, 0xbda99e953da41dc9U, 0xbd121699bd861a35U, 0x3db5c96b3d182fd9U,
  0xbda38d523db525efU, 0x3df398ce3d8d5c84U, 0x3d994435bc852b66U, 0x3da72bd9bdc901ffU,
  0xbd7635d03c49a633U, 0x3cc11385bd1e4366U, 0x3c6d335dbccf131dU, 0xbd129c41bcb51038U,
  0x3d5851653bb1b9c3U, 0x3c3af355bd913f75U, 0x3dce9758be20f02dU, 0x3ce1ed2ebd334460U,
  0x3d7be0ce3d2c698bU, 0xbc2df8713d585c9cU, 0xbe1344dd3cfb620fU, 0xbd170858bcf7d325U,
  0x3b8c9230bcd12945U, 0xbd01d6f63de65122U, 0x3c794081ba225d5eU, 0x3d2e302ebdb31071U,
  0x3cc3a0923db4d3f9U, 0xbd78a3da3d8b57ecU, 0x3cd9b5343d1f69d4U, 0xbca4d1603bdbc0f2U,
  0xbd4188343dbe4577U, 0x3a4f88383da21752U, 0xbdcad094bcd63f3fU, 0xbd997372bce7b81dU,
  0x3db2b487bc53b61cU, 0xbddb78f83ddc8d59U, 0x3d4498523cd47de8U, 0xbe33d5263d1f0ea6U,
  0x3cca00a4bd78a076U, 0x3d9fa49d3cd42ae9U, 0x3d6733b03cfd09caU, 0xbc0e23a33ca5efecU,
  0xbe2220363ce59f59U, 0xbbbb2810bdcb6e69U, 0xbbd8ed70bd8789d4U, 0x3d058246bc123a24U,
  0xbce7e0b53ddd36b7U, 0xbc9b57333d98b75dU, 0xbd0f2f74bd341be1U, 0xbd9a9d643d560c35U,
  0xbd9e6a50bd1ad51bU, 0x3c9c3f1cbe24fefaU, 0x3c85a6e53d860b68U, 0xbb9904343db203b7U,
  0x3c2c3cc33d894583U, 0x3cc74f4cbc1a8348U, 0xbb5f5ed5bd80847aU, 0xbd2f2f3e3cba6a54U,
  0xbdf2d2cc3d5e0fd4U, 0xbdc47d3e3d78999fU, 0x3c1561363df4aa21U, 0xbd35b2b43d818bdbU,
  0xbd46efa1be132ea4U, 0x3d6696b13d229722U, 0x3b375ca5bdef9006U, 0x3c61ab2abd9cc40cU,
  0xbdae67a33d6b0c3dU, 0x3cc858c6bdf0c76cU, 0x3d95a3a23c9511c9U, 0x3c7e0fbe3dc9e615U,
  0x3d807f35bd4b3f99U, 0x3db1f140be339abfU, 0xbd925346bd21e204U, 0xbd9a36a03b13fc86U,
  0xbc5da2193b714675U, 0x3c267e73bd23dc20U, 0xbccdf5d2bc9e9822U, 0xb988be003db1c6d3U,
  0xbd64c9f0bdaca416U, 0x3a83a9babdeb04e5U, 0x3ca0859a3d325e58U, 0xbb1069e33c932640U,
  0xbd99db5fbd8a7f36U, 0xbd78b38ebe869de0U, 0xbe16b0663c2006b8U, 0xbd50fe3d3d1c28d9U,
  0xbd1487ed3d24e363U, 0x3d851ad9bbd42c85U, 0x3cb289f3bb1b0996U, 0x3ca1ff3cbcfe2599U,
  0x3d8d2b3a3d03a4ddU, 0xbc9b58953d34da7dU, 0x3dbd8ba9bd92f8b4U, 0xbca9243c3d6b7d94U,
  0x3d4c0bda3d9c2764U, 0x3c001d323d98ad74U, 0xbd9858343d313245U, 0x3d6bd6263d667ad3U,
  0xbc53ac673d8fd38aU, 0x3d5c83373c3deaffU, 0x3d874add3d69a78eU, 0xbdb464ebbd54bd9bU,
  0xbd867d60bc9d6b14U, 0x3cc095f0bd76567eU, 0x3d878a6f3d95c057U, 0xbd43eebcbce4b1caU,
  0xbd9f67e3bc3cddfdU, 0x3cb4738a3bbab1cbU, 0xbd4d4983bd84c0e7U, 0xbdad1490bda2366aU,
  0xbdd509b5bdd9828bU, 0x3cbae7a83cf57e87U, 0xbbeffdb1bc0d35a5U, 0xbca12c0cbd246a27U,
  0x3c9059883db8cbdfU, 0x3c322a0fbe2288b4U, 0xbd350076bd4e168eU, 0xbcea7f923d425c41U,
  0x3dd184b9bd48325eU, 0xbdbc664a3d71e1efU, 0xbdaa270fbd7e0ea5U, 0xbdd983263cd145a4U,
  0x3c9c97073c92f448U, 0xbd8a6b573e01b9deU, 0x3d969e75bb7cc877U, 0x3d499f3abdbfbf77U,
  0xbd09db793c12dc50U, 0x3d2ebe8b3d74e3e6U, 0xbbbb04a0be3d7b32U, 0xbdc895aebd8817ecU,
  0x3da87b813d95da30U, 0x3d36fd50bcefcc01U, 0x3d81c1593d9bffe8U, 0x3bd28ce3bda60619U,
  0x3c3a6798bd3502e4U, 0xbd279b70bd4b618dU, 0x3c9c00e93d94295dU, 0xbc7d9e383b9bb6f0U,
  0x3d84bd92bd1877b0U, 0x3d340061bdaa266dU, 0x3d6cc4073d8bb664U, 0xbd98a8bcbc5dbb58U,
  0xbc9946e03d276377U, 0xbc83ba2b3d910dd1U, 0xbc89fae5bd6d0dbeU, 0xbd87a9c8bdabb0a7U,
  0xbd02666f3c2e0306U, 0x3d63ce1cbd671150U, 0x3d8d94913b291eebU, 0x3da8ab23bc3becb8U,
  0xbdac0711bcc210f4U, 0xbda1d553baf57419U, 0x3d8a7980bcd4f5a2U, 0xbd5086eabc9642d8U,
  0xbdb66a8a3d6f5820U, 0x3d1014513c84345eU, 0xbd48deef3c390b19U, 0xbc5ea6a03c884676U,
  0xbd00df8fbc3444c6U, 0xbdb70a3dbc7b6eacU, 0xbc76c2a0bdb53d27U, 0x3da02c53bd6ad2ccU,
  0x3bb71d4f3cf90398U, 0xbc86a8f6bdb838b8U, 0x3da206773d14ca4cU, 0x3d992f56bd8d1787U,
  0x3ce72234bb5d6480U, 0x3d0243d43c5ba56dU, 0xbcd763833cea9a34U, 0xbcbe2586bd7863d9U,
  0xbda1a60cbc74499aU, 0x3da931523b920a30U, 0xbd97c71f3cbd476bU, 0xbb351b403c459b37U,
  0x3ba6b20bbd902154U, 0xbd5041213ce830edU, 0x3d884fb63d5cff6eU, 0xbd578fb5bd090a21U,
  0xbce4f136bd96e608U, 0xbd64ada5bd071a6aU, 0x3b90bed83d7228dbU, 0xbd3c46f23d91fdb9U,
  0xbd9571e8bc4dd8e0U, 0xbcb6553e3da01cafU, 0xbd07538cbba60688U, 0xbd0cc5bfbd595477U,
  0xbcf33c163ca82e5aU, 0x391468483d9bed5fU, 0x3d7f7ee2bdb76b85U, 0xbd584522bd90cee3U,
  0xbd4dfa7e3cad4d0bU, 0xbc48592bbda84de2U, 0xbbbfb959bc3f3e12U, 0x3d600e49bd819aa5U,
  0xbdacedd83d575ad5U, 0x3d702b103d78f0c6U, 0xbd2341953d951bd3U, 0xbd7ed7313d9cde24U,
  0x3dacdd403d10a3ffU, 0xbccad05f3d0746e5U, 0xbc8f30c2bd161f73U, 0x3da89517bd234707U,
  0x3d78494ebd8ddaebU, 0x3d65750bbd7cf744U, 0xbcc619db3cbe06c4U, 0x3af5dec0bdac96f1U,
  0xbda392873c695f0aU, 0x3d5639c9bd38b2a9U, 0xbd02a696bcec62e6U, 0xbc13e3b43cc92ab0U,
  0xbc48fe88bdab7f1aU, 0xbc796663bd63c051U, 0x3d7022f6bd2a22a8U, 0x3c25d320bdb45ba5U,
  0x3d54d3723da192bcU, 0x3db359d1bd242d58U, 0x3c98256d3cbfcec2U, 0x3d090380bd87e8a7U,
  0xbd551481bd3299ecU, 0x3d91f1963bc97225U, 0xbcdc1a393c9f3cc0U, 0xbd07dace3c93ee7bU,
  0xbb79eb80bdad2e7fU, 0x3da26c333d079940U, 0x3c392dfdbce5c5b9U, 0x3d7a9242bbeae47aU,
  0x3c2bbd333c7538ecU, 0xbd8113543d05b0a9U, 0x3c6daef4bb2f8380U, 0xbd33f358bdb39a3eU,
  0x3c87341c3d9f920dU, 0xbd20fed03c8c8d44U, 0xbbf40896bd7143eeU, 0x3d1aafe3bc6dd050U,
  0x3d06cac93c12062aU, 0x3d9df15e3d36ed62U, 0xbc87ec8d3d3530afU, 0xbca5bf0cbda8df38U,
  0xbc9fafedbd8af612U, 0xbdad99e2bd54f02eU, 0x3da36e31bd34151eU, 0xbd2111a03c3e3701U,
  0xbd81a36cbd30bf3eU, 0xbd72b3763d7118c5U, 0xbd847e4cbcf2e8deU, 0xbc297809bd558808U,
  0x3d70252e3d77931aU, 0x3d5e5f223cbb601cU, 0xbd5d7bee3d4b2514U, 0xbd785d793b84e3d0U,
  0xbd6cd3f73d1609dcU, 0x3ce12a5fbdb50899U, 0x3cc0a8103d92fe07U, 0x3d9b4b89bd6ef9e3U,
  0x3aa3ba95bd914c78U, 0x3cca9df33c8adb30U, 0xbd8fcb683d86f0beU, 0xbda39fd5bd9efd53U,
  0xbda642afbca473bdU, 0x3d802fb33d43964eU, 0x3c956016bd75e16eU, 0xbd937cfa3d76eafaU,
  0xbcd9d1c2386af46fU, 0x3d9adf9bbd540ba3U, 0x3da487e8bda81a05U, 0x3d1d8f36bda5a7e2U,
  0xbce34367bdb90832U, 0x3c77cf2c3da81e18U, 0x3d95bc0abdb0ff5cU, 0x3d6f5096bd788098U,
  0xbd5abe2fbd25754aU, 0x3dae369dbd8fc01eU, 0x3c87bd743c6685c9U, 0x3d0cc6b83d9e9777U,
  0xbc1bb5c83d963e47U, 0xbd97ee77bd8ab757U, 0x3c2001f73d610a11U, 0xbd4f886cbc1948f0U,
  0x3d9a7237bcc43783U, 0xbd175ad8bbd06538U, 0xbd4f628a3d1d1e61U, 0xbdaa4126bd84382dU,
  0xbd00bdfb3b1b6ed9U, 0xbda208ffbd8ae2b7U, 0xbd9e6fd3bc521677U, 0x3d9ac109bdb6a559U,
  0xbd21f7b93d955b90U, 0xbc447c873d6e7dd7U, 0xbd8288973d80d61aU, 0x3d030d1a3c359c19U,
  0xbcbcf99a3cd88cb9U, 0x3d9bfeb1bdb51e9aU, 0xbd5077033d01a7c2U, 0xbd50e992bd95abdeU,
  0xbda34b513d64d922U, 0xbd06e14bbd3a3bfeU, 0xbd9b7fb03c5640f0U, 0x3d597fd4bc869d84U,
  0xbd80c0823ce0747fU, 0xbda878a1bd71cbb5U, 0x3cf796f7bdb8ffb3U, 0x3daf6717bcfd1922U,
  0xba5d4b803cfd6ba7U, 0x3d864a23bd93c8bdU, 0xbceb09c0bd2506deU, 0xbc7da80cbd8700aeU,
  0xbc284160bd1ec9cfU, 0x3cf473803d566ef8U, 0x3d1402c73d5b78bfU, 0x3d9533f8bb6dd3f5U,
  0x3d8b6bfb3c8a5655U, 0x38ab865abd2b894cU, 0xbd60cd553d28f604U, 0xbda303fd3d070bc4U,
  0xbb5a514d3d9f2e97U, 0x3cd25f3dbc383332U, 0xbd5461e2bca7c1d5U, 0x3cd1d97a3d88fa6fU,
  0xbd65df73bca4a079U, 0x3c147117bcf54928U, 0x3c985ea4bd48926bU, 0xbd94834fbd9d24eaU,
  0xbd7fcaacbd61be4cU, 0xbd805773bda003dbU, 0xbd6e2bf53cc27c4cU, 0xbd15aa97bd80774eU,
  0xbe1fe2cebd2c9a84U, 0xbcc2d652be5687e1U, 0x3d60f289bd7e8541U, 0x3c0e0380bdf962a1U,
  0x3dba54ab3d0cdc8fU, 0x3cfd4af4bc2565cdU, 0x3dafc1aebd8d7eb2U, 0x3d276e823db3ce0fU,
  0x3d88f5cbbe6a70dbU, 0xbd347377bd639ec0U, 0xbd00300a3d8f1800U, 0x3da6c7733e06f289U,
  0x3ce2915c3d5f38ebU, 0x3d410aefbe90c5ddU, 0xbd091168be9237faU, 0xbd87c434bdd67c81U,
  0x3d8b214dbd9e9c39U, 0x3daabd2b3dc3c4a1U, 0x3d8839253d5fd04cU, 0xbd083bb3bce99dc9U,
  0x3da899833d27b035U, 0xbdc64bda3db51ac2U, 0x3d5d61de3d3d6e07U, 0x3d9c040d3d4f4364U,
  0xbd2f11c9bc2ef47cU, 0x3d85dc93baf0e116U, 0xbd6b0d9fbc6ddce9U, 0xbd8024783d6271a3U,
  0xbcdb63103d953766U, 0xbd8da46dbc6a161dU, 0x3d9b8a83bd9147c0U, 0xbdc43f923a6ff180U,
  0xbd8672053d158ec8U, 0x3d95ffed3c059158U, 0x3c31a1d43c0376b0U, 0xbd808e3e3d3307aaU,
  0xbe71550cbd152e8fU, 0xbcc0d71abe0ad66aU, 0xbcc69b12bdaf2327U, 0x3da446f13da72de8U,
  0x3be2038fbde564c1U, 0x3d36d606bd7cbd52U, 0xbd6b2e3e3d51fb48U, 0xbd1545603d912123U,
  0x3d8c6e2f3c86a91aU, 0xbd9e502abe349b98U, 0xbc464683bd22b542U, 0xba40ec973b69a76aU,
  0x3d8b3b943ba58b2aU, 0xbc113b8fbd491423U, 0xbd972bb53d529639U, 0xbe001b653cef4234U,
  0x3d9f6b403d961811U, 0xbe04a2c33cbc422fU, 0xbd95d33dbc7edc48U, 0xbdab9c99be073125U,
  0xbd67aa623cdfda1dU, 0x3cd437ec3cf01bb6U, 0x3d96d553be12d366U, 0xbd0412afbb595c87U,
  0x3d60a75abd342db3U, 0x3d69197ebd34e439U, 0x3d32f4693d313719U, 0x3bb8cd3dbe144190U,
  0xbd3774823d853de8U, 0x3dbf8a68beab81edU, 0x3d30e4813d73259dU, 0xbd81fe5abd8e92feU,
  0x3a1dd8073d171b9dU, 0x3cb973a83c721685U, 0x3d0314633be134a3U, 0xbd8164173d70ba46U,
  0x3d8bde5fbda95f97U, 0xbd2f58ddbd5df02eU, 0x3d445273bd526669U, 0x3d142bcabc2f003cU,
  0x3ccb9bf43c3c0f5eU, 0x3d018ddebe2c4021U, 0xbd072c2bbdd1fc4eU, 0x3d5c75663d42b682U,
  0x3c6f9e403d081b3aU, 0xbd0cdacabd92ba73U, 0x3bd145b93cde2e2fU, 0x3d8b11c9bd4e0da2U,
  0x3d31e224bd9cb584U, 0xbdd9e28dbbbf752aU, 0xbc91eb2bbc10de5aU, 0xbd39fc9a3d4605fdU,
  0xbd7d679f3c777383U, 0x3d9bd0943b82ce20U, 0x3d1cc50c3db2a54aU, 0xbd0bd4ce3cb0f6f0U,
  0xbdd6af6dbd671ad4U, 0x3d00a4223d69278cU, 0x3da09da93ce60d54U, 0xbd502ca83c0e6070U,
  0xbd4ce197bdad35e2U, 0xbd21ce273d29141bU, 0xbd5b5417bd2311fbU, 0x3d8588afbc7cadd0U,
  0xbe005feebb1ea136U, 0xbd0d8329bd196639U, 0xbd5017363c7bb786U, 0xbd1bc360bc35ed44U,
  0x3d3df081bc82ce5eU, 0x3c0e37ecbd8c8f99U, 0x39c649bfbd83ba97U, 0x3d02600a3dbe940dU,
  0xbdb02345bd164144U, 0x3c1050d9bdedb5acU, 0xbb1a7b913dc32f36U, 0xbced59143cf2cdf4U,
  0xbd6d0154bd3143e6U, 0xbd3dc30bbd545356U, 0xbd56cd5a3d75ef8bU, 0xbd5c3d673da0e211U,
  0x3cab7c99bc82bb13U, 0xbcaaf30fbc773e88U, 0x3d48abdebc71b206U, 0xbb50cff33d8ca07fU,
  0xbd6f65b8bc3a0e59U, 0xbc64d8d3bd8254f1U, 0x3db99984bd501ad5U, 0xbdd01d1dbc5b8961U,
  0xbd10cafb3d5c231aU, 0xbcba6dd83dc952a8U, 0x3d8666273db5363cU, 0x3d9dbbc9bdf6c1b6U,
  0xbd4352e73cda98e6U, 0xbcbe5f9c3dded1deU, 0x3ce740b83cdcf097U, 0xbd8cafc43c4a74bcU,
  0xbdd5b9ca3d0323a2U, 0x3d84b562bd84395aU, 0xbdd6dc0b3c7288c1U, 0x3d8ea4313d6e4bcaU,
  0xbc5007d7bc0ca55cU, 0xbd763686bbf06166U, 0xbd1240023d837a4bU, 0x3d8a2f16bd047970U,
  0x3c436dc0bd29617bU, 0x3cfcd1283deaa24fU, 0x3c9dc5ff3d56a916U, 0xbc8da0883d4dfd27U,
  0x3d3ca9a23d580ff9U, 0xbd785d05bc8e56aeU, 0x3d1633bb3dd81fbbU, 0x3da03b733d821271U,
  0xbd1a3cd43d8dad1cU, 0xbcec1bbc3de5099aU, 0xbd0f25803d73fbdaU, 0xbd0e76ecbce9a9f3U,
  0xbcf33c5bbc8840f5U, 0x3d390cbd3d647db5U, 0x3a56c3693d533c57U, 0xbdaa823b3d14836bU,
  0x3c9118923cd40d74U, 0x3c903f2c3daae2bfU, 0x3dc0d23ebd6ff2e0U, 0x3b8b534cbd5cae8fU,
  0x3d85b1d9bcdf8e70U, 0xbd67152cbcad37afU, 0x3d9f0c6fbd9358b2U, 0xbc86602d3d82b8fdU,
  0x3e3061e0bca2a64eU, 0x3d8a1771bc7e0127U, 0x3e0452cf3d297f93U, 0x3da0ededbba5bb53U,
  0x3d201c6c3dd7177aU, 0x3d5620ce3d8282b5U, 0xbd93c5f93cd4f9d0U, 0xbd68e397bb567f39U,
  0x3b8745403ce6a92eU, 0xbdb323d33dcb0aa4U, 0x3c224ef83c8f8ee9U, 0x3d2e2382bc216ba8U,
  0xbd85625f3d94fa75U, 0x3b7fd6dc3ac815acU, 0xbc087abebbdbe6f8U, 0xbce1515ebd4e98bcU,
  0xbd943c693d346a54U, 0x3c0a4caa3bdf9085U, 0x3d8879243d8e7e29U, 0xbd2f5ed0bd70c667U,
  0x3d14e7cb3bd96843U, 0xbd8937c8bcc4cd71U, 0xbd9466563d9fa11cU, 0xbd3522febcd5e8e5U,
  0x3d8fbe92bd3c698aU, 0xbdb33e29bce2ce42U, 0xbdc747393cdd8c34U, 0xbd49ad523be27ca6U,
  0x3db048a0bd6ecfa5U, 0xbd6353493cf5e98bU, 0xbe01afd03d582431U, 0x3cdfbc243d5ac2feU,
  0xbc1b2509bd88d87aU, 0x3ce668bd3dd2ae39U, 0xbd4eb72a3d580601U, 0x3d22af6a3da2fa05U,
  0x3d97b6823d0a4bf1U, 0x3d835839bd72b502U, 0x3d0d5ea23db8a8efU, 0xbc3ca1a0bd651cd8U,
  0x3d91748d3c925614U, 0x3d3a6a5e3d079a5fU, 0x3d170c553d1eaf91U, 0x3d89bd073d0b9ac6U,
  0x3d2244e63b8f7153U, 0xbcbcb5d6bd31dc75U, 0x3cfcb52f3d622b31U, 0xbbb16e70bc50fe38U,
  0x3cb5e8abbdde1ec7U, 0x3cc8c646bdad6becU, 0x3dc5c7233d821688U, 0x3d9a5eff3d0fd8e8U,
  0xbd8476f83d807f15U, 0xbcc7fa97bc30ebeaU, 0xbc4771d0bd32beddU, 0xbd91039cbd8b021eU,
  0x3dc47959bd8693cdU, 0x3caa48eb3c5f8a99U, 0xba08c1d23cbd8b04U, 0x3d021a62bd90dd5cU,
  0xbd8cc9863d9781ddU, 0x3d7914323d24c098U, 0xbc7400873d91df4bU, 0x3c9a53ed3ccdd578U,
  0xbc8450983d391211U, 0x3c04ebd73d6d03e2U, 0xba292269be051bacU, 0xbd5a8df53db3b1a2U,
  0xbd80202ebd53d520U, 0xbd3b2f96bd2d68ccU, 0xbd1d34ad3cd53d5cU, 0x3dcfd025bc837a20U,
  0xbd5fe5ecbd6cc1f9U, 0x3c74987bbcaed8cfU, 0xbb5eb3d0bb75f4bcU, 0x3ceec33a3ca4f2a2U,
  0xbccbbceb3ccc92c2U, 0xbe2a75a0bd5ee587U, 0xbda1190d3da2f52fU, 0x3d74c330bbb029f0U,
  0x3daebe23bc2c513eU, 0x3d955dfabbb84521U, 0x3c5c51d8bd14e7aeU, 0xbcd225263b88a0aeU,
  0xbd1eddf4bd3854a5U, 0x3d4ab6663dad4671U, 0x3d338e2abdb1e367U, 0x3d5161973d06024dU,
  0xbd08fb29bc492b47U, 0x3c581ea5bc4fa2aeU, 0xbb0faaeb3d1f46e6U, 0x3d247f48bdc09ae5U,
  0x3d909a7ebd4650fcU, 0x3b8a990b3da8b07dU, 0x3c94cdb43bd0dd00U, 0xbd0eb1ee3cfe016dU,
  0x3d4f67fdbda357d4U, 0x3ba3b8173aec6605U, 0xbdbd4f6b3d6642d0U, 0xbc9a106cbd87d940U,
  0x3c8340d53cc8e66eU, 0xbd0b7cc4bd41991eU, 0x3ca79e9e3d9e0038U, 0xbdad531fbd9d27eaU,
  0xbbc852a0bd6a3958U, 0xbd74bb293d1b8349U, 0x3d3444be3ddec417U, 0xbb7b74603d6d39e9U,
  0xbcad05b83da48cdeU, 0x3d8e8e09bd8f96e1U, 0xbc910c6e3d836474U, 0x3c234018bd0d7ff3U,
  0x3ce48a45bd068e51U, 0x3dc1d26d3bc5819eU, 0xbc9612fa3d3195fbU, 0x3d9f9b99bcb2884fU,
  0x3d3672e0bd046e29U, 0x3dab28d4bbf413b8U, 0x3d3cfd2a3d866957U, 0x3b8574d0bcf4453eU,
  0x3dcdadc1bd7cda29U, 0x3d5899223d8fd5e7U, 0x3da5e1b5bd8e8336U, 0x3da68ea63d0e34feU,
  0xbd0be698bd57b9d8U, 0x3d8bc95f3cc5f0f4U, 0xbd57ff8cbd801eb9U, 0x3dacdd473d779e9aU,
  0x3e437856bca1c7ecU, 0x3d4d19483dc73ce1U, 0x3d0a8a9d3d927f38U, 0x3d903649bd0eb9fcU,
  0x3d85e1b03e06b431U, 0xbd1574a93d9c443cU, 0xbc4e618ebd4b6211U, 0x3c0ccae03d36403bU,
  0xbd830073bd6fbd86U, 0xbd94af63bbc72951U, 0xbd95617d3d96f23eU, 0x3dc6eba4bcf22401U,
  0x3d1b374a3dcadd7cU, 0x3e0a8dd6bcd2ef42U, 0x3c92e81d3d80d826U, 0x3dd2ba2c3db2c297U,
  0x3d508408bd9ced21U, 0x3d9e4681bdc82023U, 0xbcb8ce063d8709b5U, 0xbb1533d13da617a7U,
  0x3c3e8fffbd601011U, 0x3d90c7363db86cd1U, 0xbd4edea73deeba42U, 0x3c610471bd9f5c56U,
  0xbd6d0b29bc3d05c7U, 0xbd7b37e43c983ca6U, 0xbd5d5ec8bdb4ef3eU, 0xbdb2ee263d353325U,
  0xbe7bcfeebd90763dU, 0xbd3d77aa3e537724U, 0xbd2cb8f5bb54b960U, 0x3d8c969bbe364e48U,
  0x3db44c67bd59321cU, 0x3a97b4df3ca0bb21U, 0x3d331f85bc7c134cU, 0x3d6b33563d1402c2U,
  0x3d1f1acebd1d52d9U, 0xbe7328333df29950U, 0xbdbcf77cbc819c29U, 0xbcaa8314bd96f912U,
  0xbc98dd70baf74831U, 0xbdeb53653e28438cU, 0x3e22e9e43d1710dcU, 0xbc8d3b783dc0658cU,
  0x3c9c0ad83cc65b44U, 0x3d8fd7e93c31c2c6U, 0x3d7df1a73d3b8f78U, 0x3c1938e8bdc4d537U,
  0x3caccc2e3d11472eU, 0x3d850a823d30a276U, 0xbc7b0ea0bc7603ccU, 0xbcfe2fe0bcccbc2fU,
  0x3d0c9b48bdab0075U, 0xbe1b788bbdf14abeU, 0xbd8a3bc7bcd11515U, 0x3da0c6613dc8a2cdU,
  0x3d3c62cebd3bc587U, 0xbe380c79bcae1479U, 0x3c6ea5ff3af28880U, 0xbd7a5c5e3d425e26U,
  0x3dae102bbd61345fU, 0xbd92d77abc675b2cU, 0xbcf7a047bc87f0e0U, 0xbd4d8151bdb3c1d4U,
  0x3e5a8f553d384bd2U, 0x3d3d627e3cb0711eU, 0x3b943ae03d5c61b1U, 0xbd54a2053d57c3e0U,
  0xbe98f5f43dc77fc2U, 0x3dde3e71bd0e6888U, 0xbdb46c6c3cbbf840U, 0x3c61c5c0bc8bca10U,
  0x3d8636f1bd5e3a15U, 0xbdbc40473de560bfU, 0xbd9620433dad10fcU, 0x3d9e914f3da7387eU,
  0xbd3a76d23d27f93dU, 0x3bcba01c3cf1f9d2U, 0x3ca2a810bd0e7b57U, 0xbc1e03ad3daeeab1U,
  0xbd15c0e0bd993835U, 0x3cea2c82babf32c7U, 0x3d50225a3c8a1587U, 0xbcce1edfbd0d954aU,
  0x3cdffeb53d7541bcU, 0xbdabf4babcfdef87U, 0xbd389e713d0bb499U, 0x3c0108dcbdbfc412U,
  0xbcf9da343b5e5a44U, 0xbde86539bdcf57e1U, 0xbdd5ce0dbdd69797U, 0xbc88b7593e183e9aU,
  0xbd2aab853bcbe696U, 0x3cb4cf4fbda289c4U, 0x3cd5ab1dbb49c787U, 0xbceae0083b6b3b60U,
  0xbce38455bad225c4U, 0xbd2ff2433c868892U, 0xbd6e47be3d167da6U, 0xbdb0f722bd06a898U,
  0x3d9653e1bda15bdbU, 0xbdb1edca3d0414a8U, 0xbcb40019bd90f52bU, 0x3c9c8aee3d15fa8cU,
  0xbd97a36cbd86c7c0U, 0xbcda9d92bc223584U, 0xbd8136a1bc8c85faU, 0x3d09e1d4bd7a8c40U,
  0xbd073f353ca30aa2U, 0x3bf78ff03b92a666U, 0x3c5e5418bcae3990U, 0x3d50c2023d7032eeU,
  0xbce1fe993d0936a0U, 0x3d5b6245bd388d12U, 0xbd92630f3ce8c3acU, 0x3cb2863cbd4dc4e5U,
  0xbd802242bd20b96eU, 0x3a9a70183c11a0e1U, 0xbc55ab9e3ce73f8dU, 0x3b818690bda1b6c5U,
  0x3c8e3a8ebd05d98fU, 0xbd82d5623c4526fdU, 0xbc240cecbcb19c08U, 0x3abdf603bd8cb769U,
  0x3d62275e3dacf117U, 0xbd9b23b8bd1695ecU, 0xbdab9a2dbcc1db20U, 0x3d5ffa5ebca8d8bcU,
  0x3d2db2193ce7a318U, 0x3da75ff33d71a9bdU, 0xbace656f3d896f0cU, 0x3d498152bd843407U,
  0xbbe339003d1c49b1U, 0xbd9e82febd98c7c3U, 0x3d6bc0c43db24193U, 0x3c4563fabd926a4eU,
  0xbc0479f03d840f6dU, 0x3c4d7ec83d4fe71fU, 0xbce95cf9bd872277U, 0xbd4104a1bd1772e8U,
  0xbd6ce56fbc646f13U, 0x3d6a29043d4f177eU, 0x3c989b08bd956398U, 0x3d1270403da212fbU,
  0x3da819b1bba4ee2fU, 0x3d50813cbcee4436U, 0xbd8a59643d298814U, 0xbc7eb3d43c101127U,
  0xbda3c9643da066caU, 0xbd1fdd71bc686c90U, 0x3c037583bc88a430U, 0x3d15fdaf3ca2e379U,
  0xbda00405bd31babdU, 0xbb5cc8e03d45ebc2U, 0xbd84b2993d386360U, 0x3da71e9d3d3ed631U,
  0xbd15528c3d6feefcU, 0xbd1360ea3e1cd537U, 0x3ca4a39f3dc222d7U, 0xbd4ccd9a3d1957ebU,
  0xbd661c8bbd3129e2U, 0xbcaad7cf3dced2faU, 0xbe7b662b3d570d06U, 0xbd986dd0bc555ce8U,
  0xbc911d723d0d0243U, 0xbd53e7813d941234U, 0x3d6c431abd873793U, 0xbd14b4953d3e9c54U,
  0xbc5c5390bbe25d88U, 0xbd4b1a84bd3cd513U, 0xbe5997fdbd6caf5fU, 0x3d49c036bd602f22U,
  0xbd45e82ebbff8664U, 0xbcf63149bd1ab5eaU, 0xbd471c86bd6f3786U, 0x3d975003bd54e150U,
  0x3db5a1c33d9996a5U, 0xbe3c4d153dc2f263U, 0x3d7698673dae918aU, 0x3d0f42a2bd690f92U,
  0x3cf1a7d4bcbaebbbU, 0xbc8345263d1c1f65U, 0x3c61db0c3d5ec8ccU, 0x3d42f1e23d285ed8U,
  0x3ce2e8cfbd0dea06U, 0x3b3abe4d3da67537U, 0x3de125cebdaea6ffU, 0x3c9068cc3d5f4e16U,
  0xbd1c6b42bd39bffbU, 0x3da7d9803c8a02caU, 0xbd1f23a0bd617d24U, 0x3dd954e23d056534U,
  0xbda48a8c3d16ff43U, 0xbd9b42b2bb8f8197U, 0x3d912e853d370ae2U, 0xbd240fcabdbb6322U,
  0x3ca1bbe83c032417U, 0xbda791323dd79f81U, 0x3d217b8cbcd4c8ffU, 0xbc587537bd89163eU,
  0x3cbc1450bc1697f4U, 0xbda95f8abcecca2fU, 0x3d911858bbaa3901U, 0x3cd0d244bd38a076U,
  0xbd7f9e843d307854U, 0xbe1ef97dbd9120efU, 0x3db7e5cf3d8b13f8U, 0xbd1ccbe3bd986380U,
  0xbd0bf0083b20a672U, 0x3d7fca103b53ad20U, 0x3d046cb4bc054ba8U, 0xbbc9d6e3bd98d36bU,
  0x3d7630b6bdbe21d2U, 0xbcce4b153db79d6eU, 0xbd50e1363c30091cU, 0xbc82265c3d29cc7aU,
  0xbd973765bcad0d5dU, 0xbd051731be13c164U, 0x3d0564c03c5a4899U, 0xbd3ceaf33dc6a6baU,
  0xbdde1762bc0ee1c1U, 0xbbce8b79bead231cU, 0x3d13e09c3d90639aU, 0x3c609f28bcbb8f64U,
  0x3d8a19243d8e0305U, 0xbd97c03cbc1a1ed5U, 0xbd07b937bd129c8bU, 0xbb20b8c0bd972261U,
  0x3c96b3f8be7af0aeU, 0xbe26c051bdf215a0U, 0x3d2d28dc3d800f57U, 0x3dcf2fe23e57729aU,
  0x3d77394e3d7991a3U, 0xbd5fd5dbbe66e597U, 0xbd24afcebe7902bdU, 0xbd704702be48c07eU,
  0x3bf0c8d0bd8c2503U, 0x3c833c8c3d857627U, 0x3d848aa23d0c553aU, 0xbdb40b2e3d695569U,
  0xbccffa6bbd9134d6U, 0xbd92848a3d8b7858U, 0xbd54e0b7bc99008eU, 0x3d020398bd580c9dU,
  0xbd5ce77d3dbc4b50U, 0xbd8512febb87aaa6U, 0xbdec29f83da66b3bU, 0x3d34b6123d8665cbU,
  0x3cba38d83cb8c6a6U, 0xbdd9fddb3c84686cU, 0x3d14a0003cd50928U, 0x3cd001e5bd6a90c4U,
  0x3c8391883d456a16U, 0xbd312343bd3c1669U, 0x3c51be833c4809b3U, 0x3d95ebb93d066056U,
  0xbe4ef1bebc6c11f3U, 0xbd89fe7ebd9db519U, 0xbda77ec0bc144326U, 0x3da77be33c7fb53cU,
  0xbdfee3ddbe2da26eU, 0xbd666e603da67c13U, 0x3d1289a13d7c1f63U, 0xbda5d5bd3d1ee9f2U,
  0xbd81d9903db0d495U, 0xbce5ec6fbdf041b1U, 0x3dbfa0e43da22961U, 0xbcb8e0ef3c485f6dU,
  0x3db86e053c4bcbf5U, 0xbda88430bd24b661U, 0xbd9eb376bddc7fb7U, 0xbe004d243b440040U,
  0x3daf1c023c01e47aU, 0xbde13efb3def627bU, 0xba15bd00bd9bbf7bU, 0x3d076d5fbe2c0f86U,
  0xbd05fe8dbc5fbf7dU, 0x3d89a45e3d116346U, 0x3dcf27fabe68fb6cU, 0xbde64a163c9be05aU,
  0xbd67c29d3c980631U, 0xbcda6782bb817e74U, 0x3d9b58ca3d813d02U, 0x3c7787d2bba3bbe6U,
  0xbdbb66a23b00b352U, 0x3aca4f323de16314U, 0x3c9c9cfc3d89b428U, 0xbd0351753ddaace1U,
  0xbdcaa59e3d202fffU, 0xbc658e56bd90c460U, 0xbd68bfc53d8bf906U, 0xbbed6950bd9bf870U,
  0x3cfc2e683c1140b1U, 0xbdbc5072bc5baefeU, 0xbcca57d7bca78548U, 0xbc333d28be1e95ebU,
  0x3d9f5e793d9aa3fcU, 0xbcac055b3db8e903U, 0xbb052a2b3dbcf9d4U, 0x3d71f82a3b3bfeefU,
  0x3d1f89be3d4768a2U, 0xbd6605c43d3fe921U, 0xbdb12eecbc53de58U, 0xbc524a90bc29ddf2U,
  0x3b5f68ca3dcae298U, 0x3db1e5323c3bd1daU, 0x3cca6f31bccd857aU, 0xbdb17ebbbcdedc5cU,
  0xbd8b9c833bc82d24U, 0xbd152538bd3f3cfcU, 0xbd3fb4733cc358deU, 0xbc6128d0bd08c7dbU,
  0x3dac7fccbc9fc885U, 0x3dbc34293c5df5ceU, 0x3cc44ece3db1515dU, 0xbd82866b3d60749aU,
  0xbd0d53cebda1b483U, 0xbc1081c8bd7da6eaU, 0xbd2cc0253d42a0dcU, 0x3c81f895bd404b75U,
  0x3cf4b46ebd3a6897U, 0x3aa86ae8bc301d31U, 0x3d1b04f03d0f5afeU, 0xbb1f3440bd76db19U,
  0xbd8afd7f3d9e14d5U, 0x3d9b3bdfbd5a58e3U, 0x3c030ad23c16dacaU, 0x3d7c88113daaf965U,
  0xbd471a883da28a85U, 0x3ae008a53d23a883U, 0xbd06583a3dac2fa8U, 0x3db5bbbe3d1d7945U,
  0xbc7571a53d4699beU, 0x3ddc3499bc852990U, 0x3d28a67b3d418f43U, 0xba426f483dae7165U,
  0xbc77dbe7bd51c221U, 0x3d8f4c1bbca79859U, 0xbdaabc10bd8fb05aU, 0x3d8abeed3d793576U,
  0x3ce070853c0d09edU, 0x3dbf137cbd0fb3d0U, 0xbda54c883d059274U, 0x3c2f8ac03d34c226U,
  0x3db696bd3d043ac7U, 0xbc8c97733cfca7bbU, 0xbda5ce43bdca5413U, 0x3ca2f2d53d0d8a05U,
  0xbd9f65163d8a00fdU, 0xbc998b36bd13f0a3U, 0x3cc2c1713ca8b344U, 0x3da6b497bd89b51bU,
  0x3d7bfeaebd69afd4U, 0x39be7fdd3da14f85U, 0x3d955bcfbd8f906fU, 0x3d8d3a9fbd9ba40dU,
  0xbcb49f7cbd678085U, 0x3c911b4fbcfd4239U, 0x3d42fafc3d964dfdU, 0xbd595fb1bd03c7cdU,
  0xbd5b1cea3c433198U, 0xbc10f2e8bd4a5ad8U, 0x3d8477ffbcb92463U, 0xbd8732203d6d1e2dU,
  0xbb1be9003ca92cdbU, 0xbcb9b2543d6ef908U, 0xbd5e7d3e3d48bc7fU, 0x3da369b7bd183845U,
  0xbb7cdc333d0750aaU, 0xbd500145bbc77509U, 0x3d5122d5bd4b1e86U, 0x3d79a2e6bd0f0a51U,
  0xbd880bc23d43ba01U, 0xbdc03eafbdb6e156U, 0xbd8e03a2bd33f9deU, 0x39ef4a003d99e211U,
  0xbc738d35bd8567d3U, 0xbd4941f639a6aa91U, 0xbd9c7819bd9fbd1fU, 0xbda96175bcf2f1aaU,
  0xbd9d9031bd2980c2U, 0x3b1ecee0bbbb91adU, 0xbce86c8d3dade8f6U, 0xbd03ce85bdab9cdaU,
  0x3d5caa0ebdaab7deU, 0x3d1cd3693bed6138U, 0x3c35842b3ce89686U, 0xbc983e78bceaa431U,
  0xbc88c0e7bcd9f537U, 0xbba13145bd616695U, 0xbdb025743ccffaccU, 0xbd811a41bd68eafdU,
  0xbd0880093d5c031fU, 0x3da527933ccbaf2cU, 0xbd0003383c0515c9U, 0xbbc507e8bdad001eU,
  0x3c0da5033b11ad11U, 0xbd5b3b9abd93b106U, 0xbd9d021cbc1def08U, 0xbc22088cbc5fd858U,
  0xbdaeeba2bcc16dd0U, 0xbd577c3a3bf26d94U, 0xbd9ae5703a9e373dU, 0xbd9be021bd5e56e5U,
  0xbd4f8a5b3d73732aU, 0x3d862b92bc7be674U, 0x3cf28d58bda7fc5dU, 0xbd7545373c0bf7c9U,
  0xbdb77ff3bdbeee49U, 0xbd8801e13d27e026U, 0x3bef50be3cbf0058U, 0x3c6d9e2b3d789affU,
  0xbda9a9ad3d2089a9U, 0x3c356bf43e1fc659U, 0x3d1e64133d2a0919U, 0xbd8e18803d06d23cU,
  0x3cf45f5abc3adb3eU, 0xbd7dc9f0bcb60dc4U, 0xbd6e3b5f3ce6a2baU, 0x3c9339183cd454e4U,
  0x3d8a32023d3d8ae0U, 0xbda1269d3c598165U, 0x3d9c080dbd47c5b7U, 0xbd148421bde3c9f9U,
  0xbd8b954e3d8ce457U, 0xbc8cc99cbcdfed5fU, 0xbe25214cbd57b490U, 0xbd613a59bd982091U,
  0x3d6575bebdab08aeU, 0x3cf814643d8109ecU, 0x3d0a7253bc886321U, 0x3d5ff78abbf46b03U,
  0xbd3207943d5809d7U, 0xbda2b101bc7ac302U, 0xbd5a9d223d71fb73U, 0xbda2987a3d56116cU,
  0xbd07ef46bd99860fU, 0x3db46abd3d2d8617U, 0x3ca10c0f3d8c5f33U, 0xbc93b4403c5e19adU,
  0x3d7b1be43dc5ce8bU, 0x3da5db583dbe72ffU, 0xbd00158d3d07d54eU, 0xbdcddd17bd647445U,
  0x3d6857523d3aecdeU, 0xbd841233bbc8a1d8U, 0x3d89c8533cd5f59bU, 0x3d1e5545bd9ece7cU,
  0x3e218e61bd58a3dbU, 0xbd68017e3d21285aU, 0x3de54f823dbac567U, 0xbcf0312a3d0bbbc7U,
  0x3d8315c73def94a3U, 0x3c9a3fc53d8b31fdU, 0xbd194f62bd86a021U, 0xbd833ac6bc71fcf9U,
  0xbd57bff43cea6cc3U, 0x3d3f52193d4aaa7dU, 0x3d45feddbb936b86U, 0x3d2fe538bbb707c8U,
  0xbda1b8493d0988f7U, 0xbd8104c43daa029fU, 0xbd051802bd2de28fU, 0xbd97fbf33d4631eaU,
  0x3b4ff6a73c32bbb0U, 0xbd5d1965bde1f259U, 0xbcc91ea33d944c7bU, 0x3c18f8e1b96578f9U,
  0x3d12b07c3d481f60U, 0x3dc7c6273da0549eU, 0xbd4c4b173dcd3384U, 0x3daa85c53d938592U,
  0x3af8b4bdbd4c1a96U, 0x3c608ae7bda26829U, 0xbd82921bbd9e8dd0U, 0x3c2d13f13dcefaa0U,
  0xbd907c893d4e38a9U, 0x3dd88aa53c072bbcU, 0x3d9ed0b73cbf474dU, 0xbcb34c00bd015173U,
  0x3bb7ba98bcea4713U, 0xbbf0dc67bd1fd659U, 0xbd723d5d3d58c377U, 0xbd50a28fbd611f91U,
  0xbbb2f2bd3db81a1fU, 0xbd192bdfbda011efU, 0x3db65d6abd16ad7aU, 0x3d4a20a53db5ad9bU,
  0x3c6c2c60bd09f1acU, 0x3cf4c9febd29ded9U, 0xbe2e20b1bc15c599U, 0xbd49c39fbc8f7ca7U,
  0xbd980d7bbd72aebbU, 0xbc4d67e1bccbc5e5U, 0xbd974905bcf0ca4bU, 0xbd62e3823d88abf0U,
  0xbcacd6f53de431ccU, 0xbe2338ea3dcff0abU, 0x3c6b24d6bd827017U, 0x3c3aa168bd2c5675U,
  0x3d99861f3d635f78U, 0xbbb9ebcb3d158ee4U, 0x3d130d663dc547d1U, 0xbcb15688b9e9d3d2U,
  0x3d2cd19b3d19eb66U, 0x3dba99a93d862483U, 0x3d9d5685bd4aafacU, 0x3d8ac5143d7c552aU,
  0xbdab09e43d87860fU, 0xbda4e69bbd7dc695U, 0x3dac51cfbd00f6efU, 0xbc031a6b3d8c943bU,
  0xbe2c22183d533c63U, 0x3bafb87d3e0caab9U, 0xbc02cdd0bd73687dU, 0xbd8bc6d13d2633c0U,
  0x3d3541f33d7c3f93U, 0xbdc236f93ae79ea6U, 0x3d719ec13d5832fcU, 0xba938b86bc64b203U,
  0xbcc056d4bbe10ee6U, 0x3d71f431bde4cfb0U, 0xbd8f8672bd94a111U, 0xbc9df7f03d81b32bU,
  0x3cf3dbc83daadc70U, 0xbc22b952bd8b27c0U, 0x3d6f198abcfb891dU, 0xbd86ed8d3d9ddc11U,
  0xbcb2e290bd7838fcU, 0xbd3715fabdeef825U, 0x3b9717ca3d60f7baU, 0x3d22f97b3baaea77U,
  0x3d91faf5bd1d9597U, 0x3bcc8c6dbd90a52bU, 0xbca85fcc3d88a197U, 0xbd7ab51fbd10fa50U,
  0x3d2018cbbc16f43aU, 0xbd556dbebd67a39fU, 0x3cb607593d351f4fU, 0xbd33c51d3dd9e561U,
  0x3ca95c403daec3f0U, 0x3d8c20a53daedee1U, 0x3d0c7fc13d0788c7U, 0xbda8fbb8bcc12d12U,
  0xbd900134bca05923U, 0xbc9d4e373d824b17U, 0x3d7b4aab3b812c91U, 0x3da6fedb3d018c26U,
  0x3d56d0a5bc5ce9dcU, 0x3d0f9393bcc65e0bU, 0xbd8f0da3bdc4df41U, 0xbc6e3fddba9d3d6bU,
  0x3c2e66c03d80002eU, 0xbd45c3363da56d3aU, 0x3d17262e3d8c7f12U, 0xbd9c08b73d2c1aa5U,
  0xbc9dabacbd09f56dU, 0xbd26d6433cbf56d1U, 0x3da9087d3ca6235dU, 0x3d9c74953d1a44a7U,
  0xbd8b9cbd3d8d3e8bU, 0x3dff926e3cd101ddU, 0x3cf5c7da3c8e1816U, 0x3cf9ce3439d2a990U,
  0xbc87700e3d1d1504U, 0xbbda000a3bd7b68eU, 0x3d94431a3c000c43U, 0xbd036aafbd293ea2U,
  0xbcc0148abd14235eU, 0xbdb6a34f3ce2b667U, 0x3cc0f080bd7d3b02U, 0xbd08b5a53c9014d0U,
  0x3c516e483c68d8a8U, 0xbd346cdb3dee379bU, 0xbd4c59e3ba8b93a8U, 0xbd0a6e433db34749U,
  0x3d84bfbe3cf6f319U, 0x3dc5f42a3dcc21d8U, 0x3d486aadbcd3e392U, 0x3d8144193d19ade3U,
  0xbde1af82bc190af4U, 0x3dcaea363d0e52afU, 0xbd8d3d893cdfade0U, 0x3d7b00903d4b727bU,
  0x3d3d833ebd409bb7U, 0xbcf905cc3c48aa07U, 0xbdab3cef3dbfd3c4U, 0x3da7944b3c87df87U,
  0x3d48170ebc86b250U, 0xbc85ab0abd09e819U, 0xbd9f0f5c3dcf5b60U, 0x3e036153bc569270U,
  0x3d9f7aed3d038b35U, 0x3d0cec4e3d5c6f36U, 0x3ba504523ce5b96eU, 0x3cc83a893cba42c3U,
  0x3d9a0c40bd208651U, 0xbcf1f4b6bd4f6f7fU, 0xbda121f9bce137eaU, 0x3d776d923d238ccaU,
  0xbc8e47dd3d070772U, 0xbceea481be065252U, 0xbda54596bd808346U, 0x3d80ac973dcc054aU,
  0xbda515b33d820934U, 0xbca9f3cf3e1cdaeeU, 0xbc16d685bd924dbcU, 0xbcde81f03da4cb6fU,
  0xbd2ff522bd10528eU, 0xbd44e2d93b9bb17fU, 0xbd1bc8f3bd4e989bU, 0xbd67085e3cc18ce0U,
  0x3cfae6803d21313bU, 0x3ca8a59e3c71ca88U, 0xbdb42cf43d36480cU, 0x3d815760bd2606ebU,
  0xbd8dd0fdbd27b3a6U, 0xbd9dd7673deb8bb4U, 0xbd087f373e11b0bdU, 0xbd119142bd8edba4U,
  0x3c3de7a83da38073U, 0xbc1bf0203bcdef29U, 0xbd8c03d1bbcb5f31U, 0xbd96624dbcd88fa4U,
  0x3d6bbdd33dbb81eeU, 0x3dba1f71bc0bf58fU, 0x3d84f48c3d71543eU, 0x3d102982bd36d9dbU,
  0x3a82471fbd13682eU, 0xbca16bdc3ca1080dU, 0xbd1ca0b5bd5b0cf8U, 0x3ca5e0083d1a7fbfU,
  0x3dc5fe32bd9fd9cbU, 0x3d915847bd72841dU, 0x3deb76053d838fefU, 0xbd82480ebd93579aU,
  0xbd9eb113bd6c97d6U, 0xbd84cda63a3fb932U, 0x3d1620ccbd71baf9U, 0xb8cf55823c12f8c0U,
  0x3ce0b7fabd393500U, 0x3c96adff3ddb2b6fU, 0x3ddfcc163bcab7d1U, 0xbba71d603d8261caU,
  0x3cea8a3f3e1850b1U, 0x3c86a476bd95ccf7U, 0xbde06c4a3d6f5125U, 0xbc6f9c9bbd6f4f5eU,
  0x3d91965dbd977d6fU, 0xbded567f3ddf0783U, 0xbd8046cc3dac2448U, 0x3d760a30bac36164U,
  0x3d2a3b6bbc341ab0U, 0x3d4440d43d8a6561U, 0xbd7f2232bd5fd284U, 0x3d5fc28b3d93c1ffU,
  0x3d0f1fabbd32f352U, 0x3ce9a5dbbe1b9963U, 0x3d9afe84ba8c5f47U, 0x3db5f9a43cce2519U,
  0x3d9e3079bd4c8926U, 0x3cd74ef93d8dd35bU, 0x3cefe9743e202a77U, 0x3dc0e3ddbcd19966U,
  0xbd67ac6bbd0657ecU, 0x3be4f19abd8f9eecU, 0x3c9ade3dbdb95882U, 0xbd9e46313e0eb85bU,
  0xbd84ecee3c923babU, 0x3c02df8abc5d4b02U, 0x3daedd933d8466adU, 0xbd8593803e119761U,
  0x3c85e7453d3e19b3U, 0x3b409bb2bd3724cfU, 0xbd3b04303daea60bU, 0xbd85dab73c907fbcU,
  0xba612380bd7129ceU, 0x3dd3a0d13de9f445U, 0xbd1753ae3c693cbdU, 0x3cb4cbb9bdf44fc3U,
  0xbc0c63183d8ff24fU, 0xba88b0993d9ed9ccU, 0xbb655ebdbc8f4e52U, 0xbcc304903c130aa5U,
  0x3d89a499bd5ea764U, 0x3c2f5d40bdb0aeefU, 0xbd1bb1c2bd9cce1dU, 0xbd0cdf133da3c1bbU,
  0xbd558162bc63e897U, 0x3d70fd45bd81fc8dU, 0x3d513937bcecbc00U, 0xbd9dbfe4b937234fU,
  0xbd02e8703c756564U, 0x3b9aa179bd5a2963U, 0xbd283d603cb4847dU, 0x3daf88eb3c55bbf8U,
  0x3dc58c53bd9392bcU, 0x3d7eefd1bdc809a9U, 0x3dc30d033d8db42dU, 0x3d935a90bd123118U,
  0x3d2b2022bd8b00d4U, 0xbc95f32c3d8ca305U, 0xbd823ecdbd04fd8bU, 0x3cf273a53db2e063U,
  0x3e099122bce6c35aU, 0xbce3af813d8845b5U, 0xbd16ef923c3cad19U, 0xbce4e84e3bfaecd6U,
  0x3e29d1163b5e3d19U, 0x3cc4fd1abc9d36b2U, 0x3ca7f518bc862fb7U, 0xbda3ed80bd880928U,
  0x3d1c6ab2bd9cfb2eU, 0x3dba826b3d7b31f0U, 0xbc3d3a223d4a5ebeU, 0xbc82ce153ca1b87dU,
  0xbd63d3f33da507daU, 0x3da772be3d9d607fU, 0xbd078d7fbc31434cU, 0x3e32bb613c426d30U,
  0x3dbfd31b3b6ce15bU, 0x3bde1c99bb32e6bdU, 0x3d97899f3c54a5e9U, 0x3919a81b3dcf2704U,
  0xbd832a933e013454U, 0x3d8b6454bd8b7293U, 0xbe0094d33d900d4fU, 0x3dc4c690bd5a753eU,
  0x3accbe003d364131U, 0xbdbae9aa3d8534b7U, 0xbdc58bf03b66beffU, 0xbda71080bc57bbb7U,
  0xbea79b363d10dbd9U, 0x3ca786953e23c85aU, 0x3dce8634bc8a3273U, 0xbac29700be7308b4U,
  0xbbc48a28bd623189U, 0x3d859f413b733509U, 0x3d1bcbbb3cb70bb8U, 0xbd897e3cbd984e3aU,
  0xbd1286943c4cb6a7U, 0xbe0b323f3db8b315U, 0xbdfcacf6bcd26910U, 0xbdc28ac8bd92ccf1U,
  0xbda56184bb936ceaU, 0xbd0bdb953da29a32U, 0x3e233c583d068f5fU, 0x3d7512a2bd8cba1eU,
  0xbda4ac94bd122aefU, 0xbd27c69e3ba41842U, 0x3db18a6e3c8d19edU, 0xbc414bb0bdc5a888U,
  0x3c876f883cec964eU, 0x3c44b4fcbdb43a28U, 0xbd6cdaf2bcf8e243U, 0x3db4549bbd02ffe0U,
  0x3d76947a3a691ab3U, 0xbe2bbe49bde19d33U, 0x3c8e82823d50f07cU, 0x3c7b13783cde5b42U,
  0x3c4a3382bd822ff4U, 0xbe72f4df3d93ffbdU, 0xbdc5b461bd3c575eU, 0xbd11df333d573f9eU,
  0x3d3d8eeabc2b0980U, 0x3d9893b8bb8c80d7U, 0xbcc9526bbcefc26eU, 0x3b103bdcbc998c50U,
  0x3e09cf763daf2135U, 0xbd26d473bd8af11cU, 0x3cd0ca6c3ddd7d96U, 0x3c2870c03b2032cdU,
  0xbdc93f043e29d12dU, 0xbbee7326bb16b98dU, 0xbd72d8353da0c3e3U, 0x3c86c0743cc7ce08U,
  0xbc83d7703da11271U, 0xbe5912133df46c47U, 0xbc9a53e8bd255ea9U, 0xbd9ce72d3c73eddeU,
  0xbdb77112bcea960aU, 0x3dff70ef3db30fbfU, 0xbd39a1713c6ea8f0U, 0x3e1315e7bc86a304U,
  0xbcc28447bd8214e6U, 0x3db9a4533d4f2cc1U, 0x3d5e5e5ebd816815U, 0xbcc95d1dbd689e84U,
  0xbd1e4f8a3b67c234U, 0xbe122d9e3d8a399aU, 0xbde41ee43dd5b52cU, 0x3b9fa4eebdc7c1c2U,
  0xbd9ecb9e3dba787cU, 0xbdd4d0973d852439U, 0xbe050da5be8aaacaU, 0xbc21528c3da86c30U,
  0xbe889590bd163eb6U, 0x3d8bff7d3cef758fU, 0x3dca2085bd6a2442U, 0xbb552e20be8208fcU,
  0x3ddb34993cd85239U, 0x3d70c98a3cfc7d5aU, 0xbb61ff17bce6fb41U, 0xbc88b8ecbc4e8128U,
  0x3d854bbfbd3f7824U, 0xbc86f4423dc91e40U, 0xbc67947ebbb86934U, 0xbd4b64b1bde7df80U,
  0xbd61afc3bbd309c2U, 0xbdc538563ded62e0U, 0x3db8ce9c3dea4e49U, 0x3da4744f3ad3441dU,
  0xbd74fd25bd2b71a0U, 0xbd94e4d4b8f945dbU, 0xbd5b019abbf56ad6U, 0xbd1501b7bd5b39e4U,
  0x3c686ec03c6b799eU, 0x3dcf53dabd9e1b34U, 0xbe06f9013d53e703U, 0x3c067428bdd3e7b5U,
  0xbda12e363d11da13U, 0xbddaf59dbdaa74e1U, 0x3d0cfafcbc96e837U, 0x3c8d83b0bbec9f37U,
  0x3d9bc742be1168a2U, 0xbe2240cb3d7a862cU, 0xbd0af5fa3d60045eU, 0xbb9857233d3c033eU,
  0x3ce4e1083c031038U, 0xbd24454dbd08cc1dU, 0xbde66cfe3d2fe6e4U, 0x3c31b1a2bdb2830cU,
  0x3d9864043d2c849fU, 0x3dab4e75bd7f4ad2U, 0x3c163edbbcc0bbdaU, 0x3dae1bbb3ddb535cU,
  0xbe3be2663d2bc4c6U, 0x3da5ef383b912244U, 0xbe235ad33d54c6baU, 0xbd9ca881bc0575d0U,
  0x3d661116bd68de13U, 0xbd7320ea3dc59b06U, 0xbddac7203a9ba500U, 0xbc22e8c73dcdf92eU,
  0xbccdb1f53cb07cc9U, 0x3d3b947bbcce3244U, 0x3d825f49bd6b99f7U, 0x3da100e9bd11ea62U,
  0xbce8fa10bdb8d7ebU, 0x3dd7431f3e0b4cdaU, 0x3c935bf4be033df0U, 0x3dfed769bdba5a1bU,
  0x3d09a6443d71137fU, 0xbdb641fabc8caa4aU, 0xbe10667a3de2d8c8U, 0x3d63d9e3bdacbf86U,
  0xbda286a5bcb6b5d6U, 0xbdcd4783badb01d1U, 0x3cbe1f50be9113edU, 0xbcf990db3de7d32fU,
  0x3db144893dae0a1dU, 0x3bb47da0bc603570U, 0x3d8b57c93dabc9f1U, 0x3d0176f0bdab17c6U,
  0xbd9efba2bbd26290U, 0xbd7fbfc7bdacaf93U, 0xbdaa74abbd7c597fU, 0xbc92436c3d81dc75U,
  0xbda8e15fbd09521fU, 0xbd8910fcbce3aceaU, 0x3d2fd03abd234cc8U, 0xbd10beb7bd7ec7acU,
  0xbda5cb7ebd994143U, 0x3ce86248bc4fa548U, 0xbc9df1783d9cfc53U, 0x3d6e9652bd751267U,
  0xbd51b43b3d41b306U, 0xbc8d7110bd9cb1c2U, 0xbda386e33caa8c48U, 0xbd02fa463d8419f7U,
  0x3d8f4677bd162e47U, 0xbc9be63cbda7028bU, 0xbd8e5662bd2c9148U, 0x3d858d0dbd9b5aefU,
  0xbd49a3153d0bcde4U, 0xbd186c6b3d077cf2U, 0xbcc498fcbd369a47U, 0xbd9e30ac3ccf9e14U,
  0xbcbc7118bd78442cU, 0xbd9273cabc587558U, 0x3c0f73103d54b0b2U, 0xbd8987b43dacc4a7U,
  0xbdaeffabbd218aa2U, 0xbd66a340bd5b47dfU, 0x3dac3077bd831cbfU, 0xbd5009c7bda9e831U,
  0x3ca49f803ce1e8e0U, 0xb97c2c00bd0902b7U, 0x3d8e2f35bcd36de8U, 0xbc9deb14bd139d2eU,
  0x3d7f35bebd21fa88U, 0xbd186d333c6d7d50U, 0xbc4b78103d202352U, 0xbda5f4f4ba2fb880U,
  0x3d65173ebd922c5bU, 0xbd63a6d33d75243aU, 0xbdad9dd1bcfd9fd8U, 0xbd89a75d3d7856f2U,
  0x3d30af76bd8625c7U, 0xbc034f503d4cfd4aU, 0x3cfb291cbd8be2b6U, 0x3d720bfabd77213aU,
  0xbda8ddf5bd64d5eeU, 0x3d670276bdb365c6U, 0xbcf627da3d9eb9dbU, 0xbb75ada0bd9c9a13U,
  0xbda9e73abda1f439U, 0xbc8dcb583c542520U, 0xbccea7303d7c98d6U, 0xbd8854e53c52a4f0U,
  0x3cc58a48bc5c86c8U, 0x3d0eb0d43d50dfd2U, 0x3d9e0afd3cd0dca8U, 0x3d4d1baebd07240aU,
  0xbd99c98fbd0c48f0U, 0x3d4197b93e5df5ffU, 0x3d80d3513b9a715dU, 0xbd437ab8be383d60U,
  0x3b2c39d2bda33f27U, 0x3b538a063d47beabU, 0xbdbae5eebd2588d8U, 0xbd6bbcc2b962e800U,
  0x3dafca31bd713d03U, 0xbdb7c6313db1c39fU, 0xbd5afbc7be12f95fU, 0xbc46f6c6bd436243U,
  0x3bedb3f0bd5b68ccU, 0xbd25de4e3e1700faU, 0x3d8b60d93df7ba27U, 0x3c6e51c83d3a9363U,
  0x3d803711bd054ee1U, 0x3d25e552bd3b6323U, 0xbd97a3ad3d239ff7U, 0x3d09422cbd9d5c48U,
  0x3cece5103dd119e5U, 0x3c5522febd4424efU, 0xbd198a48bceef041U, 0x3ce6ed103d6f7066U,
  0x3b0cc857bb16a236U, 0xbe116ea9bdedf73cU, 0xbcac4f093d90a97eU, 0xbd5f263d3d7b02e4U,
  0x3dd033753c24d730U, 0xbd8223893d63fb3bU, 0x3abb94183cb24ef8U, 0xbd2f6b763c791ee0U,
  0xbd912cd0bc406b38U, 0x3d5ebb403d5cd44cU, 0xbd2160943d8f2c33U, 0x3cbb3e17bc1dc790U,
  0x3e7a36243cd2b5e2U, 0xbd4ba5e0bd9a4013U, 0x3d97633b3b9965e7U, 0x3db010393d059ea7U,
  0xbe5876513da95330U, 0x3d6ca60a3cd403a4U, 0xbdaa17d83d1bd11aU, 0xbda8ca34ba9dbd71U,
  0xbd80c97c3d0566e2U, 0x3c79ba8e3e38594dU, 0x3d2b39013da7c668U, 0xbc29e4a4bb7d6efeU,
  0xbd401b9a3d05a561U, 0x3d1a9108bd8976d8U, 0xbccba100bd82318dU, 0xbd09e11ebc5ee7e8U,
  0xbded29a1bcd0f4f6U, 0x3c268bea3c0257cbU, 0xbd14bf6c3d2a8e2cU, 0x3af13a53bc3e0562U,
  0xbd406fc93df4b45fU, 0xbba499c5bc5367e3U, 0xbde0c514bccdb1f3U, 0x3b975e773d10a1feU,
  0xbd6863883c0c894cU, 0xbceed538be093442U, 0xbdfe4a3cbd372f3eU, 0x3d025b473df81e6dU,
  0x3c986599bca6e23bU, 0xbc5625723e7966e6U, 0xbcca4ac13d911800U, 0xbc37cb08ba72186aU,
  0xbbde299abc9ef68fU, 0xbd1a0b7dbd4c5356U, 0xbdcea65e3cd23518U, 0x3c6642183cc119ccU,
  0xbda928803c850b9aU, 0x3cd675863cf62e41U, 0xbd90b449bc6d43ebU, 0xbde98e623d0dfc5aU,
  0x3d0c92e83cdd40b8U, 0xbd0b56683da7dc74U, 0x3db2e5c2bd4d93d8U, 0x3c5584b03d9c0f77U,
  0xbc3b0860bd28a47bU, 0x3d98d434bd8806e2U, 0xbcbef3debd792baeU, 0x3cde59b43d36abb0U,
  0xbd4e9e193cb74654U, 0x3dcda546bd1bd3f5U, 0x3d93006fbba495e0U, 0xbd0413893d70ca29U,
  0xbd7e50dc3da9ac57U, 0xbd5b6e6ebd8c0b38U, 0x3d0740a7bd603f7cU, 0xbda877a1bc0ec8f8U,
  0x3d8700913bd75184U, 0xbb8bc71abd0521feU, 0x3c26087cbd06c00fU, 0xbdbfd4c43cd92374U,
  0xbc1560b03b1c1a60U, 0x3b38ee103d9b968bU, 0x3d1f74b9bd7deb5eU, 0xbd2b81433d608b2aU,
  0x3e11ddce3d69e194U, 0x3dc74f9cbd9fb742U, 0x3de77eaf3cb9bf81U, 0xbdaaa4e3bcfd0461U,
  0xbd11bcc93d0b6f36U, 0x3d29efe53daa7d72U, 0xbdb23a5b3d9f4f9fU, 0x3db893933d7520f3U,
  0x3d245336bc8ee4f9U, 0x3d565d513e101ad2U, 0x3d8df9ce3d8cb88bU, 0x3d7096c8bc440692U,
  0x3d9f4dcd3de8dbb3U, 0xbd4327af3d007342U, 0xbd3c9f0cbb521ebcU, 0xbd43e59a3d73c892U,
  0x3d0f057cbd09b259U, 0x3d7c5ff93de635beU, 0xbc524aa03d83763dU, 0x3d59b3c6bb8c06c0U,
  0x3c8052633db95d48U, 0x3c16e28e3c63ee84U, 0xbd1cb9bcbcc60ca4U, 0x3d3f8e073d0a808cU,
  0xbd4d81713cb06f66U, 0xbdcc69d5bd03136dU, 0xbdce38fe3cb8ec70U, 0xbda3aae13c2c0f25U,
  0x3d078b04bdb95772U, 0xbd3a2c57bd2602bbU, 0xbdb4e1fdbd78d521U, 0xbd3887023dac13faU,
  0x39a34865bd8a2c97U, 0x3c2843a43bec3ae2U, 0xbd4c8e87bd0030f8U, 0x3dac43c1bc42f4a0U,
  0x3d9e01d13b997109U, 0x3dac23a93d44114eU, 0xbc9846a9bd3955b8U, 0xbbaf7fecbba2c844U,
  0xbbe770203d49e712U, 0xbd1eae23bd59d882U, 0x3d17ad0ebd89aa68U, 0xbcf776283cbd05deU,
  0x3d89a231bce3dfa9U, 0x3d099188bd35f9fdU, 0x3d8da8433d6ebde5U, 0x3d2973aeb98a2f38U,
  0xbca0731bbd0e2095U, 0xbda5174c3d94c341U, 0x3d87ca443d8de846U, 0x3cc183483c828740U,
  0x3d4a66ffbd600ebfU, 0xbd0172a33ccab0feU, 0x3c8e644b3c3d58bcU, 0x3d402f42bd464579U,
  0x396ed800bb88909dU, 0xbb3b59933d8db480U, 0xbda5214a3ced66c0U, 0xbd9335223beae170U,
  0xbd636f70bcec89ccU, 0xbcb895143daeb04dU, 0x3caf8e4e3c61d5a0U, 0xbcb7cecd3aeaaf40U,
  0x3ba615103cc050a8U, 0xbd1cface3d5a1636U, 0xbd4159cb3d815cbeU, 0xbda503a43d3eb000U,
  0xbd4cac673c211c84U, 0xbd869476bd47066aU, 0x3d012aedbdad3e11U, 0x3cfe3d83bc474c7fU,
  0x3d4ec7f6bd8f99afU, 0x3d0626a4bd6c14afU, 0x3c18dc613d6e0549U, 0x3d6ab2d13c8ee311U,
  0x3cb03050bda12f4cU, 0x3d5559cabcb65118U, 0x3c8ba528bd8b4d82U, 0xbc514bb0bd1ac512U,
  0xbcf2f9843da3a3d6U, 0xbd051490bd657490U, 0xbb7ddb00bd2bb6abU, 0xbd82ede8bdbccabcU,
  0xbc92dc0bbcd5af33U, 0x3dae0898bc944157U, 0xbd9862643d83d5c5U, 0x3d84cbc53ce3dae7U,
  0x3ba49060bb5201d7U, 0xbdbd38b7bb9f56f1U, 0xbd90ac59bd9c7d1cU, 0xbdb48694bdac7fa2U,
  0xbd8294ab3da728dbU, 0xbd2085a03ea6006dU, 0x3ddda0a23d2c8956U, 0xbcae8f843e34c1a8U,
  0xbdf58a313c9cc089U, 0xbc61ed0a3d7dc8e0U, 0xbe2716c03d9925b8U, 0x3d2f302abd9c87b9U,
  0xbce966183d403ba5U, 0xbcd4c1653c51f7e7U, 0xbc60a2263d9404baU, 0x3d4a838cbd011554U,
  0xbc3b1190bcf3ff82U, 0xbd96f7e93e4973caU, 0xbe846468bc765e2fU, 0x3cfe507cbd50c7baU,
  0x3d887c55bd517056U, 0xbc7fe9ddbd81ec77U, 0xbd432267bc2570c7U, 0xbd1b3668b830e375U,
  0x3c2ce9573d258458U, 0xbbeb0e6f3ba1c044U, 0x3cd1c1b33d7bbc0fU, 0x3c4a49303d4b4b11U,
  0xbacbadadbd88231aU, 0x3db60756bc2c5e00U, 0x3dc260963d88cc2eU, 0x3c7d0f68bce74f07U,
  0x3e033a59bc83777cU, 0x3d6d3e19bd04a4b9U, 0x3da93665bd946010U, 0x3d72c347bca14ee0U,
  0x3d0c452e3d2d421eU, 0x3c801ed8be1420a5U, 0x3d0b5a573c8de080U, 0x3d9df9b63c1cda90U,
  0x3e2f8e00bd613d19U, 0xbd4296af3d9f0888U, 0x3e1c5e863d91a603U, 0x3c78c558bd0aa491U,
  0x3c8965bc3e2339b0U, 0xbd74d5d43e087239U, 0xbde2e5843b142812U, 0xbca1cecfbd04e844U,
  0x3c658ce83b892587U, 0xbc6741213c65e243U, 0xbd079e4f3d927700U, 0x3cd9a801bdb36b8cU,
  0xbdabe6653e06c183U, 0xbd9f92803d597938U, 0x3be98cbf3d894444U, 0x3d5554a1bce455c2U,
