/**
  ******************************************************************************
  * @file    network_data_params.c
  * @author  AST Embedded Analytics Research Platform
  * @date    Mon Mar 18 14:04:40 2024
  * @brief   AI Tool Automatic Code Generator for Embedded NN computing
  ******************************************************************************
  * Copyright (c) 2024 STMicroelectronics.
  * All rights reserved.
  *
  * This software is licensed under terms that can be found in the LICENSE file
  * in the root directory of this software component.
  * If no LICENSE file comes with this software, it is provided AS-IS.
  ******************************************************************************
  */

#include "network_data_params.h"


/**  Activations Section  ****************************************************/
ai_handle g_network_activations_table[1 + 2] = {
  AI_HANDLE_PTR(AI_MAGIC_MARKER),
  AI_HANDLE_PTR(NULL),
  AI_HANDLE_PTR(AI_MAGIC_MARKER),
};




/**  Weights Section  ********************************************************/
AI_ALIGNED(32)
const ai_u64 s_network_weights_array_u64[7521] = {
  0xbd213fae3ab6cfcaU, 0x3d8ae691bd928f3cU, 0x3d952122bc9259b5U, 0xbd046248bc978f22U,
  0xbbabb6a3bad2f19eU, 0xbd367024bcba6f6dU, 0x3da9438d3d2cf60bU, 0xbd91d6ccba11c99aU,
  0xbda5c28f3d5c4868U, 0x3ced05903daeeedcU, 0xbd210117bd82a791U, 0xbd3c6be83d876826U,
  0xbd63bc783c81ecadU, 0xbd85f2033da67f78U, 0x3d017097bd5402a8U, 0xbd374156bd7c08c0U,
  0x3cb822533ce21711U, 0x3cc9490f3c139dc6U, 0xbdacadf3bc926f2eU, 0x3b8bd6c3bcaa84fdU,
  0xbd1f84563cf99d86U, 0xbd8880c23d7ba985U, 0x3b3c7c1c3da84691U, 0x3d883da2bd3eeb91U,
  0xbd8e0e1dbd971448U, 0x3d932be03d12ffcdU, 0x3d9659b93d3a5f77U, 0xbd5192a53c68fa5cU,
  0x3d1d62e33d7a5a28U, 0x3cada4d23c9c79a0U, 0xbd5891a83d8d9889U, 0x3c0f7c9dbd862323U,
  0x3d304c7bbd9dd5b5U, 0xbd11952ebc116d6eU, 0x3a69b196bd76af15U, 0xbcd563f73d2f8ad0U,
  0x3ca2e8933c9585d6U, 0x3d4856d9bd92727eU, 0xbd31624f3cc7ba95U, 0xbb1d13e53d55fa2bU,
  0x3db5689f3c596575U, 0x3baddecebd977620U, 0x3d200932bd90034dU, 0xbc32855fbcf2c95eU,
  0xbd1bbd5abbecb131U, 0xbadb082e3bd7a97fU, 0x3d2637c03c70bfbeU, 0xbbbab7683d9daca1U,
  0xbd96f72e3d1768c7U, 0x3b5c52c13caae58fU, 0x3d56f19e3cbdeb50U, 0xbca0d7a53cd12f47U,
  0x3ce1c4973d30a583U, 0x3ca98b82bc24fc81U, 0xbdb03473bcdb1e35U, 0xb96cd01dbd585fbaU,
  0x3d1b3086bd15f6beU, 0x3c22dd503d89689dU, 0x3ca17d0fbda8a47bU, 0x3d4d9696bcc0ed11U,
  0xbb4db38abd4c8035U, 0x3c652a923bc4a42bU, 0x3d42a237bdad12f5U, 0x3c95ad113d978ec0U,
  0xbf01b389bf0293a2U, 0xbeffe6acbf00d36fU, 0xbefc6647befe267aU, 0xbef8e5e2befaa615U,
  0xbef5657dbef68864U, 0xbef1e518bef3a54bU, 0xbeee64b3bef024e6U, 0xbeeae44ebeeca481U,
  0xbee7b52bbee9241bU, 0xbee3e384bee5a3b6U, 0xbee0d728bee22351U, 0xbedce2babedea2ecU,
  0xbed96255bedb2287U, 0xbed61791bed7a222U, 0xbed2618bbed421bdU, 0xbece40b6bed0a158U,
  0xbecc0f79becd20f3U, 0xbec75a71bec9a08eU, 0xbec45ff6bec613acU, 0xbec0e9e4bec2e978U,
  0xbebe035ebebf1f5fU, 0xbeb9dec7bebb1436U, 0xbeb63dc6beb81e95U, 0xbeb2c1c3beb41c41U,
  0xbeaf5d98beb15953U, 0xbeab4bf4beacddaeU, 0xbea89a5dbeaaef6bU, 0xbea4dc69bea69c9bU,
  0xbea11690bea27decU, 0xbe9daae7bea00d82U, 0xbe9a98babe9cb264U, 0xbe975633be986eeaU,
  0xbe93f3b0be94d635U, 0xbe90464abe915ad1U, 0xbe8c59a5be8e6426U, 0xbe886f2cbe8ab7deU,
  0xbe853e2fbe8683fcU, 0xbe813384be831521U, 0xbe7c5f59be7ffaceU, 0xbe7550a5be792fbdU,
  0xbe6d97f2be707718U, 0xbe693418be6b6f1aU, 0xbe6105d8be6427c0U, 0xbe595ef5be5d477aU,
  0xbe522f31be57d6d3U, 0xbe4b3069be4e862aU, 0xbe44ddbdbe47ab05U, 0xbe3c7240be3fe245U,
  0xbe366a12be395fdaU, 0xbe2e917abe3386b3U, 0xbe267c45be2afd4fU, 0xbe209e22be23fd29U,
  0xbe1ab36bbe1d3d7eU, 0xbe12b471be165fd2U, 0xbe0c31d7be0fed75U, 0xbe04a720be086277U,
  0xbdfb4bdebe0074cdU, 0xbdeeb423bdf40017U, 0xbde01163bde6fe69U, 0xbdd17d78bdd8a827U,
  0xbdc43c13bdcb30deU, 0xbdb45732bdbca5d2U, 0xbda957bebdaf0712U, 0xbd9b0f18bda28f7cU,
  0xbd8d33aebd942b10U, 0xbd7e32bbbd865b30U, 0xbd60610abd6e79f6U, 0xbd4632c4bd53ba01U,
  0xbd2ace28bd38ae69U, 0xbd0f2f01bd1d2a97U, 0xbce578c0bd016b4eU, 0xbcad99c6bcc98aafU,
  0xbc691122bc92942cU, 0xbbe6d312bc2deedfU, 0xb984fba2bb7348beU, 0x3bd060013b4bf7b8U,
  0x3c525f1f3c1ab70cU, 0x3ca3ddc13c86e201U, 0x3cdd3ed73cc19cf0U, 0x3d0997af3cf8cb7fU,
  0x3d250e3a3d16fa58U, 0x3d40ae743d329016U, 0x3d5ccae23d4e6e81U, 0x3d7964253d6b75d7U,
  0x3d8a34a73d8387c5U, 0x3d9899483d9145deU, 0x3da68e583d9fba25U, 0x3db2b6c43dad45e6U,
  0x3dc0b5b33db8f5e1U, 0x3dcfa0eb3dc88400U, 0x3ddcdebe3dd699a4U, 0x3deaf0023de42a92U,
  0x3df9a3843df2e6acU, 0x3e04f8e53e00ac0eU, 0x3e0b54343e08773cU, 0x3e1244483e0e8bebU,
  0x3e19812d3e15a028U, 0x3e1f83543e1c027fU, 0x3e276a7b3e22aa9bU, 0x3e303be13e2b049cU,
  0x3e35ac433e32edb8U, 0x3e3c46443e387a3eU, 0x3e4381633e3efff0U, 0x3e4979b53e46d5b8U,
  0x3e52044a3e4e7185U, 0x3e5888b83e557eebU, 0x3e5ed7a33e5ac230U, 0x3e6602d83e61e91bU,
  0x3e6c7b8e3e69eb7aU, 0x3e73249c3e7089d0U, 0x3e7b88b83e78cb12U, 0x3e817bf03e7f6cf6U,
  0x3e84bf403e83959cU, 0x3e88458b3e85f0beU, 0x3e8c9d573e8a05beU, 0x3e8f46553e8d8623U,
  0x3e92faa23e90f092U, 0x3e96471f3e9486edU, 0x3e99c7843e980752U, 0x3e9d47e93e9b87b7U,
  0x3ea0c84f3e9f081cU, 0x3ea448b43ea265ceU, 0x3ea7c9193ea608e6U, 0x3eab497e3ea9894bU,
  0x3eaec9e33ead09b0U, 0x3eb24a483eb08a15U, 0x3eb5caad3eb40a7aU, 0x3eb94b123eb78adfU,
  0xa8939a8ba4a89b9fU, 0x80a4ac9383a99889U, 0x9594807b8287a1a0U, 0x9183a4859d87aca0U,
  0xae83979aaa8c838bU, 0x9c8b7f98a39a838dU, 0x86a880ada8aeaeadU, 0x917d8486a1987c8fU,
  0x8ba684ae96ae8daeU, 0xa886937f8689ac9eU, 0x837c9e8792a48388U, 0x8d7d9da3a5998398U,
  0x93867fa599957ea1U, 0x8883a5a09d848d7eU, 0x80a8a0977f81a19fU, 0x8d988e87af99847fU,
  0xaaad9fc99fa1a07cU, 0x9a8244aab67f9992U, 0x8da790a8829a7e98U, 0x7f50b2a4a2997c5aU,
  0x9ea981c1809185c6U, 0x8ea17f968d959781U, 0xae88838ea0da97abU, 0xa483abaca2b17c84U,
  0x86afd6a395ab7d88U, 0x97a4958da89a8eafU, 0xa780b99285b5a584U, 0x8db4ac729b7a9392U,
  0x8a8c998492a2828aU, 0x85a79e84a79a8aa5U, 0xa094ab96aa62abaaU, 0xa29e869b7da47884U,
  0xa785ac97949e8e9cU, 0x99909a8ca580953cU, 0xa29a11917b837e9bU, 0xa685828ca189983dU,
  0x9b8c936694899e9cU, 0x9e808f7aa7737993U, 0x80b0998daea4948cU, 0x4f88ada69b537f88U,
  0x9c7fb08f87a48992U, 0x87cba8a09ea4a585U, 0x94aa889b159583a9U, 0x9e7199aaa5928887U,
  0x928e9da184ac8faaU, 0xb18eada28dabb9a5U, 0x9584a89fa733b083U, 0x9b9182ab987ea583U,
  0x9f9a91a38f897394U, 0xb68e85abc0a57fa5U, 0x8e8a8fabaf8c75aaU, 0x8d6bc987a6a79e70U,
  0x8a818b8fa78f82beU, 0xa4af93858fb0b0a7U, 0x7d827f9294ae8895U, 0xb08e959696a3827dU,
  0x7e9bc98f84a399a8U, 0xa4b398afa69bada5U, 0xa09b827d9ec0a097U, 0xaaab9772ab98949cU,
  0xabac8d819fa8838aU, 0xa18c8f997f7e86afU, 0x7d8cb89497807d8aU, 0x9a8a747eadad93adU,
  0xab8b938998a39989U, 0x9193858f9c88ad86U, 0xa78ea1968882a184U, 0xaa87808190ab9982U,
  0x9a929190a2919c8eU, 0x9986a19b88968f88U, 0x9080918396a29395U, 0x8e7caa8398908c7bU,
  0xae808997917f8b8dU, 0xa3938a9184a9928bU, 0xa47f9d8f9c909e8bU, 0x91a29aa87f7e809dU,
  0x827f8ca08382877dU, 0x9e7f83808da88e99U, 0xa9918d81a8827ba9U, 0xa3948399aca58397U,
  0xac8a81939b858f95U, 0xb29e66a2d4748f72U, 0x9aa38aad8495a07dU, 0xa062a89da3927e56U,
  0xab84a8ba9f8190c5U, 0xa598939484919f7eU, 0x9389ae81aab198afU, 0x81aa9d908fa79088U,
  0xa29bd09584839ca4U, 0x7e85899b8398a486U, 0xa587b78884ca848aU, 0xb2c49a887b89a191U,
  0x83a585a79684a37eU, 0x8dac93857ea0888dU, 0x8881b2a19472aea3U, 0x888f958a7f8fa398U,
  0x918891759d8e6e8eU, 0xb6a18988b092a0c7U, 0x889fa18da58e9686U, 0xa064c384928c9095U,
  0x989da891a183acbfU, 0x9aa196a08a93a1a1U, 0xad9faa9392a7817fU, 0xa59f80ac9db699acU,
  0x8a8ac589968ea090U, 0xa99788938e7e9b99U, 0x9987628da1b1a39dU, 0xa8b4a48e7c7aa79aU,
  0x7e9e878a92a39892U, 0xad7cae95aaa78fa9U, 0xa2a3a4ae89909088U, 0x9ca5739d99ac7998U,
  0x907d949792878788U, 0x9c988881bb75a78fU, 0xaca87e87aba38eaeU, 0x8c589d86a6929367U,
  0xa57ba28688a58ac4U, 0xa1aca98680b6a098U, 0xa987939d84c5a28cU, 0xa5977f819484999fU,
  0x8698a89a93949c89U, 0x908993aba097af91U, 0x8db082ad82a1b08cU, 0xa7a57f6fa1838f9fU,
  0xab85a2a792ab97abU, 0xa592a9838290829cU, 0x87adb3998d91ab9cU, 0x857da089948d7890U,
  0x9b927e7ab58e76a8U, 0x9d896b82e0a4a59dU, 0x9daeb67d7e997b94U, 0x9482d2abaf7f9297U,
  0x958d7ea8839083d5U, 0xac927fada8998f88U, 0xa997aa7dacbe9d88U, 0xa99795899c95aa7cU,
  0x9588d1a2808d8396U, 0x92a0ad85aaa3a79aU, 0x9290827d8fd3ad9aU, 0x9fbe987a9f967f80U,
  0x9d95ad7d8a879b96U, 0x8caf93838ea2af8fU, 0xa889a9a392aa8180U, 0x9b82948baa99a3a3U,
  0x8ba47b9f66aab876U, 0x7c7eb882568c9b92U, 0x998c9ca49c87a583U, 0xabad659b99a688b9U,
  0x9689a5737f848c68U, 0x99a99492818b9984U, 0xa48e9c7b9c64aca9U, 0x8a928b987d8da592U,
  0x827d27a6999fa47fU, 0x8a699b7e8bb07c91U, 0x897cb0a4924691acU, 0x7e6480ac9c9596b5U,
  0x9bab9f968cada6a7U, 0x86a98d9c997c80a3U, 0x898646a79ba47e8dU, 0xaea0a8aa90a1ad8aU,
  0x897aab85a1849cb8U, 0x8199a48080a0a695U, 0xa39c847fa99594a5U, 0xa07b8b8c9282998eU,
  0x8da6956994a79eaaU, 0xaaaa847aab5d7b80U, 0x8494858487a2809bU, 0x8c96a38695a597aaU,
  0xa88db59f968897abU, 0x78af9988997fa999U, 0x969f928c759ea393U, 0x9c8d96987b6b9b9bU,
  0x9f7e909082a18596U, 0xb2918b9690919eafU, 0x8090a1798790ae94U, 0x9286bb8e9dad8ba6U,
  0xada58b8487a79ccdU, 0x9aa4cc7a8084c97aU, 0x7d95b97ea98cc589U, 0xabb29e7cac9c86d4U,
  0xad8baa718dad917eU, 0x9492a39ba285968cU, 0x83978e7da06d9b7fU, 0xb6aba68bab89a97dU,
  0xacae33a17c99aa9dU, 0x8a579b9a828c847cU, 0x92899fa2a3818a87U, 0x8f7aafa88da98493U,
  0x9b86d297839592a9U, 0x7e8f81a5af86917eU, 0x84a33ea692c9a77bU, 0x8eaac17c9982919aU,
  0x818c827b929b756fU, 0xb1977190c2ad94b9U, 0xab979ba1848f6e8aU, 0x7d68b67fa9969e66U,
  0x9d9b9c94ac8eaeabU, 0x84b08c7f93b38c96U, 0xa87aa79aa5d47e80U, 0x80a7888098ae7dafU,
  0x8aaecd9d7d99918dU, 0x978099a7a1a58d97U, 0x83a092ac92a68095U, 0xb1aea871a5849f91U,
  0xad9d70a4929f8391U, 0x99a184909f90b3b0U, 0x8b8ec0b188987b96U, 0x8c8d8d8baaa2989dU,
  0x8074a97e80988098U, 0xad97a67d9aa0ab86U, 0x8bab93817e908ca5U, 0xa79f907d8076869aU,
  0x839f8e808195829eU, 0xa388858ba4af6f9bU, 0xa07985a86ab08b9fU, 0x929e8e7e7eb17fa7U,
  0xa787969095a082a2U, 0xa69a7fa69daaa785U, 0x9e9eaaa2928ea19dU, 0x7d9096bb91aa7daaU,
  0x9885ae938896a681U, 0xa891ab998a927d7eU, 0x9d99ae9f8d9f8dabU, 0xa9a4ae99a386798eU,
  0x9bb07f9b9588a7b2U, 0x789fcd9c568f9b63U, 0xa99aad958888a97dU, 0x90c997ada1969dacU,
  0x95b1aa77a88d8779U, 0x82959e8880959c91U, 0x8d938993994c83aaU, 0x9ca381af8fb0808cU,
  0x95ac1b8f9ea97ea2U, 0x8b65a78a82a1968dU, 0xa272c58bbb6082a6U, 0x9d899ea1b2baa4a7U,
  0x948b947d83afa189U, 0x949d87a8a98f81a6U, 0x9e8b41948cbf9795U, 0x90a79a7c978faba5U,
  0xad8e9da0c8a17167U, 0xb1928ca597878aa9U, 0xada1868c90ae909bU, 0x9775a7a7a096837aU,
  0x9f7ea0a699959a8aU, 0x83a8859589aca97dU, 0xaf92858c80c5af88U, 0xa9909fa2948c8794U,
  0x949dc97aabab9fabU, 0x92a789a18288a47fU, 0x8d846daf939a8e93U, 0x81b5838b97878a79U,
  0x86a2969c918fa99cU, 0x9fa78e89ac889f84U, 0xad86a88bab877b98U, 0x9da963a5819198a8U,
  0x8692846e8a9a5b61U, 0xb38b95b485797cbfU, 0xa1a24097a1ad6e85U, 0x808c617a927aac2dU,
  0x9d7b989395ac8f63U, 0x98879ea37b7a928cU, 0xaaa596797bc0a28fU, 0x4d95959ea94c9795U,
  0xa38ca56eaf97a69fU, 0x96daa888978a9c8fU, 0x97aa94932f79a2a5U, 0x9875906a7f687e93U,
  0x957f5e989caf7e90U, 0xada881abae898682U, 0x858bcf7eaf2fa284U, 0xacaf81b081aea987U,
  0x868997ba669da39dU, 0x789eafb269a2a95eU, 0x8eab8a937fa1bc93U, 0xacae657f7b9e8080U,
  0xa39dae969d8ba381U, 0x907ca38ba77b90aaU, 0x838782a48f87a5a5U, 0x70a9ada8a6859d8dU,
  0xa57e7583ae858ca7U, 0x7a87937f839aaba8U, 0x888db5a7947a7fa5U, 0x9f819fab848e9f9bU,
  0xa5aeb699a6ab8486U, 0x9c8fad9faf9c93adU, 0xaa888e9986ad909aU, 0xaa8fb9a792a9a2a1U,
  0xab908daaa47d9292U, 0x9ba38ea69b87ac8cU, 0x9592918fa58faaa0U, 0x948ba6a6a79e7fa5U,
  0x867e828589999493U, 0x937c9e83aa8983aaU, 0x959291a47b997b90U, 0xa2a0a8a5a894a189U,
  0xac7d8083979faa98U, 0x9f81889183828c9aU, 0x928f7c8989a9a696U, 0x82a68f7dac7eac81U,
  0x819f8d8789aaa096U, 0x819fa9818091a195U, 0xa69e96ab9f94909aU, 0x88a993868d96af85U,
  0xa28782b9828b9ab3U, 0x9c9bc488737d9e6bU, 0x937f9c979aae9c96U, 0x87ba8187a6a1acbfU,
  0x7fa9877d9e958679U, 0xa1918b9d89888886U, 0xadaaa187885f7f95U, 0x91a69b92a1b9829fU,
  0xa6aa5fa6947bafafU, 0x9966899793aaa792U, 0xab7bb4a3a490aa9cU, 0xa27d8b9a9eba998aU,
  0xa5979397a98799a6U, 0x88ae937b93ab8c9dU, 0x898f60868c99a5a7U, 0x9090b9a19daf947fU,
  0xaaa2889296807e3fU, 0x937e4997b08c50b7U, 0xa09faa7f84948d87U, 0x9a679a87ac9f9b74U,
  0x8e8aa2b49c868bd2U, 0x92929185a9a48d9eU, 0xa29c976da4e59a97U, 0x8f7f8faf98838890U,
  0x878affa9928b8badU, 0x99acab88a08687a4U, 0x949a83a382a37eabU, 0x83b69484807da46eU,
  0x738e3c9f7d979e9cU, 0x9292aa7c919491a4U, 0xae91d0b2aa64aeafU, 0x9da6718ea8a59486U,
  0x888697a08fa6756dU, 0xaf8f8fa8b89396c0U, 0x9a80718d80a27987U, 0xa868999d8aa79544U,
  0x9da4849d958f80a3U, 0x899d8e83a1aba3a8U, 0xa59baf847fbf9f8fU, 0x708b947e858084a0U,
  0x9993d49faf92a68aU, 0x8e9b81ae85958aa1U, 0x96a26d848a9982a7U, 0x918f9d8da1839fa8U,
  0x8ba371a9937ea0a4U, 0x94aa9ba77f82b5a0U, 0x87a0b89b8f7c909fU, 0x898e939d7e978d80U,
  0xacab9f8c9aa08996U, 0x93a679aeb3898c9eU, 0x9c874d96a7819c98U, 0x8852b69e7ca1882aU,
  0x7e88a8ad837e9fa0U, 0x9fa385a0a095849cU, 0x9fa6a0aaa4d17ba1U, 0x728489a399748da3U,
  0x7e9cae85ab83a186U, 0xabc47f9e99818db6U, 0xa494837e5593928eU, 0x7eb3988a8e958dafU,
  0xac7f6e8fad989691U, 0xb59c808b80a5b3afU, 0xafa4ab958730afa2U, 0xa586799c9b9aa894U,
  0x9aa7a898937aa39cU, 0xa3879ba7b1af9689U, 0x9287a78996959aa8U, 0x7891a78a8f99a68eU,
  0x91a785b4988b9197U, 0x84818596a39daca3U, 0xa87ca29073b689afU, 0xa282987d84a196acU,
  0x90a48f7d9b909f8eU, 0x80a9afa29d92a8aeU, 0x8c919a82a29d8dafU, 0xabb69681829caeadU,
  0xa582818197a9a692U, 0xa2967f9496998d9aU, 0xa68f988b9b928d96U, 0xa0829f9da3955195U,
  0x8c9ea47eae8a9562U, 0x947c77a8d68082bbU, 0x93a3b68da4a66b82U, 0x8269b198879780a5U,
  0x80809090abada0a5U, 0x8695a88ca5be9286U, 0x8474a58682c080a7U, 0xb8ad8c8ca899a97cU,
  0x809ede877e999080U, 0x7d8fa9a27a7aaa92U, 0x84706bac98d1ac9eU, 0x97bfaa7a8eaa8074U,
  0x98834d7e919599a6U, 0x9692a7a187818896U, 0x7b95d2b27d9d9e90U, 0xada677b099988ba4U,
  0x9fa182a1849380a8U, 0xa27eb29c7e7ac1a5U, 0xad87e294899a8489U, 0x81a6d19b7ea67cbbU,
  0x8b849e807da290bbU, 0x95a58aaea6c1b1a5U, 0x9f8d856d905aab94U, 0xb895a0adaeafa37fU,
  0x7fa2388e9ea082a7U, 0x921fa99e949f8690U, 0x9264978bd887b18dU, 0xadaf89a198b09368U,
  0x8e7f8caf7fa4a698U, 0x778aa4ab8a817694U, 0xa79c6bb584e8888dU, 0x8e948f9b9d87a1abU,
  0x7c9093a1967fb5a3U, 0x839adf845b9f9f75U, 0x7b99bb9a88a8a384U, 0x98c47d98a4a97edaU,
  0x91b09499828aa383U, 0x9e99a78ea99ca988U, 0xa99491768c58ababU, 0xabaa9daa9ca9a2a8U,
  0xac99349099a77e89U, 0xa0627ca6858c7e74U, 0xa074b9a0c25f7e7fU, 0x9092a297adb7a59cU,
  0xb68080949da59dacU, 0x8697909181867bacU, 0x9c9842ada8caa984U, 0xa98290858c849691U,
  0xa5a7ae868bab9ca9U, 0x8786d69d8683b887U, 0x8088aa9d9489b3abU, 0xa7cc7e95ab9b9bd0U,
  0xab8c8688a77ba277U, 0x8f8ca4aa96848898U, 0xad9c92798f547e7fU, 0x9ead9d8baaa180acU,
  0x839d47797da99793U, 0x854b819da19f8e83U, 0x9472a4adc28988abU, 0x9680939693a8a2a3U,
  0x87a3a0a880a49495U, 0x958589ad9ba4938aU, 0x9aa05a9593a77eabU, 0xab80bba49fa18d95U,
  0x8d917fa0a7a6878aU, 0x9b89a98a9794a07eU, 0x9c89a9a48392a691U, 0xa48f86a58f80a483U,
  0xa0a19d98aea8829fU, 0x877b8ea39f88a57bU, 0xa9af7f9aa797997fU, 0x7fa2aa95a2908b86U,
  0x7cac7b9c94948a7cU, 0x91ad87af85a5a895U, 0xa8a59b8faaac8495U, 0x97838a92a5819e8fU,
  0x988c857f88a2ae89U, 0x7f897e989a8c7e7cU, 0x969f7b7d8e99a695U, 0x9e8b7b7ca99ea583U,
  0x978d9373a1937359U, 0xa27c7b9688bf5cbdU, 0x7c996ca5a3a379a8U, 0x7f9d7985a7ac8a83U,
  0x858aaba4af868d9fU, 0x878f9d7da18a9eacU, 0x83928f6c94cfa685U, 0x8fa3aa95a76981a4U,
  0x9f82aca7a294a990U, 0x7fe29481af90a5a0U, 0x98a6799d838a8192U, 0x938d9a8292838e86U,
  0x8a9d88859d7ba792U, 0x9ba1848e819ab0a9U, 0x959ad39f7e7f9e84U, 0xa0925ca19685a182U,
  0x96a8aaab79a5ac9cU, 0x8898b6934f6da18dU, 0x9286b49aaa9facabU, 0x8da88b7ea59c87d9U,
  0x8a91ae8995a39378U, 0x8279aca7ac967d94U, 0x7e7e7c92a1429d9bU, 0xa980a0a0aab4afaeU,
  0x9f84248c919aa3a0U, 0x8c7192957b9aa79fU, 0x8e80a48c94488b9eU, 0xab9e80a9ab9e9f98U,
  0xa1adac999ba0a2a1U, 0x8093929c8b818d89U, 0x7e874c969fc89281U, 0xa695b790ac7ea4a6U,
  0x7fa1948d85868497U, 0xa098aaa18a968eacU, 0x8688958291999d9fU, 0xa4a68688a18da97eU,
  0x8fa698a099908897U, 0x7f8e9185a39fa591U, 0x948686a38f828b92U, 0x7e9597aa8aafaca8U,
  0xa4aa8e9a90a880a7U, 0x849c9caca1ab81a8U, 0x8b8798a8a69d9fa5U, 0x81a580948e969387U,
  0x83a1968c9f918b7dU, 0x939fab9caf7c7c8dU, 0xaaa98aad82a1a28fU, 0x9380a47eaea9a290U,
  0x9a7d867d9b977377U, 0x9fa88288aa7b88c0U, 0x9d8ca5888485748cU, 0x8a76a38f7f9793a5U,
  0x7c7fa08b8ca685c4U, 0xadab84857fa38887U, 0xa17eab9992ba8f94U, 0xa8938eac999c8797U,
  0xa8a3a18ca290809aU, 0x947a7e848996988fU, 0x8c6f7e98a797a894U, 0xa1b4aa678b9a999fU,
  0x8e81a6ab8c8a9997U, 0x9caeac8c7d8ba78dU, 0x9b88b2ac85b3a8abU, 0x919e8cacaca7999cU,
  0x81838bb2a691919bU, 0x718f7f94b18b9679U, 0x8593b98d87a1b19aU, 0x7ab298aa9d85ada0U,
  0x95a5918c9f9b96a6U, 0xada389a490b787a3U, 0x83a2948393768194U, 0xc6acab9a9dbd81acU,
  0xa18293bca98c9d9aU, 0x985a9d819181829dU, 0xaf87a39e9cb19b99U, 0xa9958baba3a77d88U,
  0x70828cab817ea0a4U, 0x78aea787839383abU, 0xa5966497a9cd9896U, 0x9b85b2837f7b7d81U,
  0x857f7c81a0898189U, 0xa0978578bfa37ab2U, 0xa1aac7a088ae7881U, 0x9574bba98e7d9b91U,
  0x8aa27ca3a2a696c8U, 0x9eb2a38ca1c0a59dU, 0x9b84ab90aaaa8089U, 0xb67e96a17ca788afU,
  0xa5aab27a9c9388acU, 0x9a75a37d7b80908fU, 0xac8f5ea69fa3919fU, 0x88c0877b95918b83U,
  0x86a49e99af958485U, 0xa990938c95869c8bU, 0xaa8da98aa89ba28fU, 0x7d90899f83a58f93U,
  0xa39ea8929da89849U, 0x9f969f7cb1bd5babU, 0x99a8bd8388b0928dU, 0x84c299a695968da2U,
  0x899885abaf7b9bb5U, 0x989298868f9bb687U, 0xa470aba9ae839c90U, 0x8ca586a4899d808fU,
  0xa3834f75789e95b1U, 0x87568a9b949a7f85U, 0xa573818dc1a3a1a9U, 0xbba8a997aea0a1a3U,
  0xa1907f81997eafa3U, 0x838ca98272a09189U, 0xa789a89695b17d93U, 0x968f948d7d8682acU,
  0x7f92a078b67e7775U, 0xaea67293cb977c9cU, 0xafaaab869ba98a9fU, 0x866fad92939d866aU,
  0xa78786a081818bc7U, 0x7c95ac7c90b7899aU, 0x9a77a99881c1a58fU, 0x937fa9a7938eac7cU,
  0x9a90a77b96827f89U, 0x86b8a0ae9f7e8195U, 0xa89b769c94bfaf98U, 0x9295a88795ae8b92U,
  0xab95727f9aa09c81U, 0xaca780968598a0acU, 0x8d80bdae8b83a29bU, 0x7a9d96a4a19b9b96U,
  0xa6a695978bab9688U, 0xa889979e8e7c9ab5U, 0xa296ad9b7fa48da6U, 0xa78ab8ab8d819fafU,
  0xa2a7a28aa58697b6U, 0x7bb09c90acb787a4U, 0x977bad79a0c697acU, 0x979f9d91afb9a390U,
  0xa1ada28da27caea1U, 0x7898a8878684929cU, 0x8f7681839db89f7eU, 0x9a8d8b6eaf90ac7eU,
  0x8f86a37b9ba99e85U, 0x95988988858c83aaU, 0x807e9d81939e9092U, 0x7fa9a78a8a918e80U,
  0xa88788988d929b92U, 0x858ca87aa983aa91U, 0x968aa5a495a198a8U, 0x92889e9984809a8eU,
  0xa5927d789e84857fU, 0x989496a1a7ab80a9U, 0x967e84ac9c76af8eU, 0xc2b2ab898d7f878fU,
  0x98838a83a17ea799U, 0x92838ca2a5ab8f94U, 0x9a8fad9d81a8ac7eU, 0x7fae97a88da2868dU,
  0xa79087a0a19c7ca3U, 0xa9988baf7c948e86U, 0x94a4917d849c997cU, 0x9d7e988984ad6085U,
  0xa59b9279ac8f9b8eU, 0x9fac9eaa7b84978dU, 0xa1ae8b9f94af8e8fU, 0x81a4958fa78f9984U,
  0x8a889db17c7d8089U, 0xae858e858b94a2aaU, 0x9a829cae96818c7eU, 0x8da9a6a47ea382abU,
  0xa9829b9c7c8c84a6U, 0xb29eaba8a9989f8eU, 0x968c898ea28989a5U, 0x9a80a4afad9aa198U,
  0xa5928e959796979eU, 0xab818ba48b9b938bU, 0x938a9ea087a18da5U, 0x859d9ea98e9cbb7fU,
  0xa6809483ab91937fU, 0x878493849f858f8fU, 0x7c85909c937e8198U, 0x94acab899b859a9bU,
  0xa09ca7a6898aa97dU, 0x7eae89a88c93937bU, 0x88967c9f82a3a69dU, 0xa799af8594877e92U,
  0x7d829ca082a08c80U, 0xa7a09ea484858499U, 0x94949590898b94adU, 0xab8b83a3a18a8082U,
  0xa29586847fad8a84U, 0x90a08b7d8f9983adU, 0x9282aca68e80aca4U, 0x8783959390a09686U,
  0x8395a8ac8fa19e8aU, 0xa29d81ad987cac9aU, 0x837fa2859d7d90aaU, 0xa48e87a47c85a5a6U,
  0xa89cae9fa6878080U, 0xa882848cae88898eU, 0xa4a68e9a8780a98dU, 0xa39ea3af8f899084U,
  0xa4afa3837dada484U, 0xa58c7d7e83857c97U, 0xa37ead7fa4aca4acU, 0x9e9d849b99a29e96U,
  0x8a86a39b9ba19b98U, 0x83a4968aab937e8bU, 0x9c9aa9848882a987U, 0xae9b94997fad8694U,
  0x7e808492a57d83a9U, 0x7ca18faba88e7da1U, 0x8a7e93929689a990U, 0x898ea896969e8589U,
  0xa88597aba29da684U, 0x93aa9e7e9e848083U, 0x96858589828c979fU, 0x9793939ba2a58997U,
  0x8d96a4a497a19d9dU, 0x9aa2a7af9b99897eU, 0x8f8d90819f9f7f96U, 0xa89faa8daa9d8993U,
  0xa47b8e89a09aa37fU, 0x85a991948c867f7fU, 0x7c9a7b7d80958686U, 0xaf83858393a782aaU,
  0x818b8d8b8a91a791U, 0x9283c7b277b28d7dU, 0x9da37d9789a3b395U, 0x9aad828486af9bb4U,
  0x99a38fa2857c8871U, 0x95879782a697a686U, 0x93849756864da998U, 0x778a867fa0968984U,
  0x95a726a6a691a9a7U, 0x9081988293b2a08aU, 0xab93b67c9e4a849fU, 0x9374aeb69ba88c89U,
  0x8a998f8ca0a2967bU, 0x8383a8988dad95a0U, 0x8da462a396b1827cU, 0x9d8f917f9aa992a6U,
  0xaa87a6828084b7b8U, 0x9881a9ad6bb5aa82U, 0x98a0a89a8da3be9aU, 0x8ab95ea2a8a591c3U,
  0xafaf899dae8c8672U, 0x99a196998f8da287U, 0x9eb49aa1976cab9eU, 0x8f9c80909b778881U,
  0xaba4588ba9a08a8bU, 0x91a98f84a8897d9fU, 0x9580957b9b6f91a9U, 0x926e9fc585a6aeafU,
  0xa99c947e83a7a285U, 0x949e7fa0837fa788U, 0x92a17782a1b591a2U, 0x967db4ac81a9a6abU,
  0x9f85aa978b85b588U, 0x8c7ebc8d6ea39b74U, 0x99adaaa8a07bbc9dU, 0xb0d669ac8f9ca2bdU,
  0xa5868c9987a79887U, 0x9b91a9999d8a8f7fU, 0x8b83acaa81809081U, 0x97a3a27da287999bU,
  0xb1846587957e82a5U, 0x8c93ada08b9c969fU, 0x907ab2869b6d9282U, 0xaa7e81b0a091aeadU,
  0x7ba6acaeab8a877fU, 0xa89a8aaa997d879fU, 0xaa9692a0aac59289U, 0xb0809589a795a395U,
  0x91a1808e8f94959bU, 0xa89885909fa0a398U, 0x7c9c8ea9978c939eU, 0x8093929583a688a7U,
  0x899ba0ad808d999dU, 0x81887dad8aa688acU, 0x9a9d997d908983afU, 0x9b9a80838a7f9f9bU,
  0x827e9c9d8d86989eU, 0x80a17faaaaa18da5U, 0xa3828c8588ad9486U, 0xaa9f7b8ba9afa4abU,
  0xae978ba488879f8fU, 0x85928e96ac93867dU, 0x82898b9b8c8a9090U, 0xae929789a4a08789U,
  0xac8f878f957d7a9fU, 0x8d8d61a897a08b99U, 0xa57d8ea09a7c8fadU, 0x95779498899c8371U,
  0x7fa388b1a87c80a7U, 0x9db1a2817d8d9399U, 0x7dad89b09fac86a5U, 0xb39b9e8b9993a07eU,
  0x8594be91a4ab8b9aU, 0xa1af8398b0ac9086U, 0xa3a58a928a919ca3U, 0x9ea09f80968894a3U,
  0xa1a5ab93a0ab9b7dU, 0x968185a0899cb08dU, 0xa3909a75af60ac97U, 0x907f84889fa77387U,
  0x7ea38983aa93828bU, 0xa5918b7f99b289a5U, 0xa48ea68ba89b758bU, 0x928bb27c9d937f98U,
  0xa18b8388889486a9U, 0xae87859b939a9088U, 0xac7b7f8aa0a69fa2U, 0x9d929f8facab9497U,
  0x8b9ebb8495847c98U, 0xb99c949a9b87a0b3U, 0x8d8f74a89199a09aU, 0x8f939585a58f94a0U,
  0x998892ac858d9d95U, 0x8d95aa7da886a4a0U, 0x97a2aaa2a485a385U, 0xab908fa29a919fa8U,
  0x919c8087a87ab495U, 0x9e87a474979c9878U, 0xb1acb7a49a81909aU, 0x92869a9a7d9f98a5U,
  0x859f74bc829c85c4U, 0x9b8b95ad92b9b186U, 0xa197887d8caca381U, 0x8caaac7e99a0aba5U,
  0x957ca0ad7f888bb0U, 0x89a89fa48985ac85U, 0xa489b68aa1b7987cU, 0x918b83bdadb6a6a3U,
  0xaa98b39187919797U, 0x80a8998489ab8682U, 0x9ca7a6b28daaa797U, 0xaa85b69298958696U,
  0x92839987898b879fU, 0x8a87a4a2b6b7a270U, 0xa4849faa9a9fa894U, 0xab61a5a9aa9a8697U,
  0xa982a19d947b91abU, 0xa990809c7f949081U, 0xaf819d8f9698a8afU, 0x9b7d92aba49a908fU,
  0x81a88bae9390a27fU, 0x878ea9ad8b7e8d91U, 0xa9adb98186a9aba4U, 0x839881ac89828b95U,
  0x9490b7838e958ca5U, 0x95a0a290907c967cU, 0x8f9a818b9796a39aU, 0x94a69dab969c91a4U,
  0xa58f9b989b887b82U, 0xa48b899d91aa9c97U, 0xae8a8a91808e8fa3U, 0x9b8e959088969576U,
  0x9a8292bb8388aab9U, 0xaf7f80a3aea9a3acU, 0x977aa6b2a3b78291U, 0xa0838aab9ca9888aU,
  0x7d838b7fa7a3a2a7U, 0x9cb0ac9c8688868aU, 0x7e81909f83a989a5U, 0xae98b083a889a0adU,
  0x908e7d819d9992a7U, 0xb081aaa27d8da8a5U, 0x8c8a8aa8939aa483U, 0x8d808494948e99a3U,
  0x9e958bb78e8783a3U, 0xa4929a947fb79086U, 0xad8b8e7b938f7e85U, 0x96927b9984a49557U,
  0x8e7b899187939698U, 0xa3988c7a9d8f7aaaU, 0xab90acada6a89d8cU, 0x8a9b9486a69683a3U,
  0x7d81b8838f84a28bU, 0x83bfae93a885aba6U, 0xa9c17897937e989aU, 0x8b848d9d8a7f7eb3U,
  0x869da18282808197U, 0x83a08d8e9d998da1U, 0x9284aa98ad5e88aaU, 0xa383a481a996a47fU,
  0x9cab7d95bca99895U, 0x93968192a7ab8db0U, 0xa297939b8d949690U, 0x9c7f9181a4ac8f6cU,
  0xaa9fa8a8a09e958cU, 0xa8a98a7ea490ad93U, 0x96a4a7af7bb982aeU, 0x9997a289909f95a1U,
  0x829bc5a2a681a47eU, 0xb8919f949a93ada8U, 0x7ca0867f81b1ab7fU, 0x9696a8a4919c8f89U,
  0x879a747c8aa0a18dU, 0x827a7d83888eb886U, 0x8796ba91aa6b7da3U, 0x7c83709e8384a292U,
  0xaf9d879e85aeb6aeU, 0xab8d9d959eb09f7aU, 0x889fa78e8f7fa8adU, 0xa87caa9a979c7e99U,
  0x838093848d8784baU, 0x838d9091a78986acU, 0x9c8b9ba1a9999894U, 0x95aa7c858ea3a27eU,
  0xa97eafb2a5a99dabU, 0xaabaa8ae9b96af95U, 0x8aabbe8b9dc38587U, 0x8a918391819a8fadU,
  0x90839b7eab9c86a9U, 0x8594888981a5aaaaU, 0xa9918d93a1929599U, 0x8692b7948da98782U,
  0xa2a38396a290927aU, 0xaa9f6083c28e87b7U, 0x8d86978a81af8f82U, 0x8062a0ad85938f76U,
  0x7b947c96a8968cbdU, 0x7da68fa37faa7e8aU, 0x7c8c8ea784c0978cU, 0x8fa18294a39e98a1U,
  0x989fc684a0a28092U, 0x9aa9909d89a2a7b0U, 0xa27f82a397a4809cU, 0xb0aeac897e847eaeU,
  0xa08380939f80a4a1U, 0x87a98da19a8fb6acU, 0x949bbeaaa67186a7U, 0x9d9d739195969a84U,
  0xa793839c7d8785aeU, 0x7aa990a1878abe76U, 0xa398b88b8e89a29cU, 0x9eb69a8a939c94beU,
  0xa1938da2918d8393U, 0x84a7aaa580ad8ca2U, 0x8c90ab94a971aa8cU, 0x9db282aea2c088aaU,
  0xa389569f987e7b99U, 0xa456868189a2ad92U, 0xa28ebf85c09a92a5U, 0xabb4a8b8a0b5afabU,
  0x8f8aae9e7f7e8aadU, 0x8094a39685998c80U, 0x999b5a9fa8b2a6aaU, 0x9aa2a4acaa84a598U,
  0x8ca4a2a2aa89a0a9U, 0x94a19b899093a398U, 0x809c9c86ac91aba6U, 0x8a969e98a899988fU,
  0x95809da799879187U, 0xa9ada88ba9858089U, 0x8f897b8d93a18e8fU, 0x98838087ab988f80U,
  0x809b90a39884867cU, 0x8c8589a58999a486U, 0x89987da9a29b9785U, 0x82908385a59caa81U,
  0x9c909d899e829d8cU, 0x9b9a9c8c8e8c8d7bU, 0xae7c87ae87999484U, 0x7f939c90af7f87a3U,
  0x8486957bb18e6a89U, 0xa6815083b26f7faaU, 0xaaab928496aa8582U, 0xa962afabaf9f837bU,
  0x978da6a28fa7abb3U, 0x9dad7f999c9c8fa7U, 0x7e917c9b90c5897bU, 0x99a185877da38994U,
  0x7facc58396ada8a9U, 0xb78a9f937f81a395U, 0xa0879e999ca19c7cU, 0x81a395677b95837dU,
  0x8381a38c8885a0a6U, 0xa5918d8e82af9d9dU, 0x9082a7a0805fa5a0U, 0xa380a0af83a49796U,
  0xa59d7e9aac837384U, 0x909c53a6b76c8564U, 0xa88888a57b877898U, 0xaa5aa981a9a19721U,
  0x8e9ca270958d8dc4U, 0xa0ac8b808d9f96acU, 0xa07f8b7698d1a38eU, 0x8caa8d89829b7ea4U,
  0x8b8fc08a869a7fa1U, 0x9797a28b8d77b097U, 0x8cae748982a79cafU, 0xa1b28a589883aa9aU,
  0x8d86a2a392ac83aeU, 0x9d877d93acaea999U, 0xa38194af89409d9eU, 0xaa9079a79d857babU,
  0x8c92968c95a48aa4U, 0x7faa919f8b8d9d8eU, 0x8697a67caa7d9c95U, 0x989b8d83ada59c7bU,
  0xa88f91a8aaa1898dU, 0x83878198928d8e99U, 0x9594aa899d8d9498U, 0x907f9182aa81927cU,
  0xaa7ea28685808099U, 0xa9a2959985a57cacU, 0xaa7c9e997daead93U, 0x808c81ad7f93a391U,
  0x98867bab988aaa7dU, 0x7ea4a98e8597998eU, 0x94969695af958a9dU, 0x949986969392aba6U,
  0xa08bac7fada88083U, 0xa591bd98829c70c5U, 0xaa816c978b9596a3U, 0xaea85aa09c928f99U,
  0x8a8a909098ae9259U, 0x9ba59196a77b90a5U, 0x8f9088879590a6aaU, 0x6ba0938aa76b907eU,
  0x9ea4759b94a29d93U, 0x9faf8487869e8588U, 0xadad9fa0647987a9U, 0x8a8084889d8699a9U,
  0xa48d7191aca3a887U, 0xaca183839899839aU, 0x7ea8a9aaa794aa90U, 0x858c8d96a1809192U,
  0x7e8094958b8585a4U, 0x848f8ba7949793acU, 0x9d7e8891839ea3afU, 0x837b94a6878fa593U,
  0x83807fa389828b86U, 0x98ab7f9ea8a39ba8U, 0xa57cac947ca87c7fU, 0x9b7b8399898699aaU,
  0x989a859790aa9b8eU, 0x9fa08392899a8a91U, 0x8ea6a47d95929a7fU, 0x96887c927c8982a8U,
  0x9b90ae7e87aa9896U, 0x81a79aaf928e979cU, 0x9ea491947d8d8398U, 0x9a8c9c9682939c8eU,
  0xad8e8a9ba58f6d78U, 0x94a4df962e518582U, 0x7b89948b948a5e8cU, 0xacb7547d949e8dceU,
  0xaa8a9366a6ada53bU, 0x8a8c83a0a8849493U, 0x8aab8f8ca63b9886U, 0x8bada1899f8b9893U,
  0x83802da89e9e8f7dU, 0x9f7da2909c9aa177U, 0xaa8a879d92467ba1U, 0x83849d60a585aa8bU,
  0x93987b9a8ca29497U, 0xa1a3a9849d7ea2aeU, 0x937f4c919db498abU, 0x98a170839e92a9a7U,
  0x94909aa987a08a86U, 0x879f7976cc6a7c6eU, 0x8eaeb8a87e969a88U, 0x8644c6988898a458U,
  0x87818db5999e7ebdU, 0x97aba98193a4888dU, 0xa3a69daa9caa9b93U, 0xc0a9ab818cbc80a2U,
  0xa38c999e7ea89d9dU, 0x9793a19a9ea09eaaU, 0x836faba5b0bcada1U, 0xaca5907ca89e7f83U,
  0x9b918c8ead7f9c88U, 0x8b80a2a19f869e94U, 0x96a698a38e81a3a6U, 0x83968c9a988d828bU,
  0x83b18b8d78aea9ccU, 0x8898b8845983a786U, 0x9d8dbaa9ae84b29aU, 0x8ca685ab96a684ceU,
  0x8393887381a1a67aU, 0xa39a9ca17e9a99aeU, 0x8482a974b0439480U, 0x8ba9a1a48d94828bU,
  0xaea82da6808d83adU, 0xa15f7caea0b1a377U, 0xab89ac8bbb819a7fU, 0x9fa19baa949e93a8U,
  0x9d7dd183a49899a6U, 0x9a90a39d7fac7c8cU, 0x988f3b8596b69a7dU, 0x8cabbc998c8e9295U,
  0x7caf9ea0899db4a4U, 0xb07d8b839b8d9b85U, 0xa6aeac7fa38fb58eU, 0x8281af9a7f91a399U,
  0x819991baa77ea6c1U, 0x87b0929a918e8c7dU, 0x967f9499a8929d80U, 0x9a9d918d8393a39cU,
  0x88a1977a919088b3U, 0x888a9d9f81889ab3U, 0xac87bc9d88819699U, 0x82b1a0b8817f8c91U,
  0x9d868b7f8d9c9595U, 0x87aaa5a78383a69bU, 0xa9a38aada17eb0a3U, 0x8eab9ea4ac8a719aU,
  0x9e8e819994858370U, 0x929fb3a7838b8492U, 0x87989c8b9a929aa0U, 0x84879b8286999298U,
  0x839889b087ad9ba4U, 0x8294a18795867da2U, 0x8f7d7f8ca87aab9cU, 0xa1ae8d9aaa9f9b97U,
  0x6b9385927e8d7f97U, 0x9081969ca3888c9aU, 0x807ea8a983a18f8bU, 0x9097ac91a0a29483U,
  0x9f709e8aa4a28684U, 0xa292927e7ea4948bU, 0x858d92ab847da8aeU, 0x7e9c889f88868491U,
  0x9f919aa1a7af8d9dU, 0x8192a280bbafb87eU, 0x9d9592a1848ba87eU, 0xac8ab1ae8b9fa28dU,
  0x90aca1a0aba28d9fU, 0x8daf927f949c8494U, 0x9b999e877e9c83aaU, 0xa89d7f9e7f9494a5U,
  0x92a3b28c8a828da1U, 0x94b78881a680aeb6U, 0x81aaae94a78fa880U, 0x8ab9ae989e9b8b8eU,
  0x8790b0ac928eaf8dU, 0x9c7e9a9da0a6ad85U, 0xae8a8d8dafaa8e84U, 0x8fa3b996997f7ea7U,
  0xad8a9cb77cacb9c4U, 0x9e96d3ab5777c884U, 0xa1a09f999ba4b296U, 0x9dd75b849b958dcaU,
  0xaaabb069aca4ae67U, 0x8685989b9f82a4a8U, 0x94ac8a92835e9894U, 0xa387adab89928aa0U,
  0x9b984b94a4878187U, 0x8a74809d87b193a0U, 0x968fb6af866c989cU, 0xa28e89b77fb27f90U,
  0xaaadb38daea68a9dU, 0xaba8aa9bae9e859bU, 0xa9ad5f9b89c589aaU, 0xa2abbc7e9b92ad7bU,
  0x8aa67c7b879192a1U, 0xa2958ea0c2717996U, 0xa6918e8b828f6f85U, 0xa468ccad85928251U,
  0x7a8c84b1939d83abU, 0x83af90a78fa186a3U, 0x8aa2979da1b290a1U, 0x9a9a879a99b2a684U,
  0xa2819e938b8d9386U, 0x94a695a39ea68785U, 0x9b968eaaa4b8acaeU, 0x9790a5977fa1a991U,
  0x9ba58d9fa387aa86U, 0xa98a8780a193a67eU, 0x9085b3899073a1a9U, 0x92947788a79c7f7dU,
  0x95a9957bbd937c99U, 0x988a7686a4a48eb6U, 0x96adacb094948485U, 0xa46cc783ada48698U,
  0xa3977ab5aba180cfU, 0x8ea282838cb3a195U, 0x929c8d957abf9da0U, 0x959b7e7f869da4a5U,
  0x96a3cb7681aa82adU, 0x90967c9f8d8baeb6U, 0xa58977ad94a48584U, 0xaabd867a9e929ea0U,
  0x8c8d84898298aa87U, 0x9a86947e919480adU, 0xa0ae9d9a96758d96U, 0x8a8f7286809a9297U,
  0x8a8b96a1a8ab898cU, 0xa3ae7e888b9585c1U, 0x988a659e9684a382U, 0x958d7a997eac9c4fU,
  0xb0968ca58eae8ca4U, 0xaa87a1a1ac80938fU, 0xaf927e8e83a9ad98U, 0x6c9f81ac7c84a2a7U,
  0x957cb0aa84acac8bU, 0xb7b6adafb3a4a3a5U, 0x96b791805fa07c92U, 0x7c81a886879492a3U,
  0x84b07882a2a0838cU, 0x977ca983848e85a4U, 0x867fa0999d4398a3U, 0x97a997b184adada3U,
  0x95988e999385959bU, 0x90927b7f7f908383U, 0x92a8857d90989991U, 0xa89c8e98a6a89e90U,
  0x9f9e9aa3a192a9a3U, 0x8090807fa59b9f9dU, 0x8c9aa4a9869e7c9dU, 0x8c88a585819d7f9dU,
  0x808b8b878e7ea67bU, 0x868a928c8c8f8a85U, 0xa5849ba5a48c92a7U, 0x97a49fa0818188a6U,
  0x878d8b7dac949380U, 0x8aadaca399af96a3U, 0xaa9798889f929a9fU, 0xa1aaaa7e85a298a2U,
  0xae7faca7ad819eaeU, 0x8f7e9997a182889eU, 0x8c85a77d9c90908aU, 0x8e858d998ca5a38bU,
  0xa6a4ab81ac9d84adU, 0x7e827d99a39a7bacU, 0x7ea18aa17b9d989cU, 0x988da57d818fa68cU,
  0xa090a08fa58390afU, 0x9e88a399a59e8b84U, 0x909985aa887f81a2U, 0x8c849fa79c889fa2U,
  0x84a199af8591a2a8U, 0xa28b938e9ea78494U, 0x8794a3ac8583a887U, 0x988ca5918a8ea09bU,
  0x989aa0878b808f92U, 0x7c807d909192afa7U, 0x7b8598a29facafa8U, 0x9d80a9a2ab97958cU,
  0xa97e96859ba4908aU, 0x82837e88848b858dU, 0x978ea1807da4897eU, 0xa2a9819c92889986U,
  0x8087979092889a80U, 0x82849785828c8491U, 0xac9287a5868d96a1U, 0x848aaf80a67ca2a1U,
  0xa8959c85928f8ca2U, 0x7c8193849c7f9899U, 0x7f8ea781af8ca98fU, 0x9f9c9cae9c9daba6U,
  0x9e889ba09da59e8dU, 0xaa858a7ebe87a3abU, 0xaa8a8d8fab93a09aU, 0x8a84bca0a08f9a79U,
  0xa6a48a8fa0afa2d1U, 0x8c939d878e9c8687U, 0xa08e9ca09cb68081U, 0x958983838cac887dU,
  0x7daeb7a09b8a8e9fU, 0xa8959da5b17dadb0U, 0x7db268948fb39988U, 0x9bb693809b99a889U,
  0x84aea394949e90a2U, 0x90857eac8a8487aaU, 0x9baac583808097abU, 0x987b87aeaf95918eU,
  0x85808d9faf7c9685U, 0xa4a0ae91ac94b498U, 0xa986b78891807d87U, 0x88cdb58e9ba698baU,
  0xac8c79a1a4a7a396U, 0x7fa7859e929ba996U, 0xa08dada28473af92U, 0xb6a9aa9cacc090abU,
  0xacac87838aa3a98dU, 0x92af7c7e83868977U, 0xa997a39dba89a39cU, 0x87ad91a6b0b57dbfU,
  0xb398c085a090a59bU, 0x8fa8a37f85837794U, 0xa595b1a5ab9f9084U, 0x7e8292a0a4a7a094U,
  0xac93a39ea4a9adbfU, 0x7980e0a45590998bU, 0x8ba1a99a879d7b97U, 0x86db678999ae8cf2U,
  0xaea5aa87888c856eU, 0x83849d89a38aa38fU, 0xa79b91b0a2607d89U, 0xb4adadae849f8caeU,
  0x86873ac0aa8b94a1U, 0x977e8c8892949d86U, 0x7e9d74acc26aa38bU, 0x9d8b9aa485a3acb3U,
  0x89a599a381a088adU, 0x85918b9386a099afU, 0xaaa7639097e9869fU, 0x95a5c3a88da29380U,
  0x849bae9c847da07eU, 0x9fa57da38d9baeadU, 0x93a587a4aaa9a591U, 0xaaaa8e8e9885849cU,
  0x7f899f988ba69a85U, 0x868f8498989592aeU, 0x948e94907a7e8f9cU, 0x8f987cae8c8da1a0U,
  0x918c8ba6a49595acU, 0xa1a8aa91928280a0U, 0x817f849781a2a9a1U, 0x828ca3a09a958d9bU,
  0x8a929d7c97998ca5U, 0xa3977ea191828ca3U, 0x9e9482a1a5a39196U, 0x8e9792aa7e8c8b98U,
  0x8c808588ae9f959bU, 0xb29ca989ab9eb09fU, 0x7f8e9495847fada0U, 0x809e95af83ab9e7cU,
  0xb0979694a785849bU, 0x91a98a9083a18483U, 0x90aa907e95b28b7fU, 0xa684ad878e939c95U,
  0xa785ab8da58c9ea2U, 0x939fa290b3759c9fU, 0x7cb185838cb89887U, 0x989f8a929a748f94U,
  0x85afaf9a9687aaaeU, 0x8ea3a4ad999aa1a5U, 0xa6a79aaa86aa8ca8U, 0x998c97aaad957a82U,
  0x7ca89b9d80a58f89U, 0x8b96bd829580afc0U, 0xae839098a19d8e82U, 0x88ba9d88a191aac3U,
  0x83b1837395aa8b7fU, 0x808ea3a581a09796U, 0xa5a99d89ad8f7da9U, 0x9581a88fa98f9eaaU,
  0x9c838d8f89809badU, 0x91a58f808f9c9a7fU, 0x88677da1a674af93U, 0xa4ad9e7980a8ad8aU,
  0x999c9d9987aaa39dU, 0x99a6a788909f93aaU, 0x83ab85969f95a99eU, 0x7f94988b998aae93U,
  0x9f82937c9b959887U, 0xb3aea5ad78aca8b8U, 0x80ac5f9bac8ca585U, 0xaf8e7880aea58280U,
  0xa5a78d968fa67d89U, 0x9a7bac86828d98adU, 0xae95aa8ca9ae909eU, 0x84ac9d988d689eadU,
  0x807c929ab097b080U, 0x75c29888b27f9b84U, 0x94977d9c638caa82U, 0xa88395a784938097U,
  0xafa29f8c82829b8cU, 0xb49b9182848c9e96U, 0xa691a485955e8f86U, 0xa582918596a39680U,
  0x9b91ab9aaa94a793U, 0x93829f919d85a48eU, 0x889d81938b868692U, 0x85758c90ac7c9da9U,
  0xa8a0a18d9e959e95U, 0x998b99ada282999fU, 0x95889ca0807dae82U, 0xa4878aab82ad8497U,
  0x9592838d8c7ea1aaU, 0xa19297afa599aaa5U, 0x90a09eaca2aeaa80U, 0x8197988aa1b7a980U,
  0x8ba7a6ab8bada69dU, 0x848da1938694867fU, 0x988ca180ab8e839aU, 0xa2ac8aa686955b8dU,
  0x7e928294a89c9ba7U, 0x7b99a977a369b188U, 0x958ec67e998e83aeU, 0x8ea1ba97aa86a8c8U,
  0x9daba296919c9cb2U, 0xa98ba98a959ea47dU, 0x827f938f9c9c8696U, 0xc18ea8ad84b67e9bU,
  0x978b8baca9807d82U, 0x7e709c89919b87b0U, 0x9c6da7a3bf88a99aU, 0xacb39c9296a68298U,
  0x85a3b5aba289adadU, 0x77a88ba79bac7a9bU, 0x93a6808e7bc682aeU, 0x8181a48983908b7dU,
  0x8b929aa68a85a39cU, 0x8fad9faaa290a07bU, 0xaf8c8284837cab94U, 0x8d8b8b96ad899992U,
  0xa99d9e8b9a96af86U, 0x7b88ae99a8817fa6U, 0x88939e9482a195a7U, 0xae81819e7baaa283U,
  0xad919b9c7e988c87U, 0x9a9fa6aa8da58e90U, 0x82a5aca08c9e9e85U, 0x7d9087a8a8a67ba8U,
  0x80a280a3a29d9e98U, 0x86ad988b9c957e8cU, 0x9596918ca88b80a8U, 0x9a7ca3978292a68aU,
  0xa69cab92a2ad8e81U, 0x7c7d81ac7e958495U, 0x9daf88aca17d7e96U, 0x918b83a8a28593a6U,
  0x877c8099878e8089U, 0xa9849f898083ac80U, 0xa1819aa1a6a28d82U, 0xa87d9f848d85a792U,
  0x9191829f93ad7f8aU, 0x96a7aaaba494a788U, 0xaf89abaa7d928382U, 0x87ab97a2a97c7e7fU,
  0xa58194837c898a98U, 0xa090878c83a58a84U, 0xa7ad7b94969a9e9dU, 0x9b9e898f86a07e86U,
  0xa58baea7ab85a38dU, 0x81a8889b999186a0U, 0x8380859d868f90a4U, 0x848e9b918492858dU,
  0xad9391819aa5939eU, 0x7d939090987f7f88U, 0x99a6899197a28a9aU, 0xa498ac8c869e9387U,
  0xa3818a8d93958792U, 0x9785859f9c877eacU, 0xaaa29d99977f9f84U, 0x989b9196acaa9eacU,
  0x7e9caa9da59dac9fU, 0x9fa495a6a0837da6U, 0xa6ac927b8e8da38fU, 0x9b999da386848084U,
  0x91b0938d75898d9fU, 0xa77f5484de7eac81U, 0x9f90dca3aa9ca2a0U, 0x8390de9b8b96af98U,
  0x8d859db1aa9f8ae2U, 0x7ba69b9797b4aba3U, 0x7b78a2687e99a8a8U, 0xc4949f7c80cca6a4U,
  0x9b929a9c90acb080U, 0xa560aaa380ac9b9cU, 0x8790a67caca8a095U, 0xad9993788298af64U,
  0x709d9d929a84818aU, 0x909c9b998daf8f8dU, 0x969a9d9ea8c0ae99U, 0x9d8b8286ae96a39aU,
  0xac8580857a7e7f9dU, 0xadab969e96a77aa8U, 0x9ba681858b94ad98U, 0xb08d9f9183848877U,
  0x829398bf838ea8a6U, 0x8e9cac87998d7e9aU, 0xa496ac7c899ca282U, 0x819bac81a48894afU,
  0x9288a3a29389a9adU, 0x7da28caf9498997eU, 0xa7a287a8a09f7f97U, 0x919aada28ca0989eU,
  0x7a988b9e7c7e88abU, 0x8993ae9d85978da5U, 0xaca3857d7c96a7a3U, 0x96ae9b979da09b9dU,
  0xa88f91ac7ba2a77cU, 0x7f959c9c8e999b84U, 0x88967f8e9e9c9c9dU, 0x859599a6a097a093U,
  0x9d9fa4a89ba69aa6U, 0x8b8e90abaf9f909eU, 0x887ca2a9889dae86U, 0xa17fab8d8d9b887fU,
  0x8a88808a9d90928eU, 0xa0a48c9487ab939eU, 0x97a2858396919192U, 0x7d7b9f8f928b8aabU,
  0xa994888c8996928aU, 0x939eada7898baa84U, 0x9094909caa98a3a6U, 0x9a8981928098a990U,
  0xa0a29a80969e92a2U, 0x97a9a9a9a1a59c7eU, 0x897c95819a898ba7U, 0xa1a2ab7e98809e9dU,
  0x7f7eaa8d84a79681U, 0x83858ba9979e9991U, 0x8ba5a888a78fa68cU, 0x93998688a9a19681U,
  0x83a28381878d8c91U, 0x947d9b957e95a39aU, 0x7b7d9499ad9c9b80U, 0x8296887da298aa7bU,
  0x95a6997f8d94999dU, 0xa67b868a819b9d96U, 0x92879aa0947c938dU, 0x96a9af7e867f7d90U,
  0xa88c8c91a29f8da8U, 0xa6828baba89baa90U, 0x86ab9aaf938b988dU, 0x808a8a879baa9c92U,
  0x8aa0a79aa683a6abU, 0x87a296ab939cacadU, 0xa29c86ac8388a083U, 0x9b879c8e82a0ac96U,
  0x9eac8b7e987b8099U, 0xae889caca4987b81U, 0x958f7b8baa91a4aaU, 0x8ea9927da185a89cU,
  0x7da5a396809e9691U, 0x94a58d8385869d7cU, 0x9aa99999a3919093U, 0x8b9ea3ae82af7baeU,
  0x8eae908a87849992U, 0x878c688ac0a8a39eU, 0xaeacb2a28d9a7196U, 0x8b5ec59588aa8e6aU,
  0x968a7c928194a4c9U, 0xa0999196909c7f82U, 0x8a94a69ca9bf8cacU, 0xb19998a98fa78caeU,
  0x968bc99c88a59a8eU, 0xa5a0a4a4867e829eU, 0x938d7183b39db1a6U, 0xa4bb7d96aba99680U,
  0xa9a687839e838b81U, 0x98a5828b809198acU, 0xa9a1aaa6987f88b1U, 0xa396979d9ba59792U,
  0x8ca494b59894aea6U, 0x99939ea976949e7aU, 0xaaa79caaa692c27eU, 0x9fa974a49886aabfU,
  0x9bb07f8790a49583U, 0x9aac9899a1a1a88cU, 0x99a1ad9397508eafU, 0xa99da97b998c8281U,
  0x8ea42fa291948aa4U, 0x9077a4af89a2a49cU, 0x8392bb7d8d60a096U, 0x877d9eaea19291c7U,
  0x9c92cb928e9b8482U, 0x7eaca49a899f7e95U, 0x97ac6da9abb57e82U, 0x929894889b9e7f87U,
  0xad9a9c8c7da58985U, 0x82a7ab88a686a682U, 0x889d8aa1a58683a4U, 0x80888c7c8b808f82U,
  0x7d86a0aba4ab7c81U, 0xa78da7a07f8ca0a0U, 0x8d849aab81a5acaeU, 0xae82a88a95aa8ea0U,
  0x8b9d9da2ac959685U, 0xaa838ca68f878382U, 0x899f7d9aaaaf8a83U, 0x8ba57e7c9c918b7cU,
  0x9ca1808cad87828fU, 0xaa977c8b9a7c7c7bU, 0x84a686927faf8c88U, 0x827e88969b7f9dabU,
  0x81817e79b3aa6783U, 0xa998898ec7917598U, 0x8f81a68fa4a37694U, 0x7d68c081a6aa98a2U,
  0x9d9e8e9198999cb9U, 0x87b2a6a48dbe9d9eU, 0x7f86a794acb08099U, 0xbaa39e8791af989bU,
  0xa79adaa489898598U, 0xa1a18aa89b81aaa2U, 0x96846ba189a59086U, 0xaaa58c697f8a9691U,
  0x799f7b868e84807cU, 0x79aaa883959085a2U, 0x8fa8a0958e9d8d83U, 0x817f6da6a89fa493U,
  0xab8587869f9c90a5U, 0x9496819b82887c7eU, 0x9d9a97909da2a190U, 0xa5a2927c8d7dada1U,
  0x8c85a67b97879e90U, 0x9e9888918faba28cU, 0xae9688839a829a8fU, 0xa29da3807f8a8b9aU,
  0x93acaa9d7ca6ad81U, 0xaea886aaaa80a69fU, 0x8c7fa6ae7f83818aU, 0xa99f87a28d939faaU,
  0x9c81989f91858fa8U, 0x82918081a78381a7U, 0x869b94928284858bU, 0x9d9b9193adac9691U,
  0x959c9e8c8c8d9fb2U, 0x909db5a46897b585U, 0x9fa4708c8786b09bU, 0xacd062aa82aa9aa6U,
  0x989ca883a17ba277U, 0x8c89aeaaa27ba39cU, 0x9d9aa1888c5ea690U, 0x899c9aa8829a8684U,
  0x8ea660b0a27fa8a1U, 0x8f8ea7a3a5aba57aU, 0x9aadb8957f807eafU, 0x8d6c849f8aa3a8a3U,
  0x9790b4a299a8ab93U, 0x8fad92af99a98187U, 0x899e9c9590998284U, 0x8c80a9a28494b684U,
  0x9d888da5837baba2U, 0x84969d7d9a6e8991U, 0xa78dc09da49a9c97U, 0x818bbeac949ca7b6U,
  0x7a8f89a1a3a397d2U, 0x868295a59da2a091U, 0x82729e999794a4aeU, 0xcfa99e838ecb8689U,
  0x8da084ae9b7f9faaU, 0x8a85a79a9984a6a2U, 0x7b639495b2b8a881U, 0xb2bd8f7e91a78481U,
  0x837a9e838c867b90U, 0x999a937c9ea579aaU, 0x90ac839894cb9b8eU, 0x939a9fada189899bU,
  0x828ca3a0799184adU, 0x8388aba48a8d8985U, 0xa2a77d918080a4aaU, 0xa770a6868d908495U,
  0x8c9a8e949096a3a2U, 0x81b29ca0a97281a6U, 0x83b69697a499a29cU, 0x88a096a08094a6aaU,
  0xa78ab5ac98a4968fU, 0x899ea289b475b29cU, 0x7f9c958b8bb69d7cU, 0x9daca6a9ab8b80a5U,
  0x898cb69f81ac9791U, 0xa99f959a77a0b58fU, 0x8799a0848ea88e94U, 0x94ad8e898894737fU,
  0xa27f92997d8180a3U, 0xae8791a298ac928dU, 0x948ca38f96939484U, 0x9b9ea48b929d8b90U,
  0x9089ac7ea9a39b89U, 0x938aa9a4888fa28dU, 0x9a867caf839c7fa5U, 0xad8f9d80957ea1abU,
  0x878f999e98a1888cU, 0x918784a0859f8b80U, 0x96938a95ae7f828aU, 0xa086998ba27fa089U,
  0xae9d80af9a88a9acU, 0x93a28aa3ae90a298U, 0xae9d9d9b8a867ea3U, 0x8f8daf908a92a28eU,
  0x7bb08ea081a4a9b1U, 0x7e7cb59c5f7dc462U, 0x9084a0a48099c1a1U, 0x9aca69a77b91a0d0U,
  0x878a9675ab80a949U, 0x907daa8aaf6f9394U, 0x9f839fa89c54a687U, 0x9ba88188aaa0a481U,
  0x94a632adad93ab7dU, 0x9d8f9299abb09c93U, 0xa69db095ac779387U, 0x7b788fb19a867e9fU,
  0x86aaa884a7a7919eU, 0x7ba28b869f859282U, 0x9d7f5e9783bb8093U, 0x9b8bbd898d989c85U,
  0x9497a277b3848697U, 0x9a85b1988d9e8d93U, 0x83a594aa8ead9f85U, 0xa7d777aea2a0859bU,
  0x9db09ba59ca69b7aU, 0xa3918e8da78da1a4U, 0x7da4959a9a74938aU, 0x988a9c89899b8a82U,
  0x847f799f938c9b7eU, 0x94aa9aa9a1918f8dU, 0xad90929ca38c988aU, 0x8e8eaa8ea087a490U,
  0x8696a1a08baa9ea6U, 0xb38c999cb5ab9aa4U, 0xa97ead7b8981a099U, 0x9d92a392917fb393U,
  0x7c7d88a985a3b09aU, 0x83a5daa57774b25aU, 0x7d898595948dbea0U, 0xa5d65f9a97aaa8d1U,
  0xaab0ad7e9daeaa63U, 0x9d97959a936c92a2U, 0x8dad8d9d9b47aaa1U, 0x6faaab8a7e8da27eU,
  0x98984f8eaa9ea297U, 0x8e9a8faca4a9a875U, 0x9c9fa8898e6a8d8cU, 0x91779c8e7c887f86U,
  0x93a0b99b808d7c7cU, 0x9a9682a0a3848187U, 0x7eaf82949caa8c85U, 0x9e82c88c879f8d88U,
  0x8486a6898a849d9aU, 0x97a5ae89898480a0U, 0x8a969b8c9c8396a0U, 0xa580ab8c9fa9ab7eU,
  0x9b918783a17ba294U, 0x959e847f8f9998a6U, 0x998480869f7fa29bU, 0x7ea39988ac8b7eabU,
  0x8a8f80aa938b9da7U, 0x9b8a88a4ad8a908dU, 0x8bac9ba58f9d93a9U, 0xada3a3938bacae8fU,
  0xaa857eae91929faaU, 0x88829c8c8a959e9aU, 0xa98e859ba79d8287U, 0x958f9aa7a6988a7cU,
  0x91947e89907c9989U, 0x8e84a99a868ea093U, 0xa4a788a09c7e8c94U, 0x84a08080a78b9c8bU,
  0x82809cae8faaa08dU, 0x9e86ae84979ca39aU, 0x808b868bab82928cU, 0xa280917f8b93a6a3U,
  0x86a7ae987d8faaa9U, 0x85aa98a3968fa6a0U, 0x8695a587a69b8da2U, 0x918194a48d999994U,
  0xa47d9394a3a2a48cU, 0x93a1929795929a94U, 0xaea392a7adad8d7eU, 0x8ea1879d9492a39dU,
  0x89948d9494ae95aaU, 0x94847faa87699279U, 0x8a8f08947b888095U, 0xa96a52af859fab3dU,
  0x837d884290a78892U, 0x929e8895826188a7U, 0x8b90987eafa7adacU, 0x4da787afa44f9683U,
  0x819b938b9aa5909aU, 0xaac28f7e9ba882acU, 0xa3b5868c00a5a2a7U, 0xa584957d9b6f8599U,
  0x9a8c829da385827fU, 0xaf92ae97b3a0a696U, 0x7f7ea99b92298d8bU, 0xa397ac939a9c9b8fU,
  0x9a9fabab7b93b99eU, 0x9a80d3957095a263U, 0x86a7c3998787b497U, 0x8aa99aaaa398a8d8U,
  0x909585728fa27c7aU, 0x949394a4a9b887b1U, 0xae929f8e8c4da47cU, 0x948e9c919ac57f87U,
  0x889c3ea48e8c918cU, 0x8739ab957e9c9583U, 0x9c81c3a9af5eb27fU, 0xab94939ea5b9978dU,
  0xa7a8bf9a918b8d91U, 0x75b28c7c957c71a0U, 0x8a93559ea3d57e9fU, 0x94a4a08d7d938f86U,
  0x7ea37d7e8e819782U, 0x91a3a4a67f7c928bU, 0x868380979ba9af89U, 0x878e899a7f7e7c9cU,
  0x8482a0a4a3a28da5U, 0x86829581a97e9d91U, 0x83a89a828b7b8791U, 0x7e9f847d9396868bU,
  0x939a9091ada68592U, 0x84a9a3a8a79485a8U, 0x8896907b8881809cU, 0xaba98c95a399a582U,
  0xab84879a8984959dU, 0xa2aa8aa1a083989cU, 0x81947da286a39698U, 0xa997aa9e85a87fa2U,
  0x919a7fac88a98aadU, 0x9b91a79caf88ab66U, 0xa29880898095989fU, 0x9a76b9a791a58a7aU,
  0x9c929d84ac7c8ec1U, 0x8c87ad828f7e8aaaU, 0xaea39182839e8797U, 0x8b927e8693a57e81U,
  0x9e84a1a9947c819dU, 0x819b827d8d82a087U, 0xa1adb79097aab1abU, 0x9db08ea19d768989U,
  0x7c839d7da685a397U, 0xa5959d927ba5af84U, 0x7d82b28a96a49faaU, 0x89909e89829f9296U,
  0xa784a69ba6af8d94U, 0xa4a869b1ac658687U, 0x87af358b82a79998U, 0xa75c92ac9595803fU,
  0x8f87967d9dac7e87U, 0xa79c8f878f7298a5U, 0x8b96ac8686c09485U, 0x517d8c9ca17a7f9fU,
  0x9d829891957d8d94U, 0x97a58e90b1a0a2aaU, 0x8ab07aa04789a080U, 0x9a94988ea687a87fU,
  0x99ab9b9580887d8dU, 0xb3a2987d89a2b7a0U, 0xa398aea6a6278597U, 0x99a5a5aaafa28183U,
  0x9d8e9f788c8d7e8fU, 0x9a8a6984c58e9c8eU, 0xa8adb68f8c848a85U, 0x9386c58182849482U,
  0xa78d827fa69183a5U, 0x95a5a6a695a3a4a7U, 0x8a7caf9b9ab899acU, 0xa6ab9c849e96a1a4U,
  0x9f90a39aa07f9699U, 0xab8b9299a789a7a7U, 0x937c97a1a89f93aeU, 0x92be9d80a8a4827eU,
  0xa086b19393a989a1U, 0xa890907c8686858dU, 0xa4a38e837fab8c82U, 0x80a29d8cac867a81U,
  0x91809f947d8c8c8aU, 0xad9baa86a1a1a781U, 0x86849aa7a390aaa0U, 0x8e859d87af90a985U,
  0xab91a88aac7e9aaeU, 0x877f86a1a09d8298U, 0x90a9ae948c8baa9bU, 0x7fa3aa8c8c8a8ea0U,
  0x908d8a9191a28c8dU, 0x91a98f9d9187aaa4U, 0xa8a3988f838f8388U, 0x838b8187a28683a7U,
  0x80a5977ca087a08fU, 0x7e9993a0aa9ba68dU, 0x8c91988a93a98297U, 0x83adacab83a19287U,
  0xa29aa1809baf7fadU, 0x7b90a8898c7d7b87U, 0xacaba79ea0919daeU, 0x83a8958388998994U,
  0x7dab7c83a3ac8b8dU, 0xa6a58c9da5a38b98U, 0x858ba0a9a5a2a790U, 0xaca48eab9a94809dU,
  0x9d9481997e86a485U, 0x998d9a9ba5879696U, 0x84aead85a99f937cU, 0xa17f967d8e90958aU,
  0xab7b9882838a7fa2U, 0xa38ea0a39b8aaa84U, 0x8a849a7b9d7fa37fU, 0x809e898a8a9f9592U,
  0xa29c978779a59da4U, 0x8e96b679aa8d9c81U, 0x94a4bfad9488bc97U, 0x86bb9fa69fa88ebcU,
  0x81968c95a2899a93U, 0x7c8cafac96b6a799U, 0x9c9aa081806ca8a0U, 0xbc8a9e82a0aba07cU,
  0xac9b8da89581aa9bU, 0x8e9e8ea8a3929694U, 0x9f90937fada1a5a2U, 0x9b8d7e918c8e9079U,
  0x9b8db19a828484a4U, 0x9880849a7f8d95a0U, 0x8aa3758883aa98a6U, 0x9785aca485ada089U,
  0x8a9380a574ac98bcU, 0x819ecb905aa19779U, 0x7f8ea19da6af9da3U, 0x93c09f838a9da0e8U,
  0x8d8f7e788ca39e9dU, 0x80b08aae9a908ea9U, 0x9183a569a24c9086U, 0xa9848b8d8dbeac98U,
  0xaa98239a83819b80U, 0xa646a3ad99a99dabU, 0x84709ba0b481a595U, 0x89b6b0909c978788U,
  0xaca1889495a7af8aU, 0x84a2868ba59e7291U, 0x7f8346ab97b97d8cU, 0x8388be897f97ae97U,
  0x929b8f9b98878e9fU, 0xa0a496aa7ba39299U, 0x7b979188a6ac88acU, 0x948f7c8a919a7e8dU,
  0xa1857caaa08eaba3U, 0x7f8285aba9899188U, 0xab7b9d839e968692U, 0x9892998b7f93aba3U,
  0x7e9ea091a39f9a8aU, 0x7ea38fa49d8380a8U, 0xa98e9b8297828888U, 0x85aa7f96a47f7dacU,
  0xab9882a4919a93a3U, 0xae84a1828e92808dU, 0x91859ba4897bab98U, 0xa19a8aabaea581aeU,
  0x90a484a4a0999184U, 0x86959586b5957eaaU, 0x9f7cbda9a89e7fa7U, 0x99a0928696a980beU,
  0xab9f8cc290aa9ac1U, 0x91948b908c989489U, 0x7e84b39e98cb889dU, 0xbc86a5929ab9ad91U,
  0x8985b9868ea07c85U, 0xac8eab9382aa84a3U, 0x7f838aa89ea492a0U, 0x86a8929090b88fb9U,
  0xbf849cafa387ac87U, 0x7291aea393a47c9cU, 0x8e7ddeb37dbcab97U, 0x82ab8780ad7e7eaaU,
  0x8492afac908fab8eU, 0x93a4aba1928f968dU, 0x9f9888a386818da7U, 0x899da4a0939a9292U,
  0x9d9c809c9f8da185U, 0x9f8c809caa9b81a8U, 0x837cab7e9d827baeU, 0x7fac7e7da57ea8afU,
  0x7fa6ac8f9ba88385U, 0x939e82a0a0af9783U, 0x85929982818399a6U, 0x92a8aaa7919a8d9aU,
  0x977dac80aa80ae97U, 0x7d8f9fac83a37c9bU, 0xa691ad8c9795a67bU, 0xaaada8a19b849886U,
  0x9a9a9fa4968e9e95U, 0x8a8f8e9a7fa284a3U, 0x9b9d869e97857e91U, 0x91887e837e9585a4U,
  0xa4a59bad81aa8395U, 0x917f838c8f849ca2U, 0xa19c9ca48583819bU, 0x93ac918f95a17f80U,
  0x879293a79ea9838fU, 0x7fa4ae8b8695829eU, 0x90a28baeaa969e8cU, 0x87878593ae7d9682U,
  0x999a90887d8ea5a6U, 0x83a3859da49daaa1U, 0x927c8482a9a79191U, 0x928f8489a19fa48cU,
  0x8eaf90b97382b3b4U, 0x9bac7ca0b8acb86eU, 0x8d8097899ba9a59bU, 0x829bada09b7e958fU,
  0x9085a0b37eaa7bc6U, 0xad8a8e8a9fa0a28dU, 0x9189a882839c8d97U, 0xaa8d929195b891a2U,
  0x838a9881a37c91a1U, 0x94ac9884ab74b296U, 0x90a5ac96a5b082a8U, 0xab958eaba4919f95U,
  0x92aba58c977d9b8fU, 0x938d96a17c988c7fU, 0x92a2b0897b83a88fU, 0x8a8dae99947d8489U,
  0x8590a78990909eb1U, 0xa6a38d9ab0b1a696U, 0xa48a86929581c194U, 0x807dba89af808e91U,
  0x84999db08da492b5U, 0xa78e98a08ea68499U, 0x84808ba1858b95a8U, 0x8facaa99a4889489U,
  0x7ca59e95a1908ea9U, 0x7b8c857e8876a6a7U, 0x98999eabb39b8fa4U, 0xb2a6afa77a82817bU,
  0x917e919dab928385U, 0x9985a1a176a083afU, 0x9983af9287a893a6U, 0x7f8cba958a808a97U,
  0x82a78d7d8ea283a9U, 0xa69d9d9e988b8284U, 0x9b938ba5ada0a597U, 0x8089878c8e95a495U,
  0x7d84a288a6ac7e95U, 0x7ba9a67fa994a1a9U, 0xa1848287828e8283U, 0x969ea2a684a19b8aU,
  0x82917d9ba98aa389U, 0x999b7b83939e99a8U, 0xad8a91838a8f85aeU, 0x838b9a81af98a893U,
  0xa27f9aacac938189U, 0xab8c85a6a2a38390U, 0x9787aba5998c9b9cU, 0x909e96939a9e9caeU,
  0xa3a77fa8839d957fU, 0xa09a8384a9938d8dU, 0x8a8a7c9aa8a9bb8dU, 0xb16f9981858d9670U,
  0x909e848c859b8384U, 0x9a7a9f888482797eU, 0x8898a39b7ec39ba2U, 0x947f88917e8eaa8fU,
  0xae89a49ea5978eaaU, 0x85c6a18894a1879cU, 0x9bb0c49d99a9808cU, 0xa07ba9b29ba39eadU,
  0xab978fa78a7c9eabU, 0xb2a57bac8dad9b89U, 0x7baeaca77e63a9a3U, 0x888ec1a08d7faf84U,
  0xa8aa9285b49d9186U, 0xa08e9881aa9ca4b4U, 0x887b9c97959a6eabU, 0xaa9cad8e9ea9a6a3U,
  0x7e7d7a999a86a78eU, 0xadb1a1a0a9b49ba8U, 0xa5a09885a6bc817fU, 0x9f94a080918e9c96U,
  0x9694c88f82a8aba3U, 0xaf729b99957d958eU, 0x997a8892bb9b859eU, 0x929eae8089b48189U,
  0x999c73a48d868b91U, 0x8b907ba18c8c9085U, 0x8d7cad849db77e86U, 0x7b98989a7f7f92adU,
  0x879b9cb25bb099a3U, 0x9790ba909370836bU, 0x7d95a4a49d98af83U, 0xa39f82a7a59fac97U,
  0xab95a989a87e988cU, 0x9f9896969a80a7a4U, 0xa6aaab76a0648689U, 0xa5b090a583a27fabU,
  0x8d962d8d9284aa8bU, 0x7d5b9c7b858a958bU, 0x848fb19ba56e99aaU, 0x939eab9d88b4af77U,
  0xa5a38091a6879a93U, 0x9d968a9ea1a38181U, 0xaca94da39fb4868eU, 0xa27eba9f819f90a8U,
  0x7d909589ae906d81U, 0xa2a7737fcd967eaaU, 0xa18eaba3a97b7798U, 0x9570c07c99aa869aU,
  0x838678979e94a5beU, 0x91aea9a884c493a6U, 0x8286a0a996d29a7eU, 0xb39f8ba78c8d8f9dU,
  0x7d91c768ad8c8490U, 0xaead89a8809ba390U, 0x98a56baca89fa9adU, 0x8f9e7d8a9c7aac79U,
  0x7fab7598987e9d83U, 0x8daba8a086a29095U, 0x8d87acb09f8f9b90U, 0x93a0729189999681U,
  0xbd0fc170bd4ec6d2U, 0xbce7906c3d8528a9U, 0xbd77a009bd138b1dU, 0x3d654c51bd608a41U,
  0xbca1c9d8bd1a7df7U, 0x3db8abdd3b8e55feU, 0x3d8f20c5bd832fcdU, 0x3cc0276c3d39f51bU,
  0xbd070a9fbc50f3aeU, 0x3d5d5ed1bc721845U, 0x3d20f395bcd5fcf3U, 0x3dab1fdc3d23bbebU,
  0xbda4ae3c3c8c9f1cU, 0xbc9391f9bd2bfe03U, 0xbdb2e1ee3d579e58U, 0xb98966523d161417U,
  0xbd8864dc3daf340bU, 0xbc4ad99b3d9b44dbU, 0x3d9775c0bd3bc728U, 0xbd6884fabd7e3d64U,
  0xbbbc02053cf7bbcfU, 0xbbd41ceb3d0bde4cU, 0xbdb286873c01233dU, 0xbda81a8e3ba45c63U,
  0xbd61d119bc0b0125U, 0x3d1ea63dbd1ac543U, 0xbd877db8bcbf0a31U, 0x3ceb64c7bcbe3c81U,
  0x3c5d5a583d8848bbU, 0xbd910834bd2f4ac4U, 0xbdb8ff993d97787fU, 0xbda9590d3d154fbdU,
  0xbda4bf473d9ba0aeU, 0xbd7ab95abc142271U, 0xbd6ea7323d533357U, 0xbd7f27debc801705U,
  0x3da7384f3d9a7f6eU, 0xbd360c0fbcd7e1beU, 0x3dc234d2bcaeed2dU, 0x3da7fc0ebd84076dU,
  0x3d47f575bd8cd64fU, 0xbc58cd13bd9f8dcaU, 0x3ce044ee3d8654c5U, 0x3d7065e1bc23144aU,
  0xbd63a190bd286ef5U, 0x3d73546abdb3ae52U, 0xbc48ca043d59ec62U, 0xbc672bfa3cfa0479U,
  0xbd4dfdc73bc7f416U, 0xbcbb80ffbca425b3U, 0xbd0491fdbaf2807cU, 0x3cf8c73dbd873693U,
  0xbbf3b371bbe9f058U, 0x3d84efd63c2ba447U, 0xbd994936bd9f8a09U, 0xbcca3befbcd8a247U,
  0xbdaf65503dae93bbU, 0x3c54bff33d22eae6U, 0x3bd4431fbda3422bU, 0x3d9d9a8d3cc3a4cbU,
  0x3c9608a2bd952251U, 0x3d77d243bd702a83U, 0x3cc2d71cbd8f7ac8U, 0xbdaa1d5c3d6f831cU,
  0xbf1e9317bf1fa7b2U, 0xbf1c69e2bf1d5c8aU, 0xbf1a414bbf1b5548U, 0xbf181778bf192c13U,
  0xbf15ee43bf1702deU, 0xbf13c50ebf14b6e5U, 0xbf119bd9bf1337d1U, 0xbf0fc0c6bf10873fU,
  0xbf0d496fbf0e5e09U, 0xbf0af45bbf0bb3d3U, 0xbf091792bf0a0b9fU, 0xbf06ac74bf0818c4U,
  0xbf046a21bf05b935U, 0xbf02a72cbf035af7U, 0xbf003ec4bf0166cbU, 0xbefcc0e1befdf25cU,
  0xbef7ff8dbef97af2U, 0xbef2daacbef5d658U, 0xbeeedaebbef183eeU, 0xbeec053fbeed0dfcU,
  0xbee5cc86bee8df19U, 0xbee2c691bee481b6U, 0xbede5a06bee00138U, 0xbed95975bedbe069U,
  0xbed57190bed7bbccU, 0xbed119d2bed39c65U, 0xbeccfcdbbece7abcU, 0xbec81216bec9eb94U,
  0xbec42293bec64bc8U, 0xbebf964fbec21e81U, 0xbebbd467bebdc70cU, 0xbeb70f66beb9c6c3U,
  0xbeb26cc8beb584e9U, 0xbeaf108cbeb01f9cU, 0xbea9b9d6beac43e8U, 0xbea5a5b3bea78b82U,
  0xbea1472fbea3b877U, 0xbe9df52dbe9fe8a6U, 0xbe98a8acbe9a7eafU, 0xbe9437d7be96e28cU,
  0xbe8ff04ebe92a1ceU, 0xbe8c2f81be8e309dU, 0xbe871a73be89740dU, 0xbe837b4bbe85485fU,
  0xbe7d4370be81108dU, 0xbe74dd29be77d1c2U, 0xbe6cf68fbe70f1a7U, 0xbe635f73be687e9bU,
  0xbe5c0d33be5fc9f6U, 0xbe5298ebbe572863U, 0xbe4a2e62be4e60c6U, 0xbe40f7a3be4650baU,
  0xbe38ca67be3cf429U, 0xbe30e2afbe346263U, 0xbe279579be2b5080U, 0xbe1dbea2be233fbdU,
  0xbe151eb7be18c5a2U, 0xbe0d4214be10e9a8U, 0xbe03ea43be08ca04U, 0xbdf6d41cbe00009bU,
  0xbde6ad66bdee86ceU, 0xbdd64f8bbddedfabU, 0xbdc2e1d3bdcd739bU, 0xbdb0d9bdbdb91c73U,
  0xbda232f0bda98bd5U, 0xbd91b3cabd9a11acU, 0xbd7f49f2bd88cf06U, 0xbd5d52aabd6e829fU,
  0xbd396754bd4bd82dU, 0xbd18422ebd28b44dU, 0xbce92490bd065f26U, 0xbca393dabcc63ab6U,
  0xbc38fd67bc7e6d4fU, 0xbb50d831bbea36afU, 0x3ba7113d3a430d81U, 0x3c5f81ea3c1cd21fU,
  0x3cb5c8543c9251d5U, 0x3cfa156d3cd792ebU, 0x3d1f85993d0e7775U, 0x3d43b32e3d30fd13U,
  0x3d65c6e63d5581f9U, 0x3d849c253d769ca0U, 0x3d94d2d13d8cc137U, 0x3da545363d9d4db3U,
  0x3db42a253dad2c0cU, 0x3dc753a93dbd8072U, 0x3dd83cb83dcf9b02U, 0x3de9e6cd3de18e00U,
  0x3dfb38993df2d9e8U, 0x3e06e1123e02cabbU, 0x3e102d823e0baa47U, 0x3e18586c3e14041bU,
  0x3e204a823e1bccd7U, 0x3e29446d3e253ba2U, 0x3e30d4f63e2cee79U, 0x3e3ab6513e355975U,
  0x3e44b1203e402f5fU, 0x3e4c9bdb3e4819d5U, 0x3e54ec6f3e504526U, 0x3e5d6e6c3e599305U,
  0x3e66f6f73e6262b2U, 0x3e6f606b3e6a8e43U, 0x3e78a8883e72be11U, 0x3e7e6b913e7cfa4bU,
  0x3e8356433e822941U, 0x3e87a6743e8579b3U, 0x3e8d14c43e8ad08dU, 0x3e912c103e8f22f7U,
  0x3e959ffa3e937562U, 0x3e99f1013e97c7ccU, 0x3e9e436b3e9c1a36U, 0x3ea295d53ea04a59U,
  0x3ea6e83f3ea4e5f3U, 0x3eaaac333ea84374U, 0x3eaf8d133ead63deU, 0x3eb4331a3eb1ef37U,
  0x3eb831e83eb608b3U, 0x3ebc64883ebb4b78U, 0x3ec0d6bc3ebe246bU, 0x3ec529263ec3d8d9U,
  0x3ec97b903ec81763U, 0x3eccf5953ecac390U, 0x3ed220643ecff72fU, 0x3ed672ce3ed44999U,
  0x3edac5393ed89c04U, 0x3edf17a33edcee6eU, 0x3ee36a0d3ee140d8U, 0x3ee7bc773ee59342U,
  0x9a7fa597bfa9a598U, 0x9d3a80ca8584a076U, 0x94a786b996a79191U, 0x9a43a29e7e131f92U,
  0x7f758f92a4887e71U, 0xa9999185a39da29eU, 0xa66ea7828a93bc9dU, 0x91909190d9ab9286U,
  0x8e9e8f73a872808bU, 0x8a898196a4a392a6U, 0x8897855b92a38f90U, 0xa4938f95a39b8751U,
  0x9d829d825595a67dU, 0x9f898631eaa4919dU, 0x9dad962a588a899fU, 0x9a97a68f80847a9aU,
  0x8d9d8fa7789ea68aU, 0xa1c28c69a7958a8bU, 0x9c8e96899e8c88a0U, 0x83ca918ca7aa8e7fU,
  0x8b92817a9c89897dU, 0x9ca495aaab8187a1U, 0x6ba7a3a496b3a389U, 0xc8889f955d95899eU,
  0x8290859aa3a291a6U, 0x9d9e9ea2818282a3U, 0xa2a28b98a0a190a1U, 0x998f8e9d94978693U,
  0x8e9490919fa0929dU, 0xa58b90b0a2a29192U, 0x987e82ac9482a29cU, 0xa2997e868ba3b58bU,
  0x95997f95a1a5a89fU, 0x8483918d9d979181U, 0x8a8594848aa380a3U, 0x9992a88c93808296U,
  0x9c9786879b89a281U, 0x969ea6a28c929d89U, 0x88819e92a2969089U, 0x9f97909c9f94a092U,
  0xa1889790918b9b7fU, 0x9681839f9da4a091U, 0x9d96a8858ba38a9fU, 0x829f9581a197a6a1U,
  0x908f99a8888d9994U, 0x968da49a98a5a68eU, 0xa0987f8c9ea48499U, 0xa980928aa78b8499U,
  0xa499a89c87989c83U, 0x81ad8064a0ab9d9eU, 0xa48284798d889ca0U, 0x98bda39ba2ad979eU,
  0x818aa1909780ac7eU, 0x9a8fa18b91a4998cU, 0x899397967e8d9181U, 0xa18c9487769c8ea1U,
  0x948492af9da79092U, 0x7ca59c8481a0a394U, 0xa5957fa2839e83acU, 0xa88e8c8aa8a29391U,
  0x8a9488afa68f899cU, 0x888a84b994a6a3a1U, 0xa99da0bc9d9588a5U, 0x838f97a49ea3b19cU,
  0xa18f9f98a79a9e80U, 0x8e2991bf7886a388U, 0xa5b6a8b69e838b8eU, 0xa7498b85804d69adU,
  0x90a1a6ac9f9b7f8eU, 0x988b8f8688878f8dU, 0xc97d9d9085779999U, 0x609ca0a8bf8b9691U,
  0xa89d8a9b90957691U, 0x9e91878ea9909a9eU, 0xa59f8284aa82a68fU, 0x8b9c9e9fa0918b7dU,
  0x7d8681958299a583U, 0xa18e8260b28c90a3U, 0x8f9d9b4e869b9ba2U, 0xa29b8d96a4798b94U,
  0x8682808aa79e9594U, 0xa4989da380998e94U, 0x8d81949da6959a98U, 0x869a9880889b9b8aU,
  0x8d9a8b929d908490U, 0x80849b85a2959395U, 0x878ba19486928485U, 0x9fa48d898d908d98U,
  0x809d9a8e9aa2898dU, 0x8f8d859091918e99U, 0x969d8a8f9582a486U, 0xa09180888da59d9fU,
  0x88838aa59780819cU, 0x96a1978e8c839a95U, 0x93959e84868d9f84U, 0x879797a287969ba9U,
  0x9d9aa39a869775a0U, 0x81aa9885ad86888aU, 0x7e897e788686948eU, 0x80b9a6a097b48f96U,
  0x8aab97938f8d8ca9U, 0x96a297a7ae99819dU, 0xa3a5999a8a868795U, 0x5e899ca19986859dU,
  0x8d81a3948a93a681U, 0xa39aa3a48c9b83a3U, 0x84a891a6989b96a4U, 0xa18b9a97a4968da4U,
  0xa08da69ea69f8584U, 0x979894a4a1909f8bU, 0xa3b0a1b29ea2a099U, 0x97838686a67d989aU,
  0xa4998d803f9898a1U, 0x9aeb8f4ca087ae3eU, 0x8c92875da7a4a689U, 0xa4e2a18e89c6a16fU,
  0x868f9a65749d7e5cU, 0x6f979dad9da192a6U, 0x5491829b91975ba3U, 0xc58e92a841879998U,
  0x7c9aa375937c8e82U, 0x8198747f7fa3a790U, 0x88969b8b97918192U, 0x9c8f9f90a5918858U,
  0x9e8f837c70919ba3U, 0x83978caa908b8ca7U, 0x8a6391c58b9f8c89U, 0x8fa7848994a0ca96U,
  0x7f84999ba47f899bU, 0x91a08782a68d9f88U, 0x9f8f928fa1998995U, 0xa182a3828b9da088U,
  0x858c98a57f9381a2U, 0xa3a789807e97a788U, 0xa3938f8ea0999a8cU, 0x9e8c879b89829f9aU,
  0x96a39d8681889c98U, 0x8b7ea594a18fa49eU, 0x939481a2a48a8585U, 0x88a6838593a29aa5U,
  0x8e8895a586a49b9aU, 0x8383889a999f8187U, 0x9f84a38895988c89U, 0x908e9d96828ea0a7U,
  0xa0a583948f9898a5U, 0x998193ac92888e90U, 0x999b9fc0859aa090U, 0x88799896a37f828dU,
  0x7d9ba4a2968b8380U, 0xa08b99a4a7979795U, 0x95a19097ab9faba7U, 0x8f959f97b4968b9fU,
  0x8aa79c9081819c89U, 0xb39db3a995a29e9eU, 0x8e8ca78b988ba37cU, 0x8497a8a888908282U,
  0x85a287888a838187U, 0x88799485a281989dU, 0x9ab59787999a86a0U, 0x9a89a4ab9b98998eU,
  0x839985a532a2798eU, 0xa7ee9849a982a243U, 0x89889a5f9897a59dU, 0x96c8a399a8c67654U,
  0x9b8799557b9da350U, 0x6e959b8c908ba193U, 0x31847f8c98916784U, 0xbea7a18e3192a688U,
  0x639aab7d9b8a8c7fU, 0x87867b9884858c8eU, 0xa3a3896b8886a781U, 0x87a4898388a78356U,
  0x8a9d8877639f8685U, 0x9889a5b3988d8990U, 0xa37095ae8ea98c80U, 0x74859c9795cbb49bU,
  0xa59e9a9fc48a9d91U, 0x9f6d89b49b6d979eU, 0x74a688bd99a07e9fU, 0x9a778a93a1809ab4U,
  0x8999a3ae989081a1U, 0xbf928a817f919781U, 0xc06c8c96928d8998U, 0x748da089f094899bU,
  0xb39c7e897f9a9b92U, 0xb39b8a898aa1a88bU, 0xa88c96a9bda7a380U, 0x898da596808889aeU,
  0x8f8f867f988381abU, 0x8c72947aa19d928bU, 0x8c919285849e989fU, 0x88868b8c82707b8cU,
  0x8da1868fa79ba392U, 0xa36882c0997b89b0U, 0x93a8829a989a9d84U, 0xa97d8695a397989eU,
  0x8cac9ab39b9d9eadU, 0xa88a8a8f96839e97U, 0xb080978ea7737ca7U, 0x7894a291cba09a85U,
  0xab878b76a2959f96U, 0xb3897ea39b878f84U, 0x8d8f969ab8939c89U, 0x8d8c8c89968f8ea9U,
  0xa081856a8c7a8fa3U, 0x897e888ca4949398U, 0x8a999a9c8789a1a9U, 0x9096937f94768386U,
  0x9c968a868b9a8684U, 0x8a94a88d969c919aU, 0xa0969b7f9f918ba3U, 0x87a6a48999958392U,
  0x9a9584a082a0a4a6U, 0x959d868ca597a49fU, 0x7ea4a58993908e87U, 0x9d858c81a0819383U,
  0x8b81a6919387a784U, 0x8390a6989a9da77fU, 0x8b9592939b86a08aU, 0x83898ca39793a47fU,
  0x889499a3779c9b84U, 0xa19b8f868c88948dU, 0x999d9392a8818b8cU, 0x978b9a9593878793U,
  0xa8a69ba9979f9b9cU, 0x8f978c82889a76a6U, 0x83929fa38aa78a8eU, 0x9891808b9b918180U,
  0x98939fa4848ea996U, 0x818b9b8b9881848cU, 0x8faba1918da7a190U, 0x7095a38c9694878aU,
  0x9298829282a98d91U, 0x9b7d9fa7908ba79fU, 0x9b9aa3aa849f978fU, 0x969594888d93a891U,
  0x8c849ca39c928e7fU, 0x9b9190848f888589U, 0x9396978ba3a59a9fU, 0x967f918f909f9085U,
  0xa18f91988f9ba18dU, 0x901795b394a39796U, 0x89b19da3a27f9a87U, 0xa2449f939c13357bU,
  0x8f9e8598a59c9b7bU, 0x84a286a0a08595a9U, 0xaa7c8599a97f9aa5U, 0x888d9b849d96937fU,
  0x87a3a07a86897491U, 0xa1868b9c8393899eU, 0x8e84955e7e9c8f9fU, 0x808fa0a687928e54U,
  0x888795835c8d9f98U, 0x92899c1db8968796U, 0x97bc832f7a898a9cU, 0x978e8494958499a4U,
  0x9a9da7a296a69f7fU, 0x9588a09e8e80918bU, 0x819da6838e949191U, 0x909f888f8ea39f85U,
  0x87948c89a290838cU, 0x8ca98a858b8d9da4U, 0x859787a682938795U, 0x88998c8b9d8c998eU,
  0x8d909e9595978c89U, 0x8a9b90a99a818e8fU, 0xa5849c8c848e827fU, 0x879e8ca288938f96U,
  0x9588909f95858987U, 0x889a898e9da8a294U, 0x89a7869c8a8b9390U, 0x9685809f8a807f8fU,
  0x9f9b8e7fa39aab83U, 0x932798bb917b9a8aU, 0x9cb391b789848ea4U, 0x903da398881a6eb3U,
  0x8c9c87b3889c8c95U, 0x877f7d967e909b80U, 0xb5998da18e91829fU, 0x6d9f9a88c38a9a99U,
  0xc1aa8e94928a6e9fU, 0x8f8899aa9e9386a3U, 0x9e949b7b898e8a84U, 0x86949b97928d8687U,
  0x939d91878b828e9bU, 0xa588834b91a78995U, 0x898c8530709e7f92U, 0x96a29e9f9976959bU,
  0x7f92a289839a91a8U, 0x8c9aa4829d957f94U, 0xa18993a399a88799U, 0x87a38b999699838bU,
  0x9e8d87877fa8a791U, 0x80929087849c959cU, 0xa1a2a180a79b7f85U, 0x9e8f96958e8b9692U,
  0x8d9b9696a28a967fU, 0x8986a089968c8f85U, 0xa599a18b9f908496U, 0xa78b9e9193a88083U,
  0xa98b93878ba7a494U, 0x99a789a3918ba2a0U, 0xa79b909c8ca4a48eU, 0x7fa3a2a880a59aa2U,
  0xa79588869ea495a2U, 0x88857fb080808c8eU, 0x9fa587ab85969384U, 0xa5819697a584a695U,
  0x92a09fa67a95a8afU, 0x90a1a5887d9fa694U, 0xb49ba9838aa2849fU, 0x60a68b7fb88ea6a9U,
  0xb79a929c8a9198a0U, 0x818b86a29897a8a3U, 0x929aaa9ca7958e98U, 0x9688a18191868295U,
  0x9983999e9c9385a4U, 0x9897909e8d85a17fU, 0x837da9a69e86a598U, 0x8f9da49986729d93U,
  0x85a89da5a398a3a0U, 0xa08b9d808f879085U, 0x9c92869480a687a2U, 0x859d9e8995888c95U,
  0x8f9ca9878595949aU, 0xa5848d9e9c8d91a1U, 0x93a9a99e9b8e8999U, 0x7c8d9ca9958ea688U,
  0x9aa881a87e7e8d9eU, 0x9c8d9b89a78c8a84U, 0x81a585a6869c7c88U, 0x96978fa79ea28c8eU,
  0x889385a08f89909fU, 0xa2889ea9a38282a9U, 0xa195a78b918e8e9dU, 0x9f9d899c9d899fa5U,
  0xa08193997b7a88a5U, 0x89bd9d6ca09faba2U, 0x907c8a71978f8c8bU, 0x98c69c9aa8a0a483U,
  0xa77181809aa39fa6U, 0x5d97a485a7a6908dU, 0x7397838f99939488U, 0xbb889f97409780a2U,
  0x98a1a299b1a3a592U, 0x94988c7e969692a1U, 0xa081a9a969859382U, 0x91aa889f959482aaU,
  0x9b8f8e9ea6a6a883U, 0x87959cb9599e90a9U, 0x807b87bc899f8490U, 0x89aaa59595aba080U,
  0x95969980829d8c83U, 0x94a18b9084a39b97U, 0x81a184968e899493U, 0x89a0a7a38195887bU,
  0x978594a38c928f9cU, 0x98909c8aa1968291U, 0xa598889a9c878993U, 0xa19a83968d9d9d98U,
  0x88a3a692928a8690U, 0x8c90a18d83828997U, 0x9995a485809a91acU, 0x8c9b879f97a18183U,
  0x809c8e878698a591U, 0x97a799a4a18793a2U, 0x9f7f8390a0958a97U, 0x9a827e9896a69b8dU,
  0x999ea9a17d83a2a4U, 0x87b69b7b89ac8b8cU, 0x8c958368a195957eU, 0x90b37b928f999889U,
  0x90979e758da4ae84U, 0x838990908ea38da3U, 0x8caa888a7fb189a3U, 0xafa9899c8ca3a38eU,
  0x958ca49eb0958d88U, 0x808290928aa2a59bU, 0x828b8bb58b8c9190U, 0x9687978e9b9d84aaU,
  0x88a08a9bb5a2a8a0U, 0x9ca2a1b4839c8f93U, 0xa487a6c2a8a28ba9U, 0xa5a3a08d83a58791U,
  0xa69e8d9cb18b907fU, 0x93b8a5aba29c92a0U, 0x7b91869b9f8b9e94U, 0x87a98b90a397aca9U,
  0x8ba68b8f768b97b4U, 0x9b89a78e8c977f8aU, 0xa68b8a809a8d8e96U, 0x86967c919fa29794U,
  0x939b9191a4aa899aU, 0x8a8a7491807f9e7eU, 0xa8a797ba8080a58aU, 0xa68d989996969ca8U,
  0x9ea4919eb687a8a5U, 0x839489b77a7f97a0U, 0xa6919b97b08ea19eU, 0xa8939e968b81998fU,
  0x9da09d8590918580U, 0x822388877895a370U, 0x95ad889a82a690a7U, 0x8d32a4858f131663U,
  0x8d8f9d99949b7c65U, 0xc6819e9286909491U, 0x917aa58e899a8e80U, 0x8491a1a5b9968580U,
  0x7183a3789b98837eU, 0x97955790989f8fa5U, 0x8ca487628da6a6a0U, 0x8484a0988591863dU,
  0xa1a59d9a37998982U, 0x90759a0ff2a3939bU, 0x978ba1004c929782U, 0x889ba3a58c76a1a0U,
  0x8b9aa3a185ae9fa7U, 0xa561a5a595a48c8aU, 0xa69a869a85a88e9bU, 0x8371a19881789386U,
  0x8ca784acbea6927fU, 0x889787a3a99d949aU, 0xa2a08791839eb595U, 0x76a59e9d899489a1U,
  0x9aa5a19f889694a5U, 0xa19aa2a885958fa9U, 0xa67f96929d8b9c7bU, 0xa79ba6a594808b8dU,
  0x90a583997d949c89U, 0xa8858e7fbd85919cU, 0x8d9891678c869f8fU, 0xa28a9e8392a7957fU,
  0x9482898799a1a18cU, 0x8c9da2a59ea76fa0U, 0x8696a37b8e9c808bU, 0x94a3b6869c8f889eU,
  0x8799a68789848591U, 0x889185a69389949fU, 0x889e949c9885a883U, 0x9b9988a28883959eU,
  0x8b9488a688988688U, 0xa5a692a39583958fU, 0x8d8ba8af9f9891a2U, 0x9ba69ca39d9f8a82U,
  0x858884999a7f84a8U, 0x949c9f877f8aa778U, 0x93a5a3a288a18b8dU, 0xa690a49e939491a8U,
  0x908b878ea68d89a5U, 0xa49c8da88b7b819fU, 0xaa7e8aa4a78b9c82U, 0x9b8789978e91a4b0U,
  0x92a48ab0ae8faf93U, 0xa57f9c8d8ba78898U, 0x9f9aa07fa298b89cU, 0x35938d8399a38fa7U,
  0x9ea189909594a591U, 0x9c86939a87a5a094U, 0x9286a08c9f829b82U, 0x8a9ba68f7f8f9294U,
  0x9c8e8e909190a28bU, 0x83958aaa8ea1a67eU, 0x86aea6908c92a690U, 0xa588a99d88b18f81U,
  0x9f8e98918f767ba8U, 0x948780a1ad9ca09aU, 0x807d99a3978c9c85U, 0x97979ba5a9a47f9eU,
  0x77ac8394809fa984U, 0x9da2837d88958c86U, 0x788fa590a19d9682U, 0x6388a381877f7f94U,
  0x9a8892a5847f8497U, 0x9d9f99958c938899U, 0x968a9289b285939cU, 0x879685a6a8938490U,
  0xa9a49aaea097998fU, 0x859aa7ac8b9e93a1U, 0x8c8885899da78594U, 0x94a792849a929a9cU,
  0x8887a396907890a1U, 0x8f9a95a9848c9da5U, 0x8e837da5a2918f75U, 0x8089a5819295a3a1U,
  0x8c90909cb5b0aaacU, 0xa0a4a09b979fa9a6U, 0xb38c84a38d93a697U, 0x2d83a18f8e9c85a4U,
  0xb28b7faa918588aaU, 0xa588ba8d94a29389U, 0xa59986a9879687a6U, 0x96aaa99e88858b97U,
  0x8a8d8785a78ca2a5U, 0x97a29fb792a4a277U, 0x839f99a0a5818492U, 0x99a9a59b80aaa796U,
  0x9189968aa88b8084U, 0xa49e85a87f838b8fU, 0x828aa19e8a9489a1U, 0xa6888b9ea392929fU,
  0x899485978193a397U, 0x97a299879d7f8d96U, 0xa8a390869f8a7e91U, 0x7f9e8ba19b818ca6U,
  0x888d9b91a1918184U, 0x838090a19f949789U, 0x878087a588809686U, 0x86a59b7f958b8988U,
  0x93a0a1869e8aa28fU, 0x9397818c9a858b96U, 0x99969ea380817f85U, 0x9d8484958da899a2U,
  0x9f92a184a0a5a286U, 0x7b91957f91908b91U, 0x9e947f999f8c8a9aU, 0x869994a07d908290U,
  0xa5868a9592898ba3U, 0x9ca59b9f838ca6a3U, 0xa39b9e8e8fa3a991U, 0x9d8f7c939da49d7fU,
  0x8e7f88a8a584a585U, 0xa68f8b84848ba09dU, 0x8c9f928d9b939398U, 0x90777f9f9295a17fU,
  0x9b7399819697937bU, 0x899384a0818f8d8cU, 0x978e897fa38b8281U, 0x747c8b8d8d8ea98cU,
  0x8a898895468a8d9eU, 0xa2be9444899a9d45U, 0x999faa658a908a8fU, 0xa2c2929883b85f64U,
  0xa4989c5f638d9745U, 0x7a839f9ba2a17f8dU, 0x4f838294909d3f84U, 0xc68b9ea9449c8b94U,
  0x768ea2988983a383U, 0xa68c609a95898295U, 0x8ea6a05d8c9a9b99U, 0x82a383a48594a83fU,
  0xa196a78c5893a38bU, 0x93839897b58f9aa9U, 0x916780a96f8f9e8bU, 0x79a3988a8688988fU,
  0xa988a6918e7baaa2U, 0xa397a9a5928c82a9U, 0xa0858c8f84968d91U, 0x7f8997868999a3afU,
  0x95909a9f9c98aba4U, 0xa496a8858da6a084U, 0x93979a9fa99ba88bU, 0x3fa2a0a3a5a79d8dU,
  0xae9780a3a1ab9586U, 0x889f9c9b9da4928eU, 0x8a8b879c7fa19294U, 0xa3888d9b9aa18e9fU,
  0x80a1a8a7b3838e99U, 0x8a88a9ab9682a084U, 0x84a787a888999599U, 0xa58b88888fa9a989U,
  0x8e8aa78c9b9687a1U, 0x8e88969c988ba49bU, 0xa28499a08b86a69bU, 0x86a4a086898aa393U,
  0x8a8e8388859b9088U, 0x9a8da58e9b87a083U, 0xa77f8391a7a4849cU, 0xa98b7f9d9c9aa28cU,
  0x92838d838b878a82U, 0x7fa187a48a819d89U, 0x8c93a1899b80a186U, 0x9c878699909792a3U,
  0x8093908a917f9b81U, 0x89869182999c8b87U, 0xa08aa98a9fa29b86U, 0x94998e9689918884U,
  0x9f8d9a8b9a9b6f9dU, 0x92b288a5ac9caaa9U, 0x897b91968d8b8b84U, 0x8f97a4a1a3b587aaU,
  0x89a28d7f9ea7999bU, 0x8da7ad9f90839ba2U, 0x9c89a69ba68994a1U, 0x65919c87757ba284U,
  0x8b86ab7d7d85b382U, 0xa39fa69c95849a92U, 0x8ca38d9ebfa39baeU, 0x86a48785957f7f91U,
  0x8b8f938c95938491U, 0x7e7ea3a98a848096U, 0x96ac87ab98a38e8dU, 0x9d849e7aa575939fU,
  0xaaaa898aac9c8499U, 0x81a58ab89da57f90U, 0xa0889c918186848cU, 0x8a85858da695b49eU,
  0xa98596b18f879dbcU, 0x9386828e969a8689U, 0xb9939ba78d888e99U, 0x748ea187aba9909aU,
  0x96ab93aa81a69b98U, 0x87848e86a88b9ca1U, 0x9c939da4a09faaa9U, 0x93898399a08190aaU,
  0x8e8f9b9eaf878998U, 0x89a981a5829e888cU, 0x83868e94af8f83a0U, 0xa0a296899094817fU,
  0x9698869f8c9a899cU, 0x7f859081808d73afU, 0x8aa3a4999b979c7dU, 0x997a8f9094908895U,
  0x94808fa196a496a6U, 0x8c9a9a9481a48f99U, 0xa59890a786acad86U, 0x5ca5a594aa9ea8a4U,
  0x8d9e859f98b58987U, 0x90888fa489888083U, 0x9895859d7fa8a08dU, 0x7f81a8a38c95919bU,
  0x807d8aaeab9e9990U, 0xa29aa89b9790897dU, 0xa18fa69cab888d9dU, 0x8b9a94a9a3a68d94U,
  0x868b81a18d839ca1U, 0x96a87f86a48f829cU, 0x9c80958a9d8fa487U, 0xa3bf9e9c97a7b493U,
  0xa0769f927b96a6aaU, 0x8d7f9385a193a288U, 0x779c9e8b93907e9cU, 0xa48c83807f8a9da1U,
  0x7e9fa4a8afac9688U, 0x77887c9ca187939cU, 0xa0898da57c8790afU, 0x9ba79e9893a29aa6U,
  0x85a89da6b08ca895U, 0x8bad83bd5997909aU, 0x7f81a8acb19384a0U, 0x808d877f8ba0a192U,
  0xa798a89696a985a4U, 0xa932969a8ea19184U, 0xa3b199aaa395a5a0U, 0x80479d989c636a7cU,
  0xa79384aaac94858bU, 0xad9c8da48aa7a28fU, 0x9c8f99a99d9baf9bU, 0x897f8488baa78aa1U,
  0x8d988d97a4787d7dU, 0xa487af95848b8298U, 0x8e82a06c94988494U, 0x868ea3939a92a271U,
  0x8382a08e7b858fa5U, 0xa87ba15db387a59eU, 0x8ba38f6373979a88U, 0x8d829b8c7f88939fU,
  0x94988d877fa49686U, 0x8cb7a76c9fa2ac93U, 0x99a2a99d85a186a3U, 0x9aafa398aca7707bU,
  0x7fa48f876ba4a988U, 0x9491968e92848a84U, 0x70a082919984a791U, 0xb3a0a9a08c88a8a2U,
  0x829c96a1a29aac81U, 0x878d7ea9a389819fU, 0x8495927ca89388a2U, 0x8a848e9b919c8c4dU,
  0x91908f9a7e9f9c89U, 0x9baa83a4a9a087a0U, 0x9145a3b78d92a48eU, 0x928d8fa49ea99c92U,
  0x8ea4888c78af9099U, 0x931da37a91a18179U, 0x9db79d9c8e939aa2U, 0xa82aac89a41b1e6fU,
  0x8f8c9c86a8839375U, 0x9e96989f8b8e8d8aU, 0x899d958f82948b95U, 0x8d859ca08d977f88U,
  0x887d987a9c9a8e90U, 0xaa886ea1a39d87aaU, 0x8c949c639392938bU, 0x8c8c8380a37f973aU,
  0x9696a4994c8497a2U, 0xa6978e0cc9888691U, 0x7fb09c0a66a89c81U, 0x9b8d9dac9e7b8d82U,
  0xa48593869a9ca7a0U, 0xa71790c57c827e97U, 0x8ba48bcfa1a985a0U, 0x9e2ca78ba0345489U,
  0xa99798ba8a9c7997U, 0xa1989183939198a4U, 0xbaa1a39e8e8b7fa7U, 0x6aa19b8fb692a995U,
  0xb381a37a8c81839eU, 0xa28374a68c8e84a3U, 0x80848f848793808aU, 0xa0869d9b99a1988eU,
  0x9e7fa78a8e84889aU, 0xa0798e2e9995828bU, 0x85829e257da39090U, 0x8685889483969789U,
  0x98809da6589f7e82U, 0x8be2974385858d51U, 0x868c9466a8928c86U, 0x9ec6a2a399cb7175U,
  0x8b9d846794807c58U, 0x8891a69b918c9f8eU, 0x53919ba093887c89U, 0xc49f96a547a39883U,
  0x648eaa8889bfa593U, 0x9bab838aa0a08ba4U, 0xa3a588949f8c867bU, 0x9988948590a0a85eU,
  0x919a868b819c9e87U, 0x9c9c7fab898b8cb0U, 0x9a8ba6c7919a9c8cU, 0x819fa69a90beba80U,
  0x9f829189a682a98eU, 0x9786a0af80a085a5U, 0x958f909b96a18c87U, 0x8e799d8f9187aab3U,
  0xa6aaa5a48e9ea996U, 0xa095a481988985a7U, 0xa49d857f91897d86U, 0x809fa58acea6829bU,
  0xb4a188a1a08e8892U, 0xa5a681aaa3869982U, 0x9c8191918a9c9d81U, 0x81a29ca1a77f948fU,
  0x9ba2828993848588U, 0xa591919374969a80U, 0x897b96aa9d969da9U, 0xa39b8aa1a0817b9fU,
  0x878ca981a38392a1U, 0x9582a1ae897c978cU, 0x86a299c49a887d96U, 0xa688a8a58fa5a39bU,
  0x88989ca9a18d8a95U, 0xab9188a18f829f9fU, 0x93a1a89b978d9b96U, 0x618696939a8da399U,
  0xa0a68995889a9d83U, 0x90989ba3a797999aU, 0x94a5a4aaa992a389U, 0x939c9b8a887f9698U,
  0x86808a9eb1898ea7U, 0x8b9f97ac9d999e9bU, 0xa3a491a49f94a88dU, 0xa3848a949d898197U,
  0xa3a0a29a678c95a7U, 0x80c18a539b9b9a75U, 0x8d8288689d939d98U, 0x81cb9986869e986bU,
  0x9694837194889188U, 0x7e989f9fa08a9989U, 0x64ad86997e95a398U, 0xc582aa8849a08d88U,
  0x66a4aba083afa883U, 0x8caa8f8480899ea6U, 0x95a495938f849ca0U, 0x9095a08682889e89U,
  0x959892a173afa09eU, 0x90a798b07e948eabU, 0x8b7ba7b393a28d9eU, 0x8ea79d8995949290U,
  0x898f8aa7aa918592U, 0xa895a5b6a0847c9cU, 0xa39a9d8893988690U, 0x8894878e95a09297U,
  0xaca494ad94acaeb3U, 0x989484a09c9c9691U, 0x9598938391999599U, 0x7482838ebe87a6a8U,
  0xa691a2a8a3998aa0U, 0x849381949e928887U, 0x92a8a49fa19aa094U, 0x90a39a9e92859eb3U,
  0x7f87859cb09e9783U, 0xa38c99a76b86898bU, 0xa0878fb3ac9995a2U, 0xab90908687988d8dU,
  0xa1a28e89c9a49b7fU, 0x86208bba93667ebdU, 0x9fa192b88b87a699U, 0xa1379f8a7f416cb1U,
  0x857591c78f8fa1b9U, 0xc68b898084a6a486U, 0xd07195a98779898dU, 0x69978993f3a0979eU,
  0xb3a8a170988b6e86U, 0x92a473a98b8da58aU, 0xa787977c6f8a9076U, 0xa48cab848a8b8696U,
  0x9197837487799e91U, 0xa578824ea6889b8fU, 0x9e998d4b718e9d8cU, 0xa9979e899b877295U,
  0x8daa7fa67d7c82a7U, 0x8896859b989f8c86U, 0x81837d778c9386a0U, 0x8db9a48795ad90a7U,
  0xaaa6a18c938ca288U, 0x868e879db1858e93U, 0x9a798981828a96a4U, 0x8099aa96847f7f9bU,
  0xa190a08197a08c83U, 0x96a1ad9596829f90U, 0x948985a7bb9c8d96U, 0x9b91a6a482a49d88U,
  0xaeb1a5829fa2a998U, 0x8299828a8486a186U, 0xa9a48b99a78fa4a8U, 0x9ea0a77a828784a4U,
  0x9f9596a89a958a95U, 0x99c6a286a288a5a0U, 0x8676a48a9e999593U, 0x88c792a094b2a191U,
  0x878f8b87809fa8afU, 0x95808f83938ba590U, 0x989e817f89af9491U, 0xab8a9680829c7fa1U,
  0x968a88ad948cb0a2U, 0x8ea87f8295859d98U, 0x8ba290ad9a7fa790U, 0x879b898188a6a7b1U,
  0x90888cafa8837f95U, 0x9e948fa16e9e9a8cU, 0x9d728dba96a6a683U, 0x838b918f84aba5a3U,
  0x969f92a37699928aU, 0x97c99784a599aa95U, 0x9c778e688d8e92a0U, 0xa8aa8786a4ae928cU,
  0x9069a58d937c8988U, 0x6a859c98a19b8aa4U, 0x89a08491a2989d81U, 0xb4988e995b84999bU,
  0x9189919580a09293U, 0x9f9d7f93989fa199U, 0x8d9d988e95849f99U, 0x8faa89a08ca19da2U,
  0xa1a7a4b58d8ca180U, 0x95b8899d7f9da6aeU, 0x8e87829c95918b89U, 0x999f8c919197ba97U,
  0xa4888d863c9c9882U, 0x97bf962fa39ea044U, 0xa18d8f78a09da19aU, 0x9ed58e97a4c36c6cU,
  0x9085877065878246U, 0x82999da7989483a3U, 0x4b99a484957a547fU, 0xb8a2939257908f9bU,
  0x5e838b9593a6927aU, 0x959b5c8493928791U, 0x83968481a3999693U, 0x878e7ca9a5958c5cU,
  0x91aa959050a09b7dU, 0xa58a9186ba9d91a6U, 0x8f609199718b957cU, 0x7b8fa6a68a8e8599U,
  0x9e8b80a995969d91U, 0x7c8d958d98837d88U, 0x83aa7c758b8ba67aU, 0x9bb0718ea9888999U,
  0x9b8ba58081858e94U, 0x8893987e828c8298U, 0x9b9d99899a929aa2U, 0x8a8c969e8b9ba787U,
  0x839390a59f927e9fU, 0x9798a39f88a0a08cU, 0x9e9a9d97918b9b99U, 0xa0967e9395907fa0U,
  0xa599939daa7d8382U, 0x9c8c888e85a4986fU, 0x99a4a393a295a397U, 0x9e888b92a5a3aa89U,
  0x918d9b82a5a19f8cU, 0xa75384c18c889898U, 0x8895a0a9a097868eU, 0x9e5fa294a553849aU,
  0xab918b977494a39fU, 0xa492917a8c839d81U, 0xc38ba4a48d9e6e99U, 0x618d8e8bafa99ca0U,
  0xb8909d8c888981a2U, 0x89997ca6a67f8a8eU, 0x9e9c93a083898aa0U, 0x888b947f808a9e98U,
  0x938b9781a287948cU, 0xa9a1826fa08492a2U, 0x877b8f638ba58c96U, 0xa6828e95a5797283U,
  0x9789809c918a9f94U, 0x8584879291a28183U, 0x8992a095829e89a4U, 0x90948d839c939990U,
  0x94948c938ea0a095U, 0x8384a8878a9e92a1U, 0x8c9d9f818e918e95U, 0x9a8b9487a68082a9U,
  0x868882829d8489a0U, 0xa78a92928f849783U, 0xa99a9989a88ea07fU, 0x8b819d92998f969fU,
  0x96a295a086a29c91U, 0x9e9d8b8797828581U, 0x8f918d91a59c848fU, 0x8e9d8b878c84a58dU,
  0x83a7939cae9e9e88U, 0x828f93baae8a888bU, 0x97958098878e889aU, 0x9a9093a595b29db7U,
  0xa1878eb0b29493aeU, 0xa488a98a9ca6a98cU, 0xb1909e928576aa9aU, 0x59869b948a8691afU,
  0xab95808c71969996U, 0x949eaea4a19c89a3U, 0x9d8ea29186a0a18aU, 0xa38586a78c898ab8U,
  0xa4948d9bb17d8eb0U, 0x9c9b919da3938880U, 0x8aa8869c8c80a78aU, 0x98a79b809c87a09cU,
  0x858ca7a37d9793a6U, 0xa7ac8a70919aa899U, 0xa6849d789ea09c99U, 0xa2c9929d8da0948aU,
  0xa07da4859e7f817eU, 0x979d9a9c8fa39d94U, 0x8587868f80a58996U, 0xbaa2939b628d8e98U,
  0x7480aa9fa18d9e99U, 0x8b859aa68299868cU, 0xa6819e959fa18a9cU, 0x8b8b909b8292957cU,
  0x91a897a89f979e8eU, 0x97a2869197928e87U, 0x929199a99da5a28eU, 0x8faba2a589a19a9bU,
  0x918396a568a4989fU, 0x80ca8d6190959b6cU, 0xa37984628997929eU, 0xa2d2929ca7b28d7dU,
  0x789f9c8c8d969b63U, 0x85a29d849fa18184U, 0x5d8aa3a6848c9a9aU, 0xc98a8b875fa492a4U,
  0x6984a2ae9e8d9699U, 0x818e937d889aa197U, 0x90979f987c88889dU, 0x9c96919c8c8ca594U,
  0x9d8e96a6878da291U, 0x9f9b8b9f8ba58295U, 0x8c828fa1a5a09aa2U, 0x90a98ea2929cb580U,
  0x998489873f9b7c7fU, 0x8deb994785948f36U, 0x91959d8094a78899U, 0x99c7a591a9ec7366U,
  0x8e9c96666d7b925cU, 0x7d9eaa8e8c8e8384U, 0x32918fa58ba247a5U, 0xbba5a8955196848fU,
  0x758c898b8974918bU, 0x81a26b84979fa483U, 0x9f9b8e8388989778U, 0x9c88a29591a7866cU,
  0xa8ac9a84579ba799U, 0xa89fa0c181a0839dU, 0xa25d9ec5789e97a2U, 0x86878796a88f9a84U,
  0xa7a99aa68c978e87U, 0x84a2969d8b9e8e8fU, 0x8d9091779a889b99U, 0x9eb4949e91b6b6b1U,
  0xa899a8a1899ba0b4U, 0x7ea6a8958b9a9783U, 0x9a849e928e9f76a1U, 0x9c8f9797839b8785U,
  0xaa9ea1b0b48e909aU, 0x7e82898e87a29498U, 0xa99281bd8481a88bU, 0x83a388858c967ea5U,
  0x87a990aeaca3829cU, 0x8aa581a6698ca392U, 0x9e89a1a49f8ba685U, 0xa58a938b999f9488U,
  0xa797948e6da9958dU, 0xa3ac8c82aea7ad94U, 0xa8858472a2968d83U, 0x94c591a397b0a987U,
  0x8ea18691998e917fU, 0x8d89ab959b869689U, 0x6a887f9396b18c94U, 0xca898c825b8b8ea7U,
  0x7b8985a28db2b3a3U, 0x958ea2878b82978dU, 0x85818da48a9f89afU, 0xa68780808b9b8694U,
  0x82a7a3969ea69da6U, 0xa3aa80ab82a5959fU, 0x9e989b93a684a781U, 0x9b9da68785b6a79aU,
  0x8c9a8e7f9679a48bU, 0x9cb89091a7a67f94U, 0x919d9ea1a8869083U, 0x9b9b849e9993aba7U,
  0x88a89f888e9f9aaaU, 0x9198a08da0839d9fU, 0xa89896969c888f86U, 0xa49493a08f968590U,
  0x988e84aa97a7a6aaU, 0x9d808e9496879280U, 0x819283ab8c8ea4a8U, 0x818c9aa7898e93a4U,
  0x919782ada0818ba4U, 0x93838db57ba88f7cU, 0xa87e96a8979b978fU, 0x998a8aa398949d8bU,
  0xa69da8a0bb989aa1U, 0xa65e9ec2888a95acU, 0x8a989ec29b9f9385U, 0x997680969f8a8fa4U,
  0xa89584b1a2a887a8U, 0x8d8f7e8f85a2a19dU, 0x9f82a58d878c9a99U, 0x669d7fa3ca9880a4U,
  0xb9a99c94a29478a2U, 0x8ca4968f9896949cU, 0x9a8289a4ae848695U, 0x8b9486958b90899aU,
  0x9192a284a79f81a5U, 0x9477987c99919690U, 0x9694a1787c8fa485U, 0xab859e9a99788682U,
  0x949a888366898c94U, 0xa7c29656a2988676U, 0x9f839460a8829c7fU, 0x93c0938b96c48e79U,
  0x8899916e9f86a16bU, 0x5f9b89a09d8198a6U, 0x4f9b98a18ab192a6U, 0xbf8880a33b9b9894U,
  0x6a96a1ac8ab0ac89U, 0xa19f99909ca2a49dU, 0xa5838b798997a28cU, 0x838b7c80a59a9881U,
  0x8f9d819e84a99b82U, 0xa3b499b37aa286a8U, 0x898b8ba68c89a28bU, 0x85857d8f9fabb090U,
  0xadaa9988b2968f84U, 0x8794829c7db075a5U, 0x88a3a09d8ca2a693U, 0x997d86907e8c979eU,
  0xa5979593969aa589U, 0x809e948e919e9aa6U, 0x8a958b9194a69fa5U, 0x77a495a789a88aa8U,
  0xa38f93b0a3a38984U, 0x84838da09f9a9c8eU, 0xa48c879b8d89859eU, 0x8a7f948c9c88a69bU,
  0x969ca6a28c8f9c9dU, 0x8a9798939f829d99U, 0x85a98091b1979b8bU, 0x9a888fa1a6b0ab9dU,
  0xa39e959ea796a2a8U, 0xa82ea2c38a7e9399U, 0xa3abacbb888ca284U, 0xa8408aa49f367da2U,
  0xa1a398c88394a2a8U, 0x9d918e92959fa8a2U, 0xd795a88d83868388U, 0x738c9684d18b9d8fU,
  0xa487917c8b898c97U, 0x98979099a38b9981U, 0xa0989b71847fa39aU, 0x978e96829f979f96U,
  0x8994918ca0a1a18eU, 0x8191a8448b988a84U, 0xa49fa44f7580a184U, 0xa2a488958f7288a5U,
  0x979896a4797aa581U, 0x8fc58a6fa1aaaa97U, 0xaa787c6e94929282U, 0x96ac959d89bc9a92U,
  0x958b87747da79284U, 0x86908ba08a92948bU, 0x81a9949d7d947f99U, 0x9e8f9c828a9da695U,
  0x808799a0b290ac90U, 0x87a87da69ea49484U, 0x9499839982a2a397U, 0x8f9ca393a2838da0U,
  0x7e88a6aab08d9496U, 0x9389a8bc85a29194U, 0x807d9ab1aa8683aaU, 0x83a48e7e9da3a482U,
  0x8c958d999ca3a185U, 0xa676a7b58b7da384U, 0x86b1a3b59e9a8a9cU, 0x9a829fa5988e7c96U,
  0xa69198a38daa7f9eU, 0x91a98d8d9a99a1a8U, 0x9a90a49da582aaa8U, 0x6b89a08ea9a68188U,
  0x9a83859b8c8b807eU, 0x89a58b9a9a8e9595U, 0x94959a8aa6a39d97U, 0x95979c9c9a929b9dU,
  0xa09da39c92948195U, 0xa395a071a4969a7bU, 0x99b09c8d89869e94U, 0xa3a795a78d899597U,
  0xa285839c9c878e8aU, 0x6f87a286a08c8c85U, 0x8888a5a5729e8d9aU, 0x8b9587969ba8939cU,
  0xa0a69a8683918986U, 0x87a2a39f9b9b9f8bU, 0x96a78ba7879aa785U, 0xa295878e7f88a47bU,
  0x7b9da187a77f92a1U, 0x8896a1a5a19f9e98U, 0x8785a19b889b8493U, 0x8591a99f8fa7848fU,
  0x91a6949aa6859882U, 0x84959498a2a0938fU, 0x9fa98785a0817f83U, 0x758c8998a48da88eU,
  0x8b9ca799cd9faa9eU, 0xa22c90d1807099adU, 0xa1ab9bba9997a082U, 0x934397848b3b6fbdU,
  0x997d92c1858a97a6U, 0xaa818d839784a698U, 0xc670839d8e8a7a98U, 0x86a3a69fd58f947eU,
  0xb0928190928b7eaaU, 0x7da1758b80929ea2U, 0x92949f997f8a8f81U, 0x98939284818b9b95U,
  0x8d84a27d877b99a4U, 0x8f8a9e56b18c9984U, 0x81828d559691a086U, 0x8ca6a2a0937d8582U,
  0x858e898885a99a84U, 0x84b49a8ca0a4a177U, 0x8f9a858fa58bab8eU, 0x97c29b8faab39183U,
  0x959f9e95a89a8470U, 0x7b8d9a8c95999f83U, 0x87a29d93a4ab8ca3U, 0xb791988d70818d9eU,
  0x9799a3a588afa8a2U, 0xa393a6a3838d8985U, 0x9e9a878a9b9f8e7fU, 0xa384838ca386849eU,
  0x978680989a9da899U, 0x93ad8f8595989e87U, 0x919a92a2889da58dU, 0x819e90999e97a489U,
  0xa086a492967f9793U, 0x92b47f82aa91949eU, 0xa2969e8e97969b83U, 0x98a1a1a898a39aa8U,
  0xac92907e86998899U, 0x7086919b918a8397U, 0x94a9808086aa7988U, 0xac9b7d8a7b90989dU,
  0xa7958dada799ae8dU, 0x7ca48b7e8093a890U, 0x859fa0ab87998b94U, 0x99a8aa8d839da595U,
  0x8a8898b8b39e9284U, 0x949a9fc03da389a3U, 0x9b6da2b7b3969fabU, 0xa28f9b9383888c95U,
  0x91849d967f9a9087U, 0x86c88a75869b999eU, 0xa0937f6891a0a487U, 0x9eb38d84a1bbad90U,
  0x95827f987e7dad84U, 0x8b8098a98795a1a1U, 0x7886999d94997d8cU, 0xaca18d86787e929fU,
  0xa0a48bb18c93a39cU, 0x91aa79a3889085a0U, 0x89878e927e7d9a93U, 0x9a87a88b8ca0938aU,
  0x8b9b99acaba9a587U, 0x94a1a4a97a8c839cU, 0x837a9bb2929c9590U, 0xa1979ca390aaa785U,
  0x819aa8a29f94949bU, 0xac8b818a9d809ca9U, 0x8fa3908372a09585U, 0x9298a97f9181899bU,
  0x8d939d8e9f9a8f98U, 0x9c828a8ca28f9184U, 0x95a89ca284949691U, 0xa09f7da688a9a173U,
  0xae8979929b9f9393U, 0x827f86a29ea4a99dU, 0x89968896a0946ca4U, 0x9d8d8f9f999f8186U,
  0x8986959079a59889U, 0x8a969e86a29491a9U, 0x989f9884a7859aa6U, 0x907e8b95a783a7a8U,
  0x96a98c97abaa9083U, 0x815285bb94907d9dU, 0x8da7a1c691979e90U, 0x9b4aaa96947683acU,
  0x8c8f85b3b48e9fa5U, 0xaa93968b899b8393U, 0xc88a9298a081978fU, 0x83a69e85d9a18391U,
  0xab829e67837178a1U, 0x9997ad8f849090a2U, 0x8f958277a18c9f7dU, 0x9f9481a39b83a887U,
  0x9a958672879e8986U, 0x96719175d988848aU, 0x8699a4638ea292a8U, 0x909b8891906a789cU,
  0x7d9791954588809dU, 0x81d78b2eaba4ad46U, 0x939e8780967f9da6U, 0xa8dea69997ba7156U,
  0x878c894f64888857U, 0x888f9eaaab988790U, 0x45809b999a7d4c9eU, 0xbc92a8a3507d9494U,
  0x5980ab8ca68f937aU, 0x9f8c5086929a928cU, 0x9a8b9f81a485a683U, 0x999494a995849453U,
  0x99ab977c529890a1U, 0x948298b5ad9c85aaU, 0x844c9bb38b8b957dU, 0x898c9d978ba6859cU,
  0x91a99393998e849cU, 0x7e9d9583859a8c82U, 0x8d9c89977e9799a8U, 0x888ea5a5948c9a95U,
  0xa59b838b8e9c8294U, 0x8b7f82a2938a9fa1U, 0x8d98879fa5948c7fU, 0x8c929a9d97a88b96U,
  0x8e899197a198928cU, 0xa67da89085949a8dU, 0x87859c9290a4a282U, 0x9980909da59a8c8dU,
  0xa5869ea89890a597U, 0xa78499a08898819cU, 0x86a394998f859183U, 0xa49a84a39da57f9cU,
  0x878b959d989ba785U, 0x95a896a0827f9b9fU, 0x808fa59886a6918aU, 0xa8a78191838182a7U,
  0x969c8399909d9991U, 0x8e8ca18284858da0U, 0x9ea696a1938f8ea0U, 0xa582a890a78e8182U,
  0xa2869188a58c8781U, 0x8b83a084a4999494U, 0x9fa19689868d8a9bU, 0x889a8d9c9f9c9b9aU,
  0x82a1868ca6818c99U, 0x9f93a29c8d81a37fU, 0xa696868399a5a696U, 0x909aa1a1a4909d93U,
  0x83898fa598928a89U, 0xa89f849ca891a887U, 0x989988969da68692U, 0x978c7fa7a4949081U,
  0xa59b88848f899483U, 0x8489989a938d9d94U, 0x968599878f9ea481U, 0x808b9f9b94869c8fU,
  0x9da99b8da3988284U, 0x869b92a3a5a89590U, 0x9d9d928da5949d87U, 0x898983a3a1a6a288U,
  0x849ba39481a28388U, 0xa28392a08e98919fU, 0x8c949e95878d9da0U, 0x9e918791817f86a2U,
  0x7e837e8f6ea67b96U, 0x9fd99460adafa97cU, 0x8f8a81719a9aa0a0U, 0x85c78c9684ae806dU,
  0x7e81a85b9890847bU, 0x92979b979a8b9aa2U, 0x46a3979f83a07891U, 0xba9689a1468188a3U,
  0x7c9dab96a5a2a98bU, 0x87ab969b8f8ca19cU, 0x9c8aa68782999fa1U, 0x9e8f7c868f9e8477U,
  0x9e8c95a57aaa9588U, 0x9798a1a48c809298U, 0x8d8699b08798a9a1U, 0x91988d878aa59f95U,
  0x8ea5858f7f9490a3U, 0xa54987559ea28f81U, 0x81938e7e90a2aba7U, 0x95648e8d9b500249U,
  0x999d9f713e7a9c5eU, 0xa9878fa2a695879dU, 0x74a69b8d83839787U, 0xab99aa8893a8a27cU,
  0x649a8595908b897dU, 0x9c8b429d848b97abU, 0x9680905b93a79b7fU, 0x99a08697869a8105U,
  0xa98780941595957eU, 0x8e868429c68a9f93U, 0xa7269a3c72919994U, 0x8385819b84a69d9eU,
  0x8c8794a03497928bU, 0xa8eaa13a99979246U, 0x9388897d97839ba1U, 0x8ac79c9889e0a575U,
  0x8299845d79989771U, 0x86859694978c8698U, 0x3e8e90a082967885U, 0xa4869d982c9f80a5U,
  0x797f9e7b7f9aab88U, 0x9e86688791808091U, 0x8da88290859d928bU, 0x92928aa49d87a46aU,
  0xa5ae8e916e989e98U, 0x80789eb96f90859dU, 0x937486ca81808b83U, 0x9ca396998eafb2a5U,
  0xa9a5927fb48792a3U, 0xa99185ae97988797U, 0x848293b7a0a67e73U, 0x8d918e928699b2aaU,
  0x7b8796b6aea29cafU, 0xa383a586ae95a29bU, 0xb1908d93a790b891U, 0x3c9894928b9499a5U,
  0x9f8695a1848fb19aU, 0xb085b2a3a79ea67cU, 0x8e869ba9a27a8987U, 0x87a39686919484b5U,
  0x8b838a819786a5a4U, 0xa18e96a9959aa47aU, 0x8aa793b19fa189a2U, 0xaba48c9097aa9c83U,
  0x9f9d9e9d797a8898U, 0x96ab997a97a18893U, 0xa87e8679a39f9ea0U, 0xa7a586909da1af9dU,
  0xa0919f727893a186U, 0x839c939d8782a681U, 0x878f878084aa8f98U, 0xaaa185964493a39cU,
  0x809aa3aeb68fa4a5U, 0x788b73848a9f858dU, 0x868498ba8da0988bU, 0x889a83959c9d8d94U,
  0x9ba38c90b39e9b8eU, 0x8dab95b06ea299a0U, 0x868590ada7a69489U, 0xa3a4868f819ea1a0U,
  0x838f84978d80a28fU, 0xa9a593bb918c8592U, 0x9f879ea8a9a3959aU, 0x988a91979a9ba49cU,
  0x84ae84a2adaa95aaU, 0xb382848d99828f83U, 0x9a66a48587769187U, 0x497f9fa4c897a29eU,
  0xa6988789948b9e8fU, 0x9b9bb9a299978198U, 0x8fa3a799939fa075U, 0x9f9693998da4969eU,
  0x7f84988ca47f8ca3U, 0x84878ca887888479U, 0xa5a08da6a9908eabU, 0x8d90a8879e868a82U,
  0xa58aa897a47e81a6U, 0x9fc8938a869f8d9bU, 0x83767e8d8f9a8791U, 0x83a58a9aaa9dadacU,
  0x8c809b9d71928a9eU, 0x788b84958b9fa095U, 0x90a39ca499b08491U, 0xb6968e9178988ca4U,
  0x908aa88f9fb1ab88U, 0x9591739fa19f8a85U, 0x8ea089b3818b8bb0U, 0x8f94948aa8849faaU,
  0x8aaaa7b4b87e90a1U, 0x8d96a4ac598c8c85U, 0x9181959dad9f8299U, 0x8594a57da29187a6U,
  0x869a818d858b8d99U, 0xa9b49b78a393a09bU, 0x85a483827ca79592U, 0x87c58ca08fc39483U,
  0x7f967f97617d888cU, 0x9c9ca59f898f958aU, 0x708f91a5a59c8187U, 0xa9979f848b9aa69dU,
  0x889390ab867d8386U, 0x84ad83a2a29e8991U, 0x8994969bac8f8e86U, 0x88959c839793898eU,
  0xa69e8d8f7fa59ba2U, 0x968a8ac19290989aU, 0x817b97baa39ea5a3U, 0x948e8c95a0a0a094U,
  0xa3878b94bd8a899fU, 0x9a657bbd966b9aa6U, 0x7b8e9bb6a288869bU, 0x8c778ca68e94a4b3U,
  0x929e89b0928ba49cU, 0xc3839d7c7f838297U, 0xbe92849e9a8a889aU, 0x61a58d9fe3909788U,
  0x939ba67294817a88U, 0xac979ca2a7a8849dU, 0x82a492aca89d968aU, 0x8e8999829f859588U,
  0x98888b76af93a392U, 0x8f749e94b0868c7fU, 0x9b7e979085909ca9U, 0xa096a69486737ea1U,
  0xa89a8d97bc938594U, 0x998998a3909f85b1U, 0x9b829e9ea08f9387U, 0x85719f9ca68bafb6U,
  0xada48fb08faaa3b1U, 0x9b9598a29c849ea3U, 0xa99a98949e8d8591U, 0x7d9aa286bf87889aU,
  0xba9ba48d7f91949eU, 0xa38d96a39c8092a1U, 0x8d8f8db295a4a098U, 0x9fa6a584949e978cU,
  0x9aa5a8928a8d9e89U, 0x999592a397a59a7dU, 0x8c879a8d97939fa0U, 0xac949b83838d7c86U,
  0x83a797909598a695U, 0x9c7e8c9972a2948fU, 0xac7f8b9c859a8c92U, 0x91979d977e8b9e89U,
  0xa9a1829c8095a19dU, 0x9a888e80859da57fU, 0x9b94a47a87919f90U, 0xa79e9e8d80a0909eU,
  0xa28d92a9a6a39491U, 0x828f808399989e8cU, 0x9e8d95948180a297U, 0x85a18d8ca78e907eU,
  0x918a9774a17f9481U, 0x888e9d8983a07f84U, 0xa18d8da399a0878fU, 0xa38a8f84a690829aU,
  0x9c7d908d71899a9dU, 0x94c576708eb29097U, 0x9c9c93888687a382U, 0x8fa5827fa9aa9e8cU,
  0x95849b7da3a19095U, 0x69a8909d8c9da689U, 0x6b8b90979aae9e98U, 0xada5848f4ca2a389U,
  0x7782a78da999a4a0U, 0x939c9d7e96a98680U, 0x9992a5ac959f9bb6U, 0x9fa59f898a918daaU,
  0x9f8388b18c9093a3U, 0x81b68eac6d82a2aeU, 0x8f9f9c9dab9c8789U, 0x83a5a08a9cb29498U,
  0x9996949b90928ea3U, 0x946daab4817a8d9fU, 0x83b39cb07e88a9a3U, 0x836f878a7e7f9480U,
  0x859c90b1b1a89088U, 0x988a9ca5958ba784U, 0x937b999fa288b58eU, 0x8d8da58aaca8927fU,
  0x938a928d7e748ca0U, 0x8b99a3a18197a5a6U, 0xa19cab8d9885a27fU, 0x8fa09a9aa48d9f8fU,
  0xa694858787979998U, 0xa17fa16ea98e8482U, 0x99ad98838ca99592U, 0x939a8b9699837c8aU,
  0x827e997f899092a2U, 0x95cca66d9a9a9d97U, 0x8c9ea08698a08d9cU, 0x8eae9881a7b29496U,
  0xa498a08d967c898eU, 0x8e9ca2889c968d9eU, 0x86898c7f9db39597U, 0xada795a96e8498a7U,
  0x8ca6a0aa9fa8a792U, 0xa4a2977ea2a89e95U, 0x999d959ba28e99adU, 0x89a79b908b9d8aa1U,
  0xa9a694ad8d908081U, 0xa3a5a29f97a48497U, 0x898b89a38e849c86U, 0x86a9949e83a6b5a0U,
  0x8ca183a49690888bU, 0x91a099a7959d7c8cU, 0x8f9790a3839fa7a3U, 0x90b588a4928ea8b3U,
  0xaa899b8f8a8f85b6U, 0xa6857e8181a29c8fU, 0xb0a18a9b889e8090U, 0x9e8b8683aea38796U,
  0x8b8da49ea88ca087U, 0x79a38995968f908fU, 0x88a78abc86859ba6U, 0xa19b839b98849ab5U,
  0x83a094a79594a583U, 0xa5859cb4649e9a88U, 0xa87583ab91848d9fU, 0x9da5938c979d8782U,
  0x9ea38ca097848483U, 0xa9808bc099978fa5U, 0x849f8ca78d848882U, 0xa17e9fa38f7c9690U,
  0x97a990b69e868daaU, 0x9e85a3a28fa3a3a7U, 0xbb9a98868b8c7ba6U, 0x82818394b3959398U,
  0xb99c878d9c827b96U, 0x8393a2a79291957eU, 0x848499a39d86a580U, 0x8881899d80a48ea8U,
  0x9aa0858f88a09c99U, 0xa49e96989694a080U, 0x9c929d9a8e889f99U, 0xa293a4a68b7b7383U,
  0x86a3839ca382a395U, 0xa58c90869e86a299U, 0x8c898aa28c9491a3U, 0xa29fa89c9aa78583U,
  0xa4859d82a0a58ea7U, 0x8286a2a0839087a1U, 0x9c8d939c98a99b95U, 0x7fa796a080809f84U,
  0x968088819d9c8598U, 0x8f8c919697817f82U, 0x9a87a78d97908a9fU, 0x909a969d9aa98f92U,
  0x888a83a993a79289U, 0x8d94a69190979e97U, 0x8990a37f9d8e98a0U, 0xa6a4819986888799U,
  0xa4a19293a780aa82U, 0xa36985a07f7b7ea1U, 0x73a48e9e869a87a4U, 0xa773a587a070879aU,
  0xa1afa991919b7fb1U, 0xa79c8d868b817f82U, 0xbf9f96999b759ca3U, 0x7fa9999ac59c9992U,
  0xaa85999f90809491U, 0x9a91958f9a9d9880U, 0x908b8a9092928679U, 0x8591a79787828eb0U,
  0xa3a0a475ad879a84U, 0xa39985879299929fU, 0xa8a485867f838faaU, 0x989c9881977a7580U,
  0x85969689979f8c9bU, 0xa3a59798a49e9996U, 0x90a37f98999e92a6U, 0x8f9aa79b828e9698U,
  0x83939ca68583a99aU, 0xa38c7b7e809c9ba4U, 0x839c847b8a858da0U, 0x829fa98895758b82U,
  0xa29f88a291907fa2U, 0x8b8ba6998c898b97U, 0x99838c9dba92a283U, 0x8e928d8b8d96809eU,
  0x947892a783859384U, 0x827a91a9a68c94a5U, 0x8590a9a28a8c827fU, 0x90898b879a8fa08fU,
  0x96938fa686898098U, 0x998294a29987a4a5U, 0xa78290a7808d829eU, 0x9793a79f9f857f91U,
  0x9a7f909b898a8999U, 0xa0898f87968c9a94U, 0xa68ba99690a08e90U, 0x909b9c849ea8a49eU,
  0x859b9e9684948a9fU, 0xa780978594929f9bU, 0x95a5a6a085a69485U, 0xa1928f928da9839bU,
  0xa4a294a78386899fU, 0x81889d90899e8899U, 0xa3819ea584849989U, 0x96a5947e898781a2U,
  0x908da480808aa37fU, 0x86c6a572aaa89389U, 0x9d8d976286a092a1U, 0xa0c884a4a09aa98eU,
  0x8c9aa5978c98a398U, 0x789f89a0a9a685a8U, 0x8fa1a68da595a19fU, 0xbb918e90779189aaU,
  0x908786aa8b92a298U, 0x858c84a49897a78bU, 0xa48198a7999091aaU, 0x7fa58c9e9d9c9bacU,
  0x9eaca69aada3819fU, 0x9c9a8cb48e96a0abU, 0x84858ba2879d898cU, 0x96a6969e8e98a79fU,
  0x8aa9908c879aa09eU, 0x96a9838d9d8a9c9bU, 0x8d928a8c82998098U, 0xa8879c7f8f99818fU,
  0x99979081969a81a5U, 0x898ba19f98a68c9eU, 0x8f9c90a38d9e9399U, 0xa29e938f9f878f94U,
  0x8ea383a693968698U, 0x838a84a58f9e8682U, 0x85a688a0a88c888aU, 0x859b8aa29491a7a3U,
  0x9a9a9c879da58c89U, 0x88a194869ea39482U, 0x9880858494899d84U, 0xa3a393928e8f7f85U,
  0x9ca299a0858c898eU, 0x95c59aa48a888aadU, 0x8c8f8b98a68d928eU, 0x8fbfa28a88b3baa5U,
  0x9881a6868f9a8996U, 0x9193a3a49f8a88a5U, 0x988a8b8284999194U, 0x8c80808785999094U,
  0xaaa18fa1a195ae9cU, 0x8f9671878d9ca07dU, 0x98a38fa588858fa9U, 0x89a096a381978ba9U,
  0xa781a1a090a685a3U, 0x96a8989d7395948eU, 0x9e769ab8ab8089a9U, 0x8c8c8e939a94a581U,
  0x808d84899e7f9585U, 0x9cb992849398909fU, 0x7c6b977ca59b8284U, 0x83b7a3828d99a79dU,
  0xa1c098849499ab98U, 0xaca7a29f9a98a6a7U, 0x9373969d8e9e8e88U, 0x519b8f907b84a58fU,
  0x9a7dad939598a081U, 0x94adb07e969581a0U, 0x7f9fa187bf9aacabU, 0xa08692a7a8929f89U,
  0x868f92ad8fa78f92U, 0x9389a2b2a395908dU, 0x95ab9daea5849088U, 0x9190aa8fa3878a90U,
  0x9b8892a69ba07d9eU, 0xa5998683a69d9fa2U, 0x9282a47f8ea59293U, 0x9fa88ca48ba28f8dU,
  0x91a58f90a29f8b8cU, 0x848e98a0a2a3a99cU, 0x9c8d9c98a3a08c96U, 0x8a929c8792809d88U,
  0x9794979986898a80U, 0x7a8e8ba486a88fa3U, 0x959291a48e84819dU, 0x926e9c8390988988U,
  0x858896ab96929692U, 0x999d93a89d9e9fb2U, 0x8596908695938f8dU, 0x9d89889794868b9cU,
  0xa7a6a99e988c9784U, 0xa1839fa08da4a1acU, 0x899683a5a085888aU, 0xa7749383898aafb8U,
  0x95968b9392a99b9eU, 0x9e80a48d848aa8a1U, 0xa6a488a78081918eU, 0x6d7f8ea7c7a69d88U,
  0xa69f938f887b9ba9U, 0x9292978b957f8f90U, 0x938dab9e92a482a1U, 0x878ca18394a18094U,
  0x8c9d8a90af8c7fa9U, 0x9f999295799b9f78U, 0x80898f8291a9959dU, 0xad96a6a08c958f95U,
  0x93909899ab9395a4U, 0x8d7d7baa9d9d898cU, 0x8f7d98b1a9a78485U, 0x8d918e8f868f959aU,
  0xa07ba6a2958ea7adU, 0x8b8299919a9d9b8cU, 0xb589a28ba5a5878eU, 0x789b8a998998a19eU,
  0xb1928395aea27ba8U, 0x8e8396ae80979c9dU, 0x908aa18587829284U, 0x89a788919f7f899fU,
  0xa6788784979c9f93U, 0x8c97a99e8f88907bU, 0x8f998b7a9e9596aeU, 0x9682aa94a898b598U,
  0x809f9a9b99998c87U, 0xa08a9b95aa839aa5U, 0x7196978f8d988a94U, 0x91a797a682aea089U,
  0x9a9d89a78fa18fa6U, 0x92a7899d99908d89U, 0x9a6389a49e739987U, 0x36969c8ec5829b9dU,
  0x9a859a7e7c70939bU, 0x859a93958ca1a684U, 0x8d83a1a39a96a28cU, 0xa59b829388959894U,
  0x998e7f848691a2acU, 0x9a82829763a49d7aU, 0x919884a9ae929485U, 0xa986a99881737394U,
  0x98848b7f90869096U, 0xa393a080849d96a3U, 0x8ba07f87a1928994U, 0x80889e9790a8a47fU,
  0xa6958c91828094a6U, 0x939a948c8b87a981U, 0x9286a996988f809aU, 0x9aa7a79ea48c8185U,
  0xa8859d9b85838a82U, 0xa58397848aa690a3U, 0x8b92a3818a819e8bU, 0xa79aa3998793878aU,
  0x8d8187a3a69094a7U, 0x7f958683a08981a3U, 0x97a4a7828b8f9ba3U, 0x9a938d9c8b8a889cU,
  0x7ea18fa29e908fa5U, 0x8797a18b989c837fU, 0x929a94848d889ba7U, 0x978e8394a39389a4U,
  0xa58e8199a382a09cU, 0xa883969a879b8f90U, 0x869a81a592a0939aU, 0x8a9386a580a4a58cU,
  0x918b9f9e86948da7U, 0x9d8682968da69586U, 0x93a3989d81939b8eU, 0x89a58691978a9a8eU,
  0x96a3a0978c8b8097U, 0x858d959f9c9ca890U, 0xa8a7a881a89b8c84U, 0x919f9f849ea78594U,
  0x97999d819488aa97U, 0xa436a6aca0978a83U, 0x93b1a4b68791a89bU, 0xa149a19b8b5a697fU,
  0x86839ba1ae938a86U, 0xa79499809386a19fU, 0xb08c8faba489a28cU, 0x78a38d89b0a1a38dU,
  0x90909b81a383919bU, 0xa492b7a98292a2aaU, 0x8a99956888aa929eU, 0x95a096838a97a887U,
  0xa098a8976d938b90U, 0x9b78a564af899180U, 0x95afa569908893a7U, 0x8b8c8299849b9f88U,
  0x86888c8c7fa4889cU, 0x82a0808ca89b8687U, 0x8fa29a9b899b998bU, 0x9090a3a49da2a39aU,
  0x8f9c8998838084a7U, 0x8f9b868f8f969893U, 0x98938a909584859dU, 0x8096a5848a7f9f99U,
  0x9aa69ba2a18b9c8eU, 0x9082969c848e84a3U, 0x8598878e88948b81U, 0x8880968b80a89283U,
  0x95a48691a48d90a5U, 0x838b858f91909fa4U, 0x8c80a67fa4a1969bU, 0x8fa88da898808d8fU,
  0x82a7a4908b959989U, 0x868ca7937f818b8aU, 0xa78da891a3a49487U, 0xa483808f8d8f859fU,
  0x82878a9d7f8d91a8U, 0xa392a08b9da0a294U, 0x949a84978a9aa48cU, 0xa286a7a3878f8799U,
  0x998a92a69a8b9a86U, 0x98969c948d9b9b87U, 0x7f938b9da79f8694U, 0x9e8586a68e839093U,
  0x85a0a596927f9597U, 0x8d849a8d908f90a4U, 0x8ba19793a381a681U, 0x988b82a3a4a1a2a6U,
  0x878e90897c7da281U, 0xa4c8a488ae8fa791U, 0xab90826c988d9e8bU, 0x81a5888b99b791a0U,
  0x90819d98799d87a7U, 0x8f8392a995a78682U, 0x7e8e8ea7a3969193U, 0xb1a19b9e74859fa4U,
  0x977fa78f95a2a0a6U, 0x919978a58199a197U, 0xa0837fa08f9897b0U, 0x8ba2a281908c8597U,
  0xa3828d9b8c82a2a3U, 0x7eaf8dbe8f828e85U, 0x967c94c0b19aa4a7U, 0x98a2989a98a7907fU,
  0x829f8c93a0959085U, 0x86aa897e9ea3aba4U, 0xb17998749c859082U, 0x90a8a78a9eabaea2U,
  0x7a858299a2a2a194U, 0x97a487a6ad9c8f9aU, 0x9c948e91a7b1a080U, 0xa8a8a1865a8fa0a5U,
  0x86a1918c9ea79baaU, 0xa895a283a3a480a4U, 0x9f8299a6968a9381U, 0xa6868a958b9da3a5U,
  0x8097a8a9988e8c8aU, 0x9c98829d8481a5a2U, 0x8c9f9fb491919b9dU, 0xa594969584b09da5U,
  0x9199a481ad7ea3a7U, 0x8f7695a58b9096a4U, 0x8b969bc17e95a2a0U, 0x83638f929c8ca5acU,
  0xa8a6a8b9819b8eb7U, 0x9595888685a7999fU, 0xaf80aa9da07587a8U, 0x66a9888fbca78396U,
  0x969c82839981839cU, 0x90839b9e8da09c96U, 0x8997a985a9867e7bU, 0x858fa2889c8e8a99U,
  0xa294a583ab7b97a9U, 0x9e979b8e8f85a38dU, 0x9f9c9474898f8f9bU, 0x97a29a859e798a85U,
  0x9c829ba0ad8b8290U, 0x86769cac9d8798afU, 0x908984a59687a490U, 0x896ca38b7e82aaa1U,
  0x9ea4a1ac859a8aabU, 0x9aa0a19c9782a5a1U, 0xb79294939d977792U, 0x688d7f8ec0aa93a6U,
  0xab8e9e858981869fU, 0x9c908192a18e889bU, 0x8f839b90a585a69fU, 0x87838da2938c8cb0U,
  0x84908d99aa7ca0aaU, 0x9b8aa277819e9da1U, 0x90989c937da9a990U, 0xa18a90a7888e84a0U,
  0x9c969f87819a8ea0U, 0xa3bb876faa8fa581U, 0xaf8d8e7ea890978cU, 0x95be83979f9ba8a8U,
  0xa38a9d82777d988eU, 0x8ca49887a9979b9aU, 0x7e9a9ea17fab9e86U, 0xa89295956b919886U,
  0x8a9ba9b095b0aca1U, 0x9687828c7fa69794U, 0x889287b99d828da4U, 0x888fa09b9d839daeU,
  0x9f8a8f8ba1888ba3U, 0xa2a4809a7d8f8a8cU, 0xa67d9c9fb0a294a4U, 0x84837fa69d8eaf92U,
  0x88a89f7faa768a92U, 0xa59e7c9788917ea2U, 0xab958698889a9572U, 0x9ba396a095b3a1b2U,
  0x819994b9b699a4b6U, 0x8da48598908d8f85U, 0x9e949195aa8e91a4U, 0x2c8088817e8486aaU,
  0x9a98a08c9488b091U, 0x9b93979c9a8b9d8eU, 0x90a28bb4a9949798U, 0x849f929a819a8ea1U,
  0x85a48f90917d8fa5U, 0x9094a4a66f959777U, 0x999b868eb4978d9fU, 0xa2889d9d84939095U,
  0x85969aa2c0879d99U, 0xa67880a79f6a87b6U, 0x7c91a99ea18c7e94U, 0x8773a380a38b91b0U,
  0x939c9baa7d929399U, 0x9aa09a7a978b90a2U, 0xa679a984a78094a9U, 0x67928e85e6a87fa5U,
  0xaf9a8f8695978b98U, 0xab7d9a928c958f87U, 0x87a4999496829c6cU, 0xa788838fa4a892a5U,
  0x8c94a87dae9b949bU, 0x86689782889fa77aU, 0x9b7f9e8ba79f9b9aU, 0x9e81a891858a6f8bU,
  0x8b909b99908c89a1U, 0x9eca87a0a0858d9cU, 0x8a9e9e71a18a8b90U, 0x86c78ea3849f97a6U,
  0xad81887e819794a8U, 0x7d95909d8a9b9d84U, 0xa9ad86868ca69885U, 0x9592a4918795879bU,
  0x8f88a8a092899b90U, 0x97a2889aa89d9688U, 0xa3a38bb79198979bU, 0xa69c8aa487858d91U,
  0x988b8fb2b67f9497U, 0x90a18eb27a95939aU, 0xa08c91a4b09e838dU, 0xa1a69ba4a0a5a19dU,
  0xa5929ca79ba49b84U, 0x889fa383909d91a2U, 0x9aa4878489939d82U, 0x868785819a888a84U,
  0x87999a81a7979aa4U, 0xa5a78a88828b8588U, 0x8c94888c8a868185U, 0x9ea582808d829f8cU,
  0x9e9b8a9985a79683U, 0xa59798848483a29dU, 0x9d9d8d89858aa482U, 0xa7819499898d8e82U,
  0x839ca192a385a39fU, 0x818a8494a3a5a290U, 0x918aa3a6959a8b9bU, 0x899f868d839f8a98U,
  0x94859d824eaf96a2U, 0x97758363a08ba453U, 0x9da1938c90939ba5U, 0x9f628e9f964d1267U,
  0xa1a57e64357e8351U, 0x8d89a6a296a28f9cU, 0x54819c80867d1584U, 0xa4839da497869a84U,
  0x769e908da1859593U, 0x9d9c528d9aa68195U, 0x9b9e9368a5ab9a85U, 0x968e7a97858c9219U,
  0xa69b96a3159da187U, 0xa1829a2fff9081a1U, 0xa60f99275e958d94U, 0x87a8869893857fa4U,
  0x9c88a48cc49f8a94U, 0xa53c99cc8c8d7e91U, 0x9c95a6a89f878b9dU, 0x813da69f7c1b5e83U,
  0xa3a482a7aaaa7b88U, 0xc780928c90849087U, 0xd35b9ea69261bf99U, 0x72979695c582a687U,
  0x8b989f6d9f727d8fU, 0x9f94a7908295999bU, 0x8d8f95679ea59d99U, 0xa1a1958ca0a9a96bU,
  0x828690935ca28a9cU, 0x8c6d852bd98ba699U, 0x8fa29a2d6586a19bU, 0xa28b839ea6867898U,
  0x82879b919f7691a5U, 0x8aa68692a0949c99U, 0x95788bb4a7939576U, 0xa88484939e9c9dabU,
  0x7c8398aeb0939197U, 0xa89da7998da27fa4U, 0xafa69084aaa59da9U, 0x3d8a86a8988f8c9bU,
  0xad87a4939497a392U, 0xad929da097a0a37fU, 0x969395aaa4919090U, 0xa293a9a78da1a894U,
  0x7f808e959a7d9498U, 0xa1a48eb09c87a888U, 0x8eaf85a494a7859cU, 0x92878d9995aa8e96U,
  0xa0a391a2b59092a0U, 0xa38a99bb837789a1U, 0x9c8e91c09395848aU, 0xa1788e9292959ba3U,
  0x92bfa0aab7a6a4aaU, 0xb181a187a5999e9bU, 0xae8ea994a8889ba9U, 0x5e869689e783859fU,
  0xb38f9592838b7ea1U, 0x91879f85a1928e92U, 0xa28f9b9e997f9697U, 0xa7a1a980878aa3a1U,
  0x9b9392758b81a094U, 0x83929ca9cd7fa474U, 0x819f91a391a28e86U, 0x9e919683a2777691U,
  0xa7969e8f9ba1a88bU, 0x8b67899f82a187abU, 0x89a294bba6879c82U, 0xa269998892858baeU,
  0xa3889e94a7a98fb3U, 0x94928a8781a48786U, 0xa38597938d988481U, 0x6e9d8482b1938ca0U,
  0xa2a19f9592968ca6U, 0x9697a5a19a998ca5U, 0x9ca4928e9fa2837aU, 0x92999a919d9f9d8bU,
  0x8d938b969aa2a39fU, 0xa78194738d898682U, 0x83aa9e71849d9297U, 0xa48293909c857a9dU,
  0xbd237a3dbd2672ceU, 0x3cf800963d58fa85U, 0x3d76f3f73d0aa704U, 0x3b327423bcafb40dU,
  0xbd2a512f3daa47dcU, 0xbce1377b3cd08625U, 0x3c0371d9bcee15bbU, 0x3bde0ff3bcfe26c5U,
  0xbd850ea5bda9e2f5U, 0x3c8c9d1fbd2bdc9dU, 0x3d28fe7bbd2972ffU, 0xbdace8b5bd870eceU,
  0x3d04ebdbbd81b5cfU, 0xbb1e21f3bd3d3698U, 0x3d9bc1de3d685bacU, 0xbc162f19bd61fc7eU,
  0xbdaf2afe3cd23d27U, 0xbc9c031d3dbaed5dU, 0x3d376ac13cce146fU, 0x3d376a8b3d3aeb21U,
  0x3da81750bc3b5036U, 0x3d001e713d869480U, 0xbcf9886a3da9dd04U, 0x3d1f8fadbcc9a733U,
  0xbd2ec9e43ca5387aU, 0x3d14793bbd2efff3U, 0x3c9b531cbd1f0e42U, 0x3c990d19bd6391c5U,
  0x3d2e87523d94d463U, 0xbd57d870bce6313fU, 0x3d6faa623c1fdefcU, 0x3860f5e7bd6b3f42U,
  0x3d878abfbd7e8b10U, 0x3bea2b8abd449eafU, 0xbd990488bd15c099U, 0xbd5531aebc885c4cU,
  0x3c36ad90bd10790eU, 0xbd3ef9313d21ba70U, 0xbc002836bc9599e7U, 0x3cf0179e3cbcac7fU,
  0xbd80352bbca6cef2U, 0xbd18eacf3d3959e1U, 0x3d4ae56a3cfbd085U, 0x3d384b963d82afd1U,
  0x3dbbe2f8bcf3ccaeU, 0x3d657232bd3206c1U, 0xbcf18699bd55656aU, 0x3d4af7de3ca03b3dU,
  0x3d6b2c493d820d2fU, 0xbd21cb783cba8415U, 0x3d8a321d3d4f8037U, 0x3d689522ba450976U,
  0x3d5708a63db22e97U, 0xbc4978213c41a39cU, 0xbbb2440dbd0e614cU, 0x3d19d7df3d753875U,
  0xbd99ba70bce74097U, 0x3d9c67f53d92439cU, 0x3d8d2e3b3da97ae1U, 0x3c0556ac3d158847U,
  0x3d6b959d3d2a397dU, 0xbd5f3238bcf0ea8fU, 0x3d8a4b3b3d8e4e74U, 0xbd0fe7db3daa001fU,
  0xbd28d0d03e80f4e6U, 0xbde9aa983cb5fac8U, 0x3d4c6c8d3ddd3ff4U, 0xbe99af653e0ebd4dU,
  0x3c4b6de93b6186e7U, 0x3e658745be73420dU, 0x3ce3e95c3de4e438U, 0x3e5031dfbdee9e7dU,
  0x3ea1e046bc234389U, 0x3d9ac3c53d3fe228U, 0xbe8ed19dbdbffeedU, 0xbe16c73b3dad9451U,
  0x3e500f04bc5e3138U, 0x3d70d0883cd0b3a7U, 0x3e545f983c2b5b36U, 0xbd52c0913ca46d2dU,
  0xbe322fe93d484ffcU, 0x3cb78679bcdb08e1U, 0x3be7f7e33e1aefaeU, 0xbe1a7f3dbe195c6cU,
  0xbd22fdbe3da2c305U, 0x3e8da3373e54e798U, 0x3c6322c9be267402U, 0xbdbbe1f23dbfcc1bU,
  0x3ea1165fbaad3fdaU, 0xbdb2d5cc3df0b8e5U, 0xbe3b94a2bdf7184fU, 0x3d8f197c3d56aea0U,
  0x3d3e50793d0e5b30U, 0xbde0476fbde1594eU, 0xbc65066bbe88c623U, 0xbd044863be7d1ad9U,
  0xbe11d10e3e47e5adU, 0x3e7ec830bdea25ddU, 0x3d966809be4ed0b7U, 0x3ea6f9ae3d74c1ffU,
  0xbdb2c23abd888d1fU, 0xbd541bd3be31dee1U, 0xbe70ed933dea90efU, 0xbd8b77783d4dd532U,
  0xbe01634dbb08f5f4U, 0xbe83ccce3ded1e1fU, 0xbd8b71103d5d41bbU, 0xbd9178173df8e5e0U,
  0x3e70a23dbe4b61fbU, 0x3e02bfda3d0491b9U, 0x3d874851be1aea1cU, 0xbccd9c44bd9c971cU,
  0xbb72a9733e2c0686U, 0x3e36c08a3d999526U, 0xbdb845b63d6c3ffdU, 0xbd7a002e3c8063f0U,
